the 353365
, 265900
of 180563
to 166056
and 143149
in 108631
that 86734
is 83943
a 83539
for 55839
I 55238
on 49485
be 44430
this 44114
we 43213
are 37383
have 35218
it 34628
not 33244
as 32434
with 31789
which 30455
European 30145
The 26368
will 26105
by 25929
has 22947
Mr 19751
at 17366
an 16784
also 16441
would 16152
should 15906
Commission 15861
all 15660
- 15505
our 15077
must 14941
from 14658
We 14582
President 13837
but 13676
been 13328
you 12191
It 11770
can 11626
Union 11563
was 11482
Member 11255
more 11099
Parliament 10939
or 10888
its 10860
report 10696
Council 10460
States 10401
there 10268
do 10193
their 10042
like 9996
very 9594
This 9307
these 9286
Europe 9259
In 8989
they 8849
one 8664
what 8360
countries 8115
about 7945
need 7942
other 7932
us 7886
so 7783
EU 7685
who 7642
my 7597
new 7405
policy 7398
important 7323
only 7271
time 7017
because 6824
people 6791
if 6770
no 6702
now 6453
am 6384
up 6265
such 6243
out 6187
make 6017
between 5996
take 5898
those 5838
support 5834
work 5771
into 5743
when 5583
economic 5332
some 5328
being 5272
any 5269
political 5195
rights 5184
therefore 5173
made 5157
them 5127
believe 5010
way 5001
were 4926
than 4859
social 4859
Commissioner 4659
say 4614
many 4597
against 4550
fact 4533
first 4465
market 4429
proposal 4287
That 4230
debate 4220
issue 4213
just 4150
human 4099
future 4098
point 4051
years 4044
Committee 4022
think 3989
here 3974
measures 3928
order 3897
development 3896
two 3871
public 3856
question 3837
does 3837
right 3836
As 3816
well 3767
same 3765
citizens 3763
could 3761
cannot 3745
most 3715
possible 3705
had 3705
financial 3674
want 3668
even 3667
said 3667
situation 3658
national 3637
Mrs 3621
too 3590
already 3558
common 3551
where 3522
much 3518
within 3492
There 3477
me 3477
clear 3436
particular 3433
– 3417
country 3389
how 3389
good 3387
part 3378
still 3366
agreement 3347
see 3343
your 3340
able 3308
year 3263
level 3262
know 3247
However 3245
course 3244
today 3238
use 3231
both 3223
cooperation 3216
Community 3213
view 3195
vote 3188
taken 3188
over 3148
hope 3143
ensure 3053
area 2998
under 2994
his 2992
system 2972
own 2969
process 2947
case 2921
House 2919
action 2915
last 2899
place 2890
why 2886
gentlemen 2879
problem 2873
world 2872
information 2862
number 2861
however 2860
example 2838
put 2809
then 2803
great 2801
means 2789
through 2781
problems 2780
may 2766
without 2756
international 2734
'@@ 2718
If 2707
issues 2702
health 2635
give 2625
particularly 2616
budget 2614
he 2597
Treaty 2588
necessary 2544
rapporteur 2528
end 2524
before 2517
women 2517
proposals 2501
respect 2500
given 2488
protection 2482
programme 2471
ladies 2467
matter 2463
areas 2456
whether 2449
regard 2444
legislation 2441
Madam 2440
far 2376
legal 2359
again 2357
thank 2355
terms 2353
set 2338
position 2330
role 2300
law 2299
security 2291
since 2289
done 2273
further 2266
framework 2258
next 2256
crisis 2251
adopted 2250
energy 2247
Members 2244
resolution 2239
amendments 2235
rules 2234
behalf 2232
favour 2229
certain 2229
come 2211
services 2187
What 2186
help 2181
better 2180
But 2179
different 2175
research 2174
sector 2171
Group 2167
basis 2165
employment 2163
present 2155
agree 2153
directive 2152
needs 2109
institutions 2094
wish 2090
progress 2080
result 2039
continue 2030
something 2026
concerned 2005
A 2000
United 1998
after 1990
working 1986
For 1984
specific 1978
ask 1972
change 1971
aid 1963
towards 1947
few 1945
trade 1940
forward 1939
whole 1939
shall 1936
opinion 1913
decision 1903
subject 1902
State 1900
three 1897
policies 1888
long 1886
group 1881
going 1876
regions 1874
together 1864
welcome 1862
authorities 1858
approach 1853
voted 1848
importance 1845
s 1843
go 1835
strategy 1827
On 1806
regulation 1803
used 1799
general 1797
resources 1795
did 1786
every 1779
really 1777
current 1773
including 1766
quite 1765
opportunity 1761
internal 1757
safety 1749
down 1743
become 1742
second 1742
account 1735
proposed 1729
conditions 1728
economy 1721
state 1719
provide 1718
find 1716
increase 1709
million 1702
during 1700
principle 1697
clearly 1697
rather 1683
society 1682
making 1678
itself 1678
third 1675
another 1674
Commission's 1674
major 1669
attention 1660
industry 1651
essential 1648
especially 1648
achieve 1647
responsibility 1630
always 1625
greater 1621
transport 1617
deal 1614
Lisbon 1614
environmental 1608
competition 1601
fundamental 1601
freedom 1592
least 1592
These 1590
difficult 1587
They 1587
various 1581
once 1578
efforts 1571
products 1561
growth 1557
access 1551
call 1549
words 1547
real 1542
effective 1542
Presidency 1539
democratic 1538
implementation 1537
reason 1528
serious 1525
negotiations 1519
No 1514
At 1513
things 1513
taking 1511
free 1502
democracy 1488
yet 1481
environment 1480
each 1474
positive 1466
based 1464
workers 1460
control 1454
interests 1453
reform 1442
single 1439
points 1437
having 1435
procedure 1427
small 1421
step 1412
decisions 1412
concerns 1409
look 1405
So 1405
get 1399
while 1398
back 1396
standards 1392
committee 1392
money 1392
EUR 1391
groups 1385
large 1385
certainly 1380
objectives 1374
consider 1371
1 1364
Affairs 1363
fully 1362
interest 1362
allow 1360
less 1360
high 1357
majority 1354
global 1346
best 1346
often 1341
funds 1338
simply 1335
involved 1334
aware 1331
Government 1321
hand 1307
ago 1307
region 1306
enlargement 1303
bring 1299
main 1296
results 1295
' 1294
companies 1293
recent 1291
her 1289
following 1284
relations 1284
programmes 1282
might 1280
full 1278
indeed 1273
mentioned 1273
context 1265
And 1258
labour 1258
presidency 1250
government 1245
risk 1242
life 1240
extremely 1234
accept 1231
fight 1227
actually 1226
concern 1226
solution 1226
quality 1223
create 1220
Turkey 1220
text 1215
You 1214
form 1214
period 1207
concerning 1196
currently 1194
food 1190
projects 1185
children 1185
objective 1182
improve 1180
available 1180
key 1178
developing 1172
field 1168
impact 1167
questions 1165
initiative 1161
management 1160
regional 1159
agreements 1159
appropriate 1154
though 1152
force 1149
open 1148
months 1148
start 1146
local 1144
regards 1141
jobs 1141
meeting 1139
Let 1138
priority 1137
feel 1137
dialogue 1136
amendment 1134
agricultural 1133
To 1132
production 1131
needed 1130
responsible 1129
others 1128
Finally 1118
power 1117
peace 1116
themselves 1115
kind 1114
Court 1113
doing 1112
matters 1107
let 1101
enough 1100
Article 1099
idea 1098
day 1095
thing 1095
cases 1094
Parliament's 1092
markets 1088
activities 1088
solidarity 1087
line 1086
lack 1083
sure 1081
Convention 1080
joint 1078
principles 1073
climate 1070
immigration 1068
legislative 1067
little 1065
transparency 1063
funding 1062
achieved 1061
integration 1061
draft 1060
writing 1060
compromise 1059
act 1059
past 1057
individual 1054
include 1051
members 1046
understand 1046
reasons 1040
states 1037
reports 1033
tax 1030
promote 1027
response 1027
aim 1025
true 1024
systems 1024
My 1024
due 1022
significant 1021
strong 1021
among 1011
perhaps 1008
costs 1007
longer 1005
Russia 995
commitment 994
comes 993
nothing 992
moment 992
effect 990
congratulate 989
education 989
governments 988
euro 984
sustainable 983
fishing 982
Rights 982
although 981
Our 980
Union's 979
mean 976
final 973
relation 972
special 971
aspects 971
upon 970
provided 969
accession 967
discussion 965
apply 964
move 962
prevent 962
plan 959
seen 953
excellent 952
agenda 950
success 949
lead 947
benefit 941
investment 940
above 940
project 938
2 936
values 934
With 933
play 932
guarantee 932
poverty 928
contribution 926
population 925
President-in-Office 925
actions 922
movement 921
agreed 921
makes 918
consumers 914
regarding 912
provisions 912
him 910
violence 910
pay 909
parties 909
several 907
cohesion 907
changes 905
creation 905
carried 897
Secondly 897
remain 894
business 893
Directive 892
share 890
civil 888
addition 886
express 884
practice 884
existing 883
Minister 883
tomorrow 883
mind 882
ourselves 880
saying 879
communication 875
answer 874
external 873
data 873
sense 871
pleased 871
seems 868
statement 867
criteria 865
relating 865
One 860
budgetary 859
priorities 859
equal 858
application 856
When 855
colleagues 854
asylum 854
crucial 852
speak 852
presented 850
never 845
young 845
everything 843
procedures 843
Ireland 842
cultural 841
reduce 839
stability 839
: 838
; 836
task 834
Therefore 832
levels 830
nuclear 829
Amendment 828
foreign 826
terrorism 826
000 823
close 821
increasing 821
guidelines 820
technical 819
illegal 819
namely 819
thus 818
(@@ 818
requirements 815
Irish 815
everyone 814
item 812
regulations 812
stage 812
borders 810
training 808
throughout 807
challenges 807
consequences 806
held 806
around 804
-@@ 804
across 801
required 800
mention 799
adopt 798
until 795
voting 794
assistance 794
elections 792
victims 791
address 790
reached 790
implemented 789
instruments 789
show 789
off 787
asked 787
balance 786
tabled 785
initiatives 785
consumer 783
basic 782
increased 782
meet 780
private 779
draw 778
monitoring 778
France 777
tell 775
un@@ 773
organisations 773
Thank 772
potential 772
either 769
times 769
confidence 769
term 766
French 764
try 761
establish 761
value 761
focus 760
coming 759
face 758
develop 757
effort 756
thanks 756
powers 756
reading 753
raised 752
decided 751
soon 750
expressed 748
protect 748
she 748
called 746
All 746
reforms 746
using 742
service 741
's 741
closed 740
sectors 739
3 739
outside 736
job 732
previous 732
talking 730
Europe's 729
fisheries 728
doubt 726
Fund 726
brought 725
keep 724
summit 724
vital 724
m 723
unemployment 722
took 721
men 721
nature 720
experience 718
coordination 718
discussed 717
request 716
10 715
included 715
conclusion 713
competitiveness 712
extent 712
review 712
four 710
direction 709
opportunities 708
creating 708
five 708
talk 704
prepared 703
note 703
strengthen 702
week 702
along 702
heard 700
established 699
implement 698
living 698
reality 698
Furthermore 696
model 695
5 694
Conference 694
demand 693
cost 693
recently 691
farmers 686
whose 685
discrimination 685
approved 684
December 684
finally 683
EU's 682
document 682
12 681
fellow 681
effects 680
light 680
11 680
billion 680
supported 680
crime 679
instrument 675
Republic 673
motion 672
absolutely 672
re@@ 671
rule 671
completely 670
giving 669
list 669
reach 668
natural 667
found 665
affected 662
) 661
capacity 661
Of 660
live 660
fair 659
add 659
UN 658
Economic 658
quickly 657
pressure 657
solutions 656
Summit 655
representatives 653
almost 652
China 651
structural 651
proper 650
enable 650
additional 649
amount 649
combat 646
businesses 644
takes 643
connection 643
Germany 642
emissions 642
conclusions 642
direct 640
practical 640
discuss 639
ensuring 637
assessment 636
shown 635
nor 635
culture 634
events 632
Party 630
begin 628
days 628
old 627
offer 627
parliamentary 627
road 626
calls 626
possibility 625
away 625
discussions 625
military 625
justice 624
care 622
community 622
Firstly 622
circumstances 621
effectively 621
cause 618
2000 618
First 617
criminal 617
encourage 616
scope 615
applied 615
expect 614
considered 614
institutional 613
International 613
ever 613
reference 613
equality 613
Mediterranean 612
behind 611
carry 610
‘@@ 610
remains 609
propose 608
administrative 607
comments 606
accordance 606
waste 606
partners 605
treatment 604
Justice 603
short 603
message 602
despite 602
package 601
air 601
disaster 599
adoption 599
networks 598
honourable 598
reduction 597
broad 597
huge 594
relevant 594
difficulties 594
active 594
border 593
authority 593
six 592
left 591
history 590
received 590
beginning 589
status 589
considerable 588
Pact 588
stress 587
war 587
forms 586
developed 586
personal 586
4 585
trying 585
remind 585
ways 584
avoid 584
partnership 583
Human 583
aimed 582
contribute 582
views 581
created 581
instead 578
technology 577
date 576
Now 576
ten 575
consideration 575
hard 573
precisely 573
agriculture 573
providing 570
beyond 570
conflict 570
goods 569
participation 569
independent 568
turn 567
(DE) 566
May 566
speech 566
lot 564
family 563
industrial 563
promoting 562
Social 562
rightly 561
competitive 561
goes 561
unacceptable 561
ban 561
closely 561
dealing 560
June 560
colleague 559
Constitution 559
purpose 558
challenge 557
specifically 557
decide 557
capital 557
Spanish 557
He 556
Spain 555
exist 555
combating 554
demands 553
referred 553
wanted 552
stated 552
price 551
provides 550
stop 549
scientific 549
speaking 548
15 548
allowed 548
US 547
Brussels 547
minimum 546
successful 546
led 546
agencies 546
myself 545
oil 545
persons 544
provision 543
plans 543
activity 543
discharge 543
overall 542
produce 542
thinking 542
seriously 541
introduction 540
i 539
Strategy 539
sitting 538
innovation 538
rate 537
candidate 537
enterprises 536
represent 536
requires 535
respond 535
Central 534
stand 534
improving 534
forces 533
Copenhagen 533
content 533
aims 533
Regulation 533
statements 532
intended 532
directives 532
event 531
20 531
conference 531
Policy 531
genuine 530
developments 530
steps 529
party 528
America 527
long-term 526
sufficient 524
setting 524
committed 524
refer 524
convinced 523
How 523
duty 523
entire 523
fund 523
wrong 523
highly 523
Agreement 522
type 522
ambitious 522
Unfortunately 521
aspect 521
lives 521
Rules 521
recognise 521
paid 521
British 520
implementing 520
East 520
happen 519
measure 519
strengthening 519
side 518
risks 518
unfortunately 518
differences 518
emphasise 518
urgent 517
sometimes 517
Greece 517
Paper 517
damage 517
police 517
prices 516
according 516
accepted 516
increasingly 516
analysis 516
Belarus 516
efficient 515
Development 515
Today 515
per 514
similar 513
% 513
total 512
hold 512
word 512
Europeans 510
discussing 509
caused 509
parts 509
regret 508
complete 508
September 508
directly 508
strategic 508
7 506
receive 505
represents 505
Although 505
improved 504
anything 504
achieving 503
1999 503
laws 501
30 501
concrete 501
infrastructure 500
knowledge 500
media 500
higher 498
bodies 497
expenditure 497
responsibilities 496
recommendations 496
benefits 496
contrary 495
maintain 495
prevention 495
relationship 495
becoming 494
properly 493
commitments 493
integrated 492
flexibility 492
product 492
Nations 491
financing 490
return 490
consensus 490
early 489
25 489
supporting 489
6 488
produced 488
defence 488
half 487
union 487
join 486
calling 486
added 486
happened 485
home 484
require 484
dealt 484
paragraph 484
regime 484
reducing 483
efficiency 482
thought 482
earlier 482
conclude 481
pointed 481
refugees 481
useful 480
German 479
medium-sized 479
shows 478
9 478
weeks 478
obviously 477
staff 477
controls 477
says 475
introduced 475
dangerous 475
March 475
central 472
acceptable 472
2002 471
8 470
spirit 470
Czech 470
Roma 470
concept 469
opposition 468
Some 468
establishment 468
leave 467
alone 467
establishing 467
entirely 466
consultation 466
Bank 466
manner 466
probably 465
wants 465
2003 465
raise 465
exchange 465
former 464
closer 464
forget 464
negative 464
promotion 464
2004 464
follow 463
rise 463
Italy 462
limited 462
monetary 462
poor 461
known 461
death 461
Is 460
threat 460
Sweden 460
outcome 460
member 460
humanitarian 460
Nevertheless 459
else 459
later 459
Barroso 459
rapporteurs 458
drawn 458
Ministers 458
complex 457
introduce 457
laid 456
Why 455
ones 455
methods 455
remember 455
Cyprus 455
met 454
January 454
whom 454
votes 453
elements 453
Moreover 453
gives 452
limit 452
cut 451
After 451
building 451
World 451
ideas 450
annual 449
bear 448
facing 448
Italian 448
elected 447
so-called 446
firstly 445
Dutch 445
comment 444
urge 443
subsidiarity 443
in@@ 442
hear 442
alternative 441
de 441
recognition 441
rejected 441
definition 441
age 440
press 438
water 438
November 437
noise 437
currency 436
Since 436
Prime 436
build 436
debates 435
comprehensive 435
Foreign 435
happy 434
study 434
2005 432
governance 431
exactly 431
degree 431
resolve 431
Schengen 431
unable 430
Indeed 430
putting 429
Monetary 429
balanced 428
Programme 428
attempt 427
influence 426
rest 425
Stability 425
ahead 425
dimension 425
transparent 425
delegation 425
Council's 423
enormous 423
positions 423
looking 423
Even 422
regulatory 422
treaty 421
merely 420
Charter 420
failure 420
p 420
trafficking 419
lines 418
asking 418
Ladies 418
drugs 418
practices 417
applies 416
economies 416
easy 415
method 415
structure 415
credit 415
Israel 415
sensitive 414
exercise 414
Research 414
critical 414
language 414
burden 413
strongly 413
(FR) 412
institution 412
October 411
fear 411
organised 411
contains 410
leading 410
told 410
origin 410
Amendments 409
American 409
MEPs 409
Question 409
2010 408
opening 408
chance 408
bringing 408
declaration 408
Palestinian 408
yesterday 407
independence 407
read 407
plenary 406
organisation 406
Many 406
desire 405
acts 405
managed 404
sound 404
sort 404
addressed 404
Security 404
(The 403
fall 403
lost 403
peoples 403
liberalisation 402
Russian 402
finance 402
Environment 401
growing 401
territory 400
gas 400
wishes 400
big 400
constructive 399
actual 399
office 398
sea 398
child 398
e 397
rural 397
S@@ 397
network 396
submitted 396
low 396
name 396
body 396
weapons 396
greatest 395
trust 395
membership 395
immigrants 395
"@@ 395
signed 394
traffic 394
ability 394
speakers 394
informed 394
improvement 393
worked 393
Health 393
Portugal 392
reduced 392
includes 392
documents 392
repeat 391
Kingdom 389
faced 389
impossible 388
intention 388
recommendation 388
Latin 388
perspective 387
situations 387
sources 387
Turkish 387
ought 386
came 386
Minutes 386
substantial 386
extend 385
failed 385
related 385
commercial 384
adopting 384
Green 384
expression 384
election 383
immediately 383
table 383
leaders 383
obligations 382
Poland 382
mechanisms 382
politicians 382
forced 381
instance 380
grateful 380
Netherlands 380
mainly 379
gender 379
involving 379
seem 379
Procedure 378
targets 378
highlight 377
racism 377
ground 376
Thirdly 376
reply 375
Swedish 375
Trade 375
Public 375
supervision 375
send 374
’ 374
exclusion 374
intend 373
followed 373
designed 373
maritime 373
detailed 372
fish 372
Nos 372
dis@@ 371
happening 371
serve 371
meetings 371
2001 371
affairs 369
sanctions 369
By 368
non-@@ 368
morning 368
shared 368
fraud 368
figures 367
danger 367
seek 367
attitude 367
spent 367
defined 367
campaign 366
binding 366
emphasis 366
technologies 366
safe 365
guarantees 365
carefully 365
operation 364
tackle 364
minority 363
mandate 363
secure 363
’s 363
floor 363
Africa 363
opposed 362
land 362
globalisation 362
2009 362
linked 361
supply 361
changed 361
inclusion 361
income 361
Sea 361
correct 360
granted 360
range 360
13 359
Baltic 359
animal 359
mechanism 358
totally 358
UK 358
consumption 358
WTO 358
limits 358
company 357
forthcoming 356
decision-making 356
truly 355
original 355
rates 355
intervention 355
Lastly 355
1996 355
signal 354
bad 354
2006 354
recognised 353
official 353
heart 353
nations 353
appear 353
appropriations 353
goal 352
(Applause) 351
harmonisation 351
supports 351
Commissioners 351
criticism 351
amongst 351
mutual 350
continuing 350
proposing 350
2008 349
involvement 349
getting 348
cover 348
customs 348
grounds 347
target 347
understanding 347
obvious 347
Chamber 347
mobility 346
reject 346
27 346
2020 346
involve 346
advantage 346
producers 346
person 345
50 345
choice 345
approval 344
ed 344
conduct 344
comply 343
element 343
anyone 343
rapid 343
disasters 343
ing 343
cross-border 342
credibility 342
structures 342
Ukraine 342
competence 342
administration 341
affect 341
families 341
covered 341
capable 340
thereby 340
restrictions 340
consistent 340
goals 340
scale 340
lower 340
An 340
gave 340
reasonable 339
Democrats 339
simple 339
thousands 339
s@@ 339
officials 339
resolutions 338
talks 338
Austrian 337
communities 337
board 336
A@@ 336
evidence 336
White 335
detail 334
causes 334
politics 334
parliaments 334
voice 334
modern 333
diversity 333
explain 333
whilst 333
committees 333
seeking 332
freedoms 332
source 331
Romania 331
banks 331
Framework 331
series 330
domestic 330
overcome 330
fishermen 330
taxation 330
adequate 330
century 330
July 330
attacks 330
interesting 329
impose 328
naturally 328
vision 328
demonstrate 327
Rule 327
tasks 327
travel 326
resolved 326
t 326
April 326
Yet 326
ready 326
conciliation 326
sent 325
Those 325
solve 324
factors 324
expected 324
obtain 324
monitor 324
tobacco 324
referendum 324
neither 323
starting 323
continues 323
Only 323
link 323
14 322
Growth 322
Middle 322
delighted 321
vehicles 321
statistics 321
February 321
C@@ 320
s' 320
substances 320
man 319
suffering 319
factor 318
conflicts 318
appeal 318
beings 318
sugar 318
otherwise 317
Such 317
India 317
2007 317
flexible 317
minorities 316
planned 315
letter 315
permanent 315
From 315
demonstrated 314
moving 314
via 314
requirement 314
protecting 314
Northern 314
today's 313
Greek 313
continent 313
reflect 313
judicial 313
Afghanistan 313
improvements 312
standard 312
immediate 312
constitutional 312
arrangements 312
Iraq 312
Structural 312
religious 312
run 311
Chinese 311
imposed 311
started 311
Strasbourg 311
er 311
terrorist 311
d@@ 311
(PL) 310
delay 310
migration 310
emergency 310
encouraging 309
equally 309
month 309
Treaties 309
sign 309
Given 309
numerous 309
proposes 308
initial 308
worth 308
M@@ 308
lies 308
evaluation 308
18 307
States' 307
representative 307
exists 307
s; 307
likely 307
interested 307
General 306
spending 306
territorial 306
associated 306
While 306
Internet 306
traditional 306
South 306
Eastern 305
expectations 305
guaranteed 305
remarks 305
occasions 305
Agenda 305
written 304
defend 304
Action 304
effectiveness 304
van 304
export 304
functioning 303
obligation 303
ers 303
Prodi 303
session 302
D@@ 302
Not 302
manage 301
difference 301
barriers 301
opinions 301
helping 301
dignity 301
Socialist 301
16 300
strict 300
strategies 300
citizen 300
loss 299
determined 299
Constitutional 299
II 299
pollution 299
concluded 298
17 298
facilitate 298
construction 298
fighting 298
identity 298
participate 297
impression 297
SMEs 297
Financial 297
North 297
existence 297
Funds 297
evening 296
According 296
individuals 296
es 296
Pakistan 296
generally 295
appears 295
personally 295
fiscal 295
purposes 295
investments 294
decisive 294
awareness 294
Bulgaria 294
o 294
clause 293
examine 292
trading 292
enter 292
easier 292
determination 292
NATO 292
innovative 291
inform 291
Employment 291
entry 291
ts 291
operators 290
planning 290
applying 290
amending 290
Another 289
late 289
Here 289
glad 289
Legal 289
professional 289
P@@ 289
Protection 289
operations 288
t@@ 288
k@@ 288
realise 288
Energy 288
employees 288
p@@ 288
presence 288
Kosovo 288
maximum 288
animals 288
fail 287
sides 287
Budgets 287
renewable 287
firm 286
arms 286
endorse 285
suggest 285
placed 285
visa 285
ultimately 284
Vice-President 284
continued 284
legally 284
contained 284
competences 284
requested 284
rating 284
Subject: 284
1997 283
nationals 283
f@@ 282
examples 282
Commission’s 282
property 282
vessels 282
assure 282
Georgia 282
operating 281
experts 281
Austria 281
pursue 281
cars 280
Despite 280
average 280
processes 280
allowing 280
courage 280
Report 280
Amsterdam 280
amounts 279
confirm 279
oral 279
payments 279
Heads 279
material 279
o@@ 279
treated 278
works 278
whatever 278
represented 278
historic 278
Danish 278
deficit 277
excessive 277
prosperity 277
separate 277
secondly 277
Fisheries 276
technological 276
ministers 276
abuse 276
disease 276
100 275
allocated 275
knows 275
preventing 274
involves 273
path 273
occasion 273
distribution 273
spoke 273
b@@ 273
pillar 273
attack 273
codecision 272
top 272
approve 272
function 272
ated 271
Year 271
car 271
considering 271
passed 271
strengthened 271
happens 271
vulnerable 271
sexual 271
duties 270
extended 270
collective 270
ate 270
substance 270
Then 270
operate 270
firmly 270
preparation 269
fulfil 269
believes 269
speed 269
intends 269
welcomed 269
ECU 269
rail 268
learn 268
transitional 268
legitimate 268
Commission' 268
respected 267
willing 267
(PT) 266
perfectly 266
grant 266
gone 266
unless 266
T@@ 266
prove 266
Western 266
pact 266
Europol 266
resulting 265
contributions 265
tried 265
justified 265
B@@ 265
Arab 265
corruption 265
Perhaps 264
compensation 264
g@@ 264
stronger 264
Vienna 264
places 263
announced 263
briefly 263
allows 263
drawing 262
acting 262
debt 262
imports 262
Denmark 262
primarily 262
diseases 262
succeed 261
confirmed 261
housing 261
described 261
Auditors 261
wonder 260
highest 260
tourism 260
truth 260
2@@ 260
room 260
types 260
equipment 260
compared 259
millions 259
spoken 259
taxes 259
appreciate 259
l@@ 259
gap 259
constantly 258
worse 258
H@@ 258
published 258
i@@ 258
subsidies 257
Once 257
lose 257
bilateral 257
compliance 257
entitled 257
fields 257
" 257
exploitation 256
coordinated 256
4@@ 256
keeping 256
base 256
details 256
obstacles 255
holding 255
studies 254
relates 254
extension 254
External 254
visit 254
neighbours 254
fuel 253
referring 253
violations 253
People's 252
round 252
politically 252
1998 252
record 252
Balkans 252
BSE 252
waiting 251
topic 251
Finland 251
highlighted 251
40 250
undoubtedly 250
cooperate 250
healthcare 250
got 250
drug 250
ongoing 249
industries 249
Agriculture 249
Polish 249
L@@ 249
Because 248
option 248
links 248
quotas 248
Control 248
safeguard 247
felt 247
recovery 247
ation 247
Do 246
6@@ 246
changing 246
brings 246
brief 245
Instead 245
R@@ 245
gain 245
suffer 245
peaceful 245
ratification 245
played 245
nevertheless 245
urgency 245
aviation 244
Fundamental 244
Does 244
difficulty 243
21 243
please 243
simplification 243
absence 243
built 242
timetable 242
somewhat 242
accidents 242
partly 242
negotiating 242
united 242
assess 242
identify 242
clarify 242
ethnic 242
budgets 242
1995 242
welfare 242
moral 242
stocks 242
transfer 241
G@@ 241
finding 241
s: 241
openness 241
E@@ 241
behaviour 241
ates 241
careful 240
Luxembourg 240
latter 240
largely 240
speaker 240
5@@ 240
Consumer 240
farming 240
introducing 239
hands 239
largest 239
undertaken 239
sets 239
phase 239
red 239
islands 239
meat 239
trans-European 238
Agency 238
/@@ 238
urgently 238
insist 238
ratified 238
ting 238
destruction 238
labelling 238
voluntary 237
K@@ 237
latest 237
define 237
mission 237
Intergovernmental 237
significance 236
CO2 236
code 236
maintaining 236
leadership 236
proved 236
qualified 236
operational 236
dependent 235
kept 234
satisfied 234
ating 234
interpretation 234
species 234
ships 234
offered 234
languages 234
absolute 233
acknowledge 233
court 233
hours 233
mass 233
noted 233
citizens' 233
dynamic 233
normal 233
Budget 233
de@@ 232
penalty 232
crimes 232
CAP 232
tragic 231
3@@ 231
arguments 231
e@@ 231
centre 231
500 231
suggested 230
sensible 230
pass 230
remove 230
carrying 230
Danube 230
seven 229
F@@ 229
meant 229
Parliament’s 229
over@@ 229
proceedings 229
partner 229
waters 229
rich 229
valuable 228
indicated 228
al@@ 228
figure 228
feeling 228
playing 228
preparing 228
becomes 228
Internal 228
phenomenon 228
concentrate 228
constitution 228
(IT) 227
insurance 227
prepare 227
competent 227
er@@ 226
leads 226
scheme 226
aircraft 226
Organisation 226
understood 226
considers 226
nation 226
shadow 225
honour 225
advance 225
accounts 225
sufficiently 225
precise 225
television 225
c@@ 224
24 224
affects 224
etc 224
Safety 224
intellectual 224
ethical 224
listen 223
m@@ 223
opposite 223
test 223
re-@@ 223
debating 222
spite 222
surely 222
paper 222
electronic 222
supplementary 222
sustainability 222
association 222
people's 221
N@@ 221
previously 221
Transport 221
Last 221
realistic 221
formal 221
sum 221
High 221
minutes 221
speeches 220
background 220
an@@ 220
debated 220
invest 220
greatly 220
crises 220
wide 219
NGOs 219
Market 219
Alliance 218
running 218
wait 218
amended 218
citizenship 218
protected 218
USA 218
facts 218
More 218
investigation 218
universal 217
indicators 217
seeing 217
societies 217
negotiation 217
fine 217
revision 217
Authority 217
Cooperation 217
contact 216
Union’s 216
proceed 216
successfully 216
primary 216
agency 216
implications 216
Before 216
apart 215
genuinely 215
y 215
coherent 215
Maastricht 215
significantly 215
telecommunications 215
During 215
Korea 215
core 214
19 214
conducted 214
uniform 214
answers 214
Are 214
schools 214
Consequently 213
a@@ 213
friends 213
near 213
stable 213
convention 213
producing 213
claim 213
convergence 213
himself 213
OLAF 213
possibly 212
parliament 212
payment 212
Budgetary 212
daily 211
22 211
argument 211
Slovakia 211
exports 211
version 211
heading 211
medical 211
deserves 211
launched 211
Japan 211
tragedy 211
PPE-DE 211
it@@ 211
plants 211
medicines 211
enjoy 210
suffered 210
addressing 210
plant 210
satisfactory 210
Culture 210
heritage 210
granting 210
restructuring 209
texts 209
thanking 209
zone 209
moreover 209
communications 209
disposal 209
attempts 209
rapidly 209
constitute 208
23 208
skills 208
GDP 208
Having 208
Portuguese 208
enlarged 208
news 208
temporary 207
Mexico 207
deals 207
Where 207
proportion 207
Can 207
helped 207
elsewhere 207
Food 207
V@@ 207
religion 207
bit 206
accident 206
someone 206
adapt 206
deliver 206
condemn 206
preparations 206
geographical 206
launch 206
Asia 206
maintained 206
manufacturers 206
article 206
co@@ 206
compulsory 205
interinstitutional 205
Israeli 205
( 204
unfair 204
inadequate 204
eight 204
enforcement 204
prospects 204
sovereignty 204
emphasised 204
saw 204
k 203
tool 203
space 203
restore 203
offers 203
transition 202
O@@ 202
materials 202
7@@ 202
inequalities 202
(Parliament 202
alcohol 202
worrying 201
generation 201
declared 201
wider 201
relatively 201
sake 201
willingness 201
identified 201
West 201
hopes 201
African 201
strength 201
(NL) 200
New 200
ted 200
y@@ 200
determine 200
assume 200
raising 200
wealth 200
numbers 199
clarity 199
unanimously 199
stands 199
utmost 199
considerations 198
chairman 198
focused 198
Dublin 198
wine 198
Without 197
governing 197
historical 197
neighbouring 197
obliged 197
0@@ 197
spread 197
demanding 197
learning 197
enhance 197
Thursday 196
guaranteeing 196
sales 196
extensive 195
opened 195
contain 195
options 195
reflected 195
marine 195
Thus 194
solely 194
encouraged 194
massive 194
requests 194
possibilities 194
completed 194
declarations 194
release 194
penalties 194
users 193
remaining 193
door 193
choose 193
depend 193
size 193
island 193
tribute 193
extending 192
worldwide 192
removed 192
necessarily 192
inflation 192
mistake 192
enabling 192
Office 192
regular 191
Europe’s 191
regarded 191
Both 191
rapporteur's 190
Belgian 190
crops 190
applications 190
proof 190
achievement 190
certainty 189
Its 189
cuts 189
double 189
presenting 189
People 189
threats 189
complicated 189
Will 189
seeks 189
front 189
Women's 189
Croatia 189
affecting 188
condition 188
increases 188
subjects 188
tools 188
excluded 188
Common 188
stem 188
powerful 188
Liberal 188
yes 187
actively 187
31 187
school 187
regulate 187
ti@@ 187
patients 187
went 187
courts 187
constant 187
ar@@ 187
reaction 187
worst 187
savings 187
20% 186
chosen 186
players 186
correctly 186
applicable 186
showing 186
science 186
fewer 185
supposed 185
regulated 185
Presidents 185
succeeded 185
assist 185
proud 185
women's 185
head 185
coastal 185
third-country 184
depends 184
reliable 184
hundreds 184
route 184
oppose 184
harmful 184
reiterate 184
shape 184
Home 184
ecological 184
refers 184
Florence 184
Belgium 184
Socialists 183
profits 183
piece 183
charges 183
airports 183
issued 183
submit 183
experienced 183
Nice 183
st@@ 183
larger 183
female 183
Industry 183
respects 182
26 182
29 182
28 182
favourable 182
purely 182
bureaucracy 182
educational 182
none 182
ch@@ 182
extra 182
mark 182
Bosnia 182
anti-@@ 181
easily 181
repeatedly 181
reflection 181
fleet 181
dispute 181
ambition 181
prior 180
whereby 180
advantages 180
freely 180
Time 180
checks 180
Investment 180
buildings 179
Doha 179
h@@ 179
disabled 179
promised 179
healthy 178
leader 178
hence 178
im@@ 178
turned 178
familiar 178
stressed 178
Day 178
lay 177
economically 177
whereas 177
n@@ 177
nonetheless 177
accessible 177
finances 177
suggestions 177
contributed 177
considerably 177
revised 177
feed 177
ad@@ 177
strike 177
facilities 176
country's 176
negotiated 176
Civil 176
vast 176
boost 176
constitutes 176
tackling 176
deep 176
le 176
essentially 175
suitable 175
satisfaction 175
funded 175
Protocol 175
below 175
es; 175
Van 175
eliminate 175
extreme 175
arise 175
welcomes 175
tonnes 175
apparent 175
targeted 175
terrible 175
Representative 175
u@@ 174
paying 174
reaching 174
exceptional 174
unemployed 174
shortcomings 174
surveillance 174
xenophobia 174
undertakings 174
generations 174
chemical 174
warning 173
foremost 173
sovereign 173
hearing 173
indicate 173
consequence 173
thorough 173
recall 173
driving 173
ordinary 172
EU’s 172
deserve 172
bound 172
en@@ 172
city 172
intergovernmental 172
bearing 172
supervisory 172
protein 172
transactions 171
doubts 171
incentives 171
retain 171
enhanced 171
admit 171
struggle 171
li@@ 170
charge 170
ignore 170
lie 170
sought 170
Under 170
v@@ 170
violation 170
multilateral 170
smoking 170
Globalisation 170
obtained 169
60 169
environmentally 169
pleasure 169
definitely 169
Partnership 169
undermine 169
is@@ 169
promises 169
southern 169
smaller 169
importantly 169
armed 169
entered 168
pursued 168
wage 168
cities 168
le@@ 168
National 168
campaigns 168
Just 168
sorry 168
bank 168
advice 168
200 168
settlement 168
z@@ 167
engaged 167
Over 167
leaving 167
insufficient 167
weak 167
th@@ 167
hardly 167
Britain 167
firms 167
afternoon 167
meaning 167
characteristics 167
jointly 167
suggestion 167
legitimacy 167
exception 167
I@@ 167
(SV) 167
delays 166
recommend 166
warmly 166
accompanied 166
respecting 166
on@@ 166
Like 166
candidates 166
harmonised 166
clearer 166
Regional 166
be@@ 166
al 166
decades 165
hit 165
spend 165
drafted 165
aside 165
biggest 165
Clearly 165
negotiate 165
anniversary 165
mountain 165
elderly 165
regrettable 165
digital 165
transatlantic 165
drafting 164
restricted 164
carbon 164
Hungarian 164
stance 164
intentions 164
losses 164
centres 164
eyes 164
financed 164
contracts 163
world's 163
covers 163
reinforce 163
statistical 163
afraid 163
count 163
disappointed 163
offering 163
heavy 163
outset 163
Stockholm 163
protocol 163
biodiversity 163
(Christian 162
Democrats) 162
explained 162
trend 162
treaties 162
ro@@ 162
wages 162
creates 162
simplify 162
tradition 162
quote 162
gradually 161
everybody 161
outstanding 161
green 161
Plan 161
older 161
joined 161
broader 161
belong 161
declare 161
Soviet 161
nearly 161
actors 161
es: 161
cultures 161
stake 161
Berlin 161
fifth 161
ac@@ 160
spring 160
promise 160
unfortunate 160
9@@ 160
at@@ 160
Christian 160
Rome 159
consolidation 159
impetus 159
imagine 159
falls 159
greenhouse 159
unity 159
representation 159
expressing 159
frequently 159
inspections 159
relate 159
prospect 159
deeply 159
claims 158
pursuant 158
3% 158
approaches 158
unnecessary 158
periods 158
check 158
Hungary 158
team 158
Nor 158
banking 158
(EL) 157
passengers 157
friendly 157
refuse 157
replace 157
performance 157
liability 157
lacking 157
defining 157
foundations 157
Declaration 157
prison 157
Serbia 157
experiences 156
Yes 156
demonstrates 156
follows 156
modified 156
surprised 156
assessments 156
organise 156
reserve 156
commit 156
widely 156
applicant 156
sport 156
steel 156
slightly 155
profit 155
Nonetheless 155
accordingly 155
judgment 155
8@@ 155
explanation 155
evident 155
She 155
undertaking 155
experiencing 155
credible 155
Geneva 155
EMU 155
Gaza 155
raises 154
preserve 154
passenger 154
Following 154
distinction 154
puts 154
kinds 154
picture 154
part-session 154
s’ 154
Verheugen 154
prevented 154
turning 154
unique 154
self-@@ 154
incorporated 154
Your 154
War 154
lessons 154
reconstruction 154
Madrid 154
honest 153
stock 153
section 153
reflects 153
standing 153
compatible 153
occurred 153
eastern 153
items 153
seekers 153
revenue 153
Azerbaijan 153
this: 152
regardless 152
logical 152
reservations 152
causing 152
division 152
alongside 152
bureaucratic 152
belief 152
rejection 152
suspended 152
Ashton 152
occur 152
began 151
flows 151
consistency 151
mobile 151
underline 151
category 151
Tibet 151
qualifications 150
expensive 150
repeated 150
fresh 150
couple 150
basically 150
imported 150
arising 150
containing 150
consulted 150
follow-up 150
blame 150
engage 150
break 150
schemes 150
(RO) 149
w@@ 149
restrictive 149
dumping 149
Services 149
missing 149
Every 149
or@@ 149
fairly 149
refugee 149
ri@@ 149
Decision 149
marketing 149
Santer 149
(ES) 148
fit 148
save 148
medium 148
poorest 148
Two 148
Obviously 148
became 148
desirable 148
W@@ 148
expert 148
Joint 148
tolerance 148
noon 147
radical 147
Well 147
counter 147
beneficial 147
viable 147
liberal 147
examined 147
authorisation 147
Any 147
Their 147
consent 147
house 147
coherence 147
Adjustment 147
ally 146
Atlantic 146
sympathy 146
en 146
Also 146
chain 146
condemned 146
president 146
combined 146
coordinate 146
Iran 146
physical 145
Tourism 145
stay 145
resulted 145
shortly 145
electric 145
uncertainty 145
virtually 145
eventually 145
intervene 145
borne 145
lasting 145
exclusively 145
widespread 145
congratulations 145
di@@ 145
Re@@ 144
achievements 144
Allow 144
generate 144
abuses 144
unions 144
worthy 144
ations 144
forum 144
EIB 144
socially 143
Assembly 143
react 143
wording 143
promoted 143
hoped 143
expense 143
disadvantaged 143
Second 143
J@@ 143
grow 143
investigations 143
permit 143
ports 143
withdraw 142
compete 142
image 142
killed 142
es' 142
Lithuania 142
acceptance 142
employers 142
unanimous 142
inquiry 142
statute 142
2013 142
receiving 142
traditions 142
sharing 142
cent 142
severe 142
suggests 142
accounting 142
electoral 142
signs 142
EGF 142
embryos 142
intensive 141
fourth 141
ic@@ 141
journalists 141
signing 141
electricity 141
night 141
tions 141
register 141
loans 141
inter@@ 141
destroyed 141
hazardous 141
participating 140
imposing 140
consequently 140
permitted 140
founded 140
slow 140
listened 140
y; 140
organic 140
conservation 140
congratulating 139
controlled 139
necessity 139
buy 139
confident 139
valid 139
enshrined 139
helpful 139
battle 139
scrutiny 139
yourself 139
presentation 139
faith 139
as@@ 139
hundred 139
Moldova 139
persecution 139
den 139
coins 139
Turkey's 139
minister 138
moved 138
ideal 138
undertake 138
justify 138
appointed 138
tangible 138
highlights 138
friend 138
Chairman 138
afford 138
visas 138
extraordinary 138
conventions 138
Islamic 138
emerging 137
struck 137
transposition 137
mere 137
marked 137
shares 137
clean 137
Education 137
Europe' 137
acquis 137
listening 137
Single 137
resistance 136
comparison 136
prefer 136
no@@ 136
parents 136
Service 136
y' 136
pursuing 136
dangers 136
plays 136
es@@ 136
advanced 136
t-@@ 136
looks 136
judge 136
1@@ 136
Citizens' 136
PSE 136
r@@ 136
ag@@ 136
prisoners 136
con@@ 135
deadline 135
redundancies 135
comparable 135
productivity 135
demographic 135
l 135
inspection 135
restrict 135
Conciliation 135
eye 135
Cohesion 135
Solidarity 135
woman 135
el@@ 135
processing 135
observed 135
Free 134
acknowledged 134
harm 134
exemption 134
replaced 134
contacts 134
whatsoever 134
contributing 134
fifteen 134
g 134
Left 134
deaths 134
features 134
net 134
Defence 134
immunity 134
controversial 134
sending 133
associations 133
arrive 133
begun 133
usual 133
preliminary 133
ambitions 133
died 133
terrorists 133
am@@ 133
preventive 133
30% 133
short-term 133
investors 133
ar 132
integrate 132
essence 132
Morocco 132
subsequently 132
deficits 132
refused 132
import 132
acted 132
clarification 132
talked 132
scientists 132
connected 132
distributed 132
vehicle 132
collaboration 132
integrity 132
1994 132
territories 132
IGC 132
35 131
push 131
Most 131
abolition 131
urban 131
variety 131
commend 131
disabilities 131
sex 131
Union' 131
efficiently 130
track 130
unanimity 130
Rural 130
monitored 130
reported 130
showed 130
nobody 130
ly 130
agrees 130
northern 130
stringent 130
resumed 130
Schulz 130
Act 130
Hence 129
Kyoto 129
game 129
ageing 129
foundation 129
absurd 129
transit 129
appointment 129
amend 129
Secretary-General 129
recognises 129
civilian 129
students 129
notice 129
solid 129
productive 129
medicinal 129
harmonise 128
Communist 128
dramatic 128
ratify 128
incorporate 128
ours 128
sections 128
over-@@ 128
19@@ 128
joining 128
sphere 128
regimes 128
summer 128
strictly 128
choices 128
chemicals 128
Whilst 128
tion 128
treat 128
English 128
'the 128
Barcelona 128
Centre 128
mobilisation 128
beef 128
cells 128
Al@@ 127
hour 127
respective 127
bases 127
EC 127
pensions 127
MEP 127
laying 127
voters 127
dead 127
observe 127
paragraphs 127
functions 127
failing 127
In@@ 127
Association 127
mis@@ 127
Information 127
frontiers 127
wherever 126
Community's 126
emission 126
tackled 126
managing 126
weight 126
everywhere 126
wholeheartedly 126
Petitions 126
solved 126
envisaged 126
nets 126
motor 126
50% 126
Otherwise 126
reporting 126
Labour 126
Bureau 126
surprise 125
20@@ 125
forgotten 125
Above 125
Naturally 125
outlined 125
2012 125
Similarly 125
arrived 125
underlying 125
Democratic 125
far-reaching 125
decent 125
devoted 125
Spring 125
focusing 125
allocation 125
except 125
Latvia 125
reconciliation 125
liked 125
convince 125
ceiling 125
racist 125
chapter 125
accepting 124
Regarding 124
threatened 124
attend 124
prime 124
modernisation 124
resource 124
approximately 124
j@@ 124
parallel 124
keen 124
banned 124
sad 124
sincerely 124
Everyone 124
Sixth 124
emerged 123
advocate 123
victim 123
adequately 123
exchanges 123
mistakes 123
attached 123
0 123
te@@ 123
offence 123
Palestinians 123
workers' 122
infrastructures 122
desired 122
youth 122
meantime 122
adjustment 122
consolidate 122
sincere 122
movements 122
enabled 122
fought 122
protest 122
potentially 122
fast 122
Would 122
renewed 122
ul@@ 122
torture 122
topics 122
responses 122
assets 122
y: 122
sale 122
Barnier 122
recommended 121
models 121
learned 121
se@@ 121
ten@@ 121
ding 121
categories 121
interim 121
me@@ 121
non-governmental 121
criminals 121
initiated 121
conviction 121
motions 121
pension 121
Yugoslavia 121
estimated 121
offences 121
expertise 121
deny 120
defending 120
offices 120
damaging 120
residence 120
divided 120
nine 120
pressing 120
ha@@ 120
Monti 120
tuna 120
ship 120
Liberals 119
representing 119
taxpayers 119
references 119
fails 119
author 119
abstained 119
endeavour 119
story 119
popular 119
dependence 119
diplomatic 119
confusion 118
railway 118
out@@ 118
equivalent 118
falling 118
covering 118
withdrawal 118
block 118
assessed 118
Slovenia 118
directed 118
visible 118
Chancellor 118
thousand 118
socio-economic 118
1992 118
drive 118
character 118
advertising 118
surrounding 118
Thanks 118
unprecedented 118
western 118
secret 118
personnel 118
design 118
excise 118
search 118
gross 118
researchers 118
Palestine 118
cheap 117
5% 117
inappropriate 117
migrants 117
stages 117
won 117
providers 117
cope 117
excuse 117
stricter 117
Could 117
safeguarding 117
die 117
Olympic 117
reductions 116
disagree 116
percentage 116
wished 116
u 116
te 116
[@@ 116
elimination 116
Who 116
mo@@ 116
fears 116
touch 116
th 116
looked 116
delegations 116
investigate 116
Armenia 116
closure 115
corresponding 115
rely 115
Parliamentary 115
democratically 115
80 115
complied 115
perfect 115
migratory 115
sight 115
seat 115
south 115
sit 115
17@@ 115
disparities 115
Tampere 115
coast 115
breach 115
Chechnya 115
constraints 115
Algeria 115
Con@@ 114
race 114
Written 114
ad 114
coordinating 114
justification 114
Hong 114
feature 114
everyday 114
alternatives 114
errors 114
location 114
perspectives 114
accused 114
released 114
heads 114
officers 114
fulfilled 114
port 114
Erika 114
complaints 113
error 113
(debate) 113
Women 113
consolidated 113
stimulate 113
horizontal 113
host 113
divide 113
flow 113
ant 113
ab@@ 113
exceptions 113
preparatory 113
trial 113
fire 113
observers 113
Monday 113
marks 113
collapse 113
Albania 113
G20 113
Slovak 113
concessions 112
sustained 112
gases 112
VAT 112
cutting 112
airport 112
workforce 112
warm 112
evaluate 112
sentence 112
y-@@ 112
timely 112
characterised 112
uses 112
fixed 112
answered 112
ing' 112
His 112
notably 112
Baroness 112
t' 112
executive 112
Renault 112
Herzegovina 112
concepts 111
invite 111
subsequent 111
shipping 111
cycle 111
der 111
contrast 111
exposed 111
deregulation 111
albeit 111
accurate 111
attempting 111
humanity 111
reinforced 111
redundant 111
Ms 111
Parliament' 111
Turkmenistan 111
airlines 110
interference 110
notion 110
Please 110
gained 110
win 110
usually 110
cotton 110
ho@@ 110
infringement 110
outermost 110
incentive 110
adapted 110
presents 110
ity 110
bill 110
Freedoms 110
furthermore 109
explicit 109
facilitating 109
lo@@ 109
pro@@ 109
realised 109
ignored 109
differently 109
minute 109
assessing 109
criterion 109
ings 109
ideological 109
differ 109
presidential 109
inhabitants 109
regularly 109
1993 109
cloning 109
post 108
ties 108
inside 108
1990 108
compromises 108
quota 108
10% 108
pillars 108
recognising 108
badly 108
'no' 108
delivered 108
handling 108
exploit 108
rising 108
procurement 108
length 108
mid-term 108
minor 108
doctors 108
Basel 108
is: 107
45 107
(Rule 107
monopoly 107
year's 107
dream 107
deadlines 107
stating 107
own-initiative 107
praise 107
concludes 107
substantially 107
book 107
stakeholders 107
consultations 107
formally 107
sums 107
violent 107
stresses 107
tape 107
pretext 107
Ecofin 107
names 107
toxic 107
recession 107
disastrous 107
monopolies 106
decline 106
initially 106
d 106
biological 106
pointing 106
deciding 106
automatically 106
emphasises 106
withdrawn 106
profound 106
reviewed 106
disputes 106
holds 106
ism 106
scheduled 106
post-@@ 106
decommissioning 106
qu@@ 106
als 106
irresponsible 106
Macedonia 106
Objective 106
controlling 106
pipeline 106
roads 105
hopefully 105
train 105
fundamentally 105
ingly 105
leaves 105
shift 105
enterprise 105
entering 105
endorsed 105
il@@ 105
Other 105
imperative 105
simplified 105
rigorous 105
Basque 105
pe@@ 105
assurance 105
gratitude 105
po@@ 105
incident 105
supplies 105
Caucasus 105
continuation 104
(HU) 104
33 104
Americans 104
unilateral 104
object 104
in-depth 104
expansion 104
intelligent 104
Should 104
Eurostat 104
Z@@ 104
floods 104
appeared 104
ists 104
spare 104
sub@@ 104
ic 104
posts 104
incidents 104
n 104
Fischler 104
ded 103
radio 103
indication 103
internationally 103
ALDE 103
employed 103
shocks 103
attach 103
criticisms 103
self-employed 103
populations 103
born 103
cast 103
ment 103
ds 103
audit 103
C 103
unit 103
em@@ 103
threshold 103
victory 103
raw 103
Within 103
jurisdiction 103
fate 103
cancer 103
lists 103
examination 103
Patten 103
seas 103
readmission 103
Chile 103
(SK) 102
drivers 102
airspace 102
telling 102
class 102
demonstration 102
decade 102
accountability 102
informal 102
ans 102
Against 102
placing 102
invited 102
precedent 102
analyse 102
silence 102
sites 102
appreciation 102
banning 102
argue 102
apparently 102
neighbourhood 102
Liberties 102
D 102
fruit 102
organs 102
proven 102
Reding 102
inevitably 102
Vitorino 102
stations 101
countries' 101
obstacle 101
shoulder 101
demanded 101
vocational 101
false 101
40% 101
disappointment 101
pre@@ 101
helps 101
inequality 101
ge@@ 101
resolving 101
title 101
observation 101
fulfilling 101
clear: 101
occupation 101
Finance 101
ist 101
Solana 101
ensured 101
shipbuilding 101
/97) 101
Quite 100
diesel 100
normally 100
tremendous 100
la@@ 100
component 100
backing 100
black 100
Each 100
served 100
expenses 100
caught 100
listed 100
Wednesday 100
maintenance 100
openly 100
t; 100
e-@@ 100
abortion 100
De 100
Criminal 100
claimed 100
Le 100
Hamas 100
inland 100
finish 99
anywhere 99
operates 99
avoiding 99
Kong 99
repercussions 99
21st 99
abolished 99
beneficiaries 99
under@@ 99
ill 99
discipline 99
400 99
practically 99
publicly 99
denied 99
Malta 99
condemnation 99
workplace 99
Greens 99
destroy 99
explanations 99
regulating 99
Code 99
demonstrations 99
repression 99
Egypt 99
Gulf 99
Cuba 99
recruitment 99
b 98
merit 98
conscience 98
well-@@ 98
partnerships 98
euros 98
stick 98
estimates 98
tive 98
do@@ 98
governed 98
faces 98
centralised 98
supranational 98
sold 98
simplifying 98
lengthy 98
mandatory 98
returned 98
Scotland 98
passing 98
(EC) 98
adverse 98
responding 98
lesson 98
concentration 98
consistently 98
pose 98
refusal 98
ruling 98
principal 98
tough 98
ra@@ 98
genetic 98
Special 98
linguistic 98
C5-0@@ 98
Syria 98
burdens 97
Annex 97
conferences 97
sole 97
Congress 97
eurozone 97
high-quality 97
examining 97
OECD 97
pace 97
Questions 97
ex@@ 97
successes 97
minds 97
ling 97
postponed 97
murder 97
to@@ 97
autumn 97
(vote) 97
incomes 97
e' 97
high-level 97
organizations 97
posed 97
Kaliningrad 97
resolution) 97
gradual 96
straight 96
feels 96
disadvantage 96
prerequisite 96
indicates 96
sees 96
College 96
pre-@@ 96
explicitly 96
map 96
volume 96
2011 96
ters 96
autonomy 96
era 96
arrest 96
ised 96
avoided 96
large-scale 96
Burma 96
/2002 96
fur 96
48 95
dictatorship 95
attractive 95
losing 95
closing 95
observations 95
protectionism 95
onto 95
doors 95
genetically 95
objections 95
per@@ 95
dossier 95
combine 95
books 95
exemptions 95
concentrated 95
witnessed 95
encouragement 95
counterfeiting 95
U@@ 95
London 95
18@@ 95
collection 95
pharmaceutical 95
(A4-0@@ 95
located 95
Laeken 95
inspectors 95
halt 95
fallen 95
salaries 94
strikes 94
34 94
career 94
isolation 94
democracies 94
manufacturing 94
remained 94
originally 94
earmarked 94
1% 94
removing 94
exclusive 94
requiring 94
fleets 94
implies 94
300 94
sp@@ 94
completion 94
pl@@ 94
lifelong 94
systematic 94
preservation 94
Region 94
ously 94
genocide 94
appalling 94
speculation 94
Area 94
Federation 94
farm 94
Statute 94
transaction 93
70 93
follows: 93
generated 93
Third 93
integrating 93
swift 93
saving 93
Rather 93
Council’s 93
professionals 93
‘no’ 93
empty 93
criticised 93
knowing 93
transfers 93
a's 93
split 93
composition 93
twice 93
est 93
ne@@ 93
se 93
blind 93
uranium 93
homes 93
momentum 93
poorer 93
pilot 93
alarming 93
influenza 93
grown 93
cell 93
t: 92
town 92
transferred 92
eliminating 92
delicate 92
Fourthly 92
13@@ 92
knowledge-based 92
thirdly 92
enables 92
remark 92
exploited 92
focuses 92
missions 92
birth 92
explanatory 92
troops 92
obtaining 92
reminded 92
authorised 92
dedicated 92
messages 92
irrespective 92
ren@@ 92
visited 92
systematically 92
tests 92
army 92
margin 92
expecting 92
universities 92
indirect 92
progressive 92
/2000 92
managers 92
organized 92
PPE 91
travelling 91
interoperability 91
enthusiasm 91
runs 91
relative 91
Paris 91
merits 91
Accession 91
logic 91
bigger 91
bi@@ 91
sell 91
ty 91
aspirations 91
ous 91
lays 91
believed 91
emerge 91
subjected 91
assured 91
consists 91
unlike 91
king 91
Certainly 91
indirectly 91
/2001) 91
organ 91
overwhelming 90
realities 90
ing: 90
32 90
removal 90
persuade 90
ent 90
man@@ 90
fuels 90
modest 90
corporate 90
Reform 90
EU-@@ 90
safer 90
lowest 90
abroad 90
describe 90
mental 90
heavily 90
Estonia 90
diverse 90
tendency 90
advocated 90
initiate 90
topical 90
fault 90
solving 90
orientation 90
conjunction 90
Swoboda 90
Kinnock 90
Euro-Mediterranean 90
(H-0@@ 90
tonight 89
catch 89
op@@ 89
existed 89
von 89
broadly 89
GMOs 89
ap@@ 89
s) 89
Friday 89
Euro@@ 89
maybe 89
exact 89
witness 89
revealed 89
judges 89
awaiting 89
findings 89
testing 89
ma@@ 89
Ar@@ 89
sends 89
transnational 89
e; 89
innocent 89
OSCE 89
Lukashenko 89
(CS) 89
update 89
remit 89
breaking 89
forest 89
petitions 89
tension 89
privatisation 88
limiting 88
investing 88
signals 88
abolish 88
trans@@ 88
sh@@ 88
fashion 88
thinks 88
promotes 88
res 88
deprived 88
symbols 88
accepts 88
co-@@ 88
bears 88
ending 88
atmosphere 88
driven 88
strange 88
Congo 88
pre-accession 88
constituency 88
Asian 88
donors 88
addresses 88
mother 88
broken 87
symbolic 87
advances 87
Great 87
detriment 87
shortage 87
Articles 87
articles 87
clauses 87
symbol 87
memory 87
camps 87
structured 87
perform 87
frankly 87
exert 87
ultimate 87
e: 87
finds 87
channels 87
ol@@ 87
ons 87
interventions 87
smuggling 87
producer 87
responded 87
platform 87
hygiene 87
CFSP 87
Dimension 87
cigarettes 87
Schreyer 87
Federal 86
faster 86
Apart 86
recorded 86
contradiction 86
quantities 86
Mar@@ 86
inevitable 86
ends 86
detrimental 86
highlighting 86
tion: 86
affair 86
accountable 86
interpreted 86
reception 86
newspaper 86
creativity 86
— 86
thoughts 86
par@@ 86
90 86
north 86
reunification 86
flag 86
match 86
coalition 86
meets 86
compensate 86
invitation 86
swiftly 86
Romanian 86
mad 86
reproductive 86
mobilise 86
remote 86
spectrum 86
System 86
irregularities 86
Youth 86
Sport 86
Frontex 86
safeguards 85
25% 85
positively 85
ensures 85
Co@@ 85
Verts/ALE 85
invested 85
nationality 85
survive 85
gaps 85
abandon 85
demonstrating 85
Next 85
philosophy 85
ing; 85
si@@ 85
ance 85
ter 85
hoping 85
drop 85
d: 85
Through 85
pragmatic 85
definite 85
arrested 85
wind 85
ing@@ 85
multiple 85
16@@ 85
planet 85
owners 85
100% 85
likewise 84
arises 84
footing 84
flights 84
enforce 84
integral 84
remarkable 84
dates 84
backed 84
clarified 84
ed@@ 84
revise 84
devote 84
procedural 84
administrations 84
Together 84
ended 84
celebrate 84
wonderful 84
distance 84
notes 84
federal 84
roots 84
exclude 84
roles 84
fragile 84
enhancing 84
Relations 84
performing 84
min@@ 84
civilisation 84
ine 84
condemning 84
Hague 84
arrangement 84
meal 84
secondary 83
reconcile 83
dioxide 83
serves 83
assembly 83
poultry 83
revolution 83
ta@@ 83
res@@ 83
referenda 83
generous 83
ACP 83
formed 83
divisions 83
vitally 83
/EC 83
De@@ 83
compare 83
question: 83
indications 83
hide 83
dual 83
towns 83
15@@ 83
purchase 83
moratorium 83
storage 83
guilty 83
30@@ 83
USD 83
ms 83
al-@@ 83
E 83
additives 83
await 82
refusing 82
flight 82
announcement 82
trends 82
survival 82
point: 82
encourages 82
slowly 82
reverse 82
preserving 82
weaken 82
limitations 82
comitology 82
adding 82
Law 82
Finnish 82
populated 82
selection 82
vague 82
80% 82
precautionary 82
cross 82
ethics 82
units 82
medicine 82
Communities 82
installations 82
incineration 82
surplus 82
Iceland 82
issuing 81
ou@@ 81
42 81
pays 81
sectoral 81
Equality 81
contributes 81
so@@ 81
y's 81
poses 81
Councils 81
ministerial 81
components 81
said: 81
coverage 81
participants 81
farms 81
instability 81
abandoned 81
liberty 81
punishment 81
bridge 81
Millennium 81
inshore 81
bees 81
depth 80
opens 80
famous 80
handed 80
Brazil 80
les 80
foster 80
intolerable 80
prevail 80
salary 80
founding 80
understandable 80
ste@@ 80
translated 80
infringements 80
sensitivity 80
settled 80
contract 80
programming 80
blood 80
Moscow 80
proves 80
manoeuvre 80
expressly 80
reinforcing 80
indigenous 80
hitherto 80
moves 80
Institute 80
Commissioner's 80
Until 80
continuity 80
terror 80
weaknesses 80
surprising 80
Balkan 80
tion; 80
Regions 80
t's 80
taxpayers' 80
forestry 80
cattle 80
/96) 80
railways 79
unified 79
36 79
39 79
approving 79
agreeing 79
(1) 79
routes 79
creative 79
guide 79
deliberately 79
outline 79
unsatisfactory 79
speaks 79
registration 79
adaptation 79
quick 79
submitting 79
vary 79
instances 79
root 79
facility 79
aiming 79
convey 79
noticed 79
tion' 79
Yesterday 79
summits 79
machinery 79
securing 79
drew 79
grave 79
separation 79
Bo@@ 79
ies 79
adjustments 79
he@@ 79
depending 79
Tibetan 79
sooner 79
ratings 79
salmonella 79
Korean 79
fi@@ 78
Surely 78
Martin 78
enjoyed 78
complement 78
streets 78
energies 78
analyses 78
convincing 78
stood 78
privacy 78
preferred 78
strive 78
Accordingly 78
complexity 78
definitive 78
Indian 78
Perspective 78
attitudes 78
confirms 78
wise 78
uphold 78
judiciary 78
neighbour 78
Pro@@ 78
charged 78
learnt 78
misleading 78
tic 78
senior 78
prohibited 78
stopped 78
é@@ 78
classification 78
veterinary 78
yesterday's 77
complementary 77
Equal 77
wide-ranging 77
accompanying 77
Neither 77
boundaries 77
Turning 77
entails 77
profile 77
Conservatives 77
relationships 77
thoroughly 77
multiannual 77
wanting 77
6% 77
isolated 77
billions 77
reformed 77
tariff 77
Watson 77
Helsinki 77
anticipated 77
devastating 77
scandalous 77
delivery 77
restriction 77
Prosecutor 77
na@@ 77
Saudi 77
watch 77
presidencies 77
Enlargement 77
asymmetric 77
Guinea 77
Sustainable 77
recognize 77
Eurocontrol 77
continuous 76
47 76
Black 76
intense 76
earn 76
Euro 76
satisfy 76
relocation 76
residents 76
rescue 76
Monnet 76
democratisation 76
well-known 76
indispensable 76
depleted 76
intolerance 76
pity 76
ru@@ 76
appropriately 76
reserves 76
cofinancing 76
ec@@ 76
inspired 76
overcoming 76
launching 76
bottom 76
theme 76
availability 76
Industrial 76
14@@ 76
'The 76
seemed 76
Seville 76
whenever 76
electorate 76
alliance 76
multinational 76
vessel 76
Conservative 76
Games 76
gu@@ 75
communicate 75
-based 75
disregard 75
Democracy 75
2% 75
globalised 75
houses 75
confront 75
rational 75
d-@@ 75
dear 75
unclear 75
resident 75
En@@ 75
judged 75
lend 75
privileged 75
specified 75
warming 75
entail 75
hypocrisy 75
identification 75
excessively 75
worried 75
rid 75
pick 75
(FI) 75
um@@ 75
Peace 75
GUE/NGL 75
radioactive 75
Iraqi 75
asks 75
tr@@ 75
journalist 75
courageous 75
occupied 75
site 75
flags 75
censure 75
earthquake 75
Customs 75
Spinelli 75
d; 74
rejecting 74
jeopardise 74
voices 74
reciprocity 74
harmonising 74
Canada 74
registered 74
imbalances 74
Three 74
guided 74
combination 74
determining 74
factory 74
deemed 74
grants 74
us@@ 74
Euro-@@ 74
suddenly 74
Sometimes 74
identifying 74
ation: 74
distinguish 74
fairer 74
gets 74
wholly 74
advocates 74
chair 74
facilitation 74
storm 74
III 74
1991 74
for@@ 74
er's 74
threatening 74
officially 74
ILO 74
satellite 74
execution 74
reactions 74
parliamentarians 74
crop 74
chose 74
Sky 74
Durban 74
middle 73
alter 73
fill 73
dimensions 73
veto 73
escape 73
description 73
reforming 73
unite 73
handled 73
refrain 73
vigilant 73
formulated 73
geared 73
expand 73
underlined 73
ably 73
Concerning 73
mixed 73
Further 73
problematic 73
ozone 73
discovered 73
typical 73
150 73
TV 73
scenario 73
prosecution 73
meaningful 73
psychological 73
excellence 73
Freedom 73
Sakharov 73
Political 73
Poettering 73
Mercosur 73
Jerusalem 73
(A5-00@@ 73
pesticides 73
Greens/European 72
resort 72
ze 72
bo@@ 72
attract 72
informing 72
architecture 72
ful 72
attempted 72
interpret 72
12@@ 72
relevance 72
legislators 72
sadly 72
om@@ 72
contradictory 72
constituents 72
derogations 72
wars 72
cold 72
ical 72
S 72
optimistic 72
establishes 72
publication 72
pursuit 72
seats 72
street 72
ECB 72
urged 72
Caribbean 72
postpone 72
ves 72
Aid 72
ridiculous 72
rigid 72
shock 72
ECSC 72
recital 72
selling 72
livestock 72
Transatlantic 72
Ukrainian 72
navigation 72
transformation 71
44 71
differing 71
x@@ 71
defended 71
quantitative 71
restricting 71
proactive 71
emphasising 71
cheaper 71
owe 71
ks 71
worker 71
insecurity 71
breaches 71
shame 71
undermining 71
Nothing 71
fines 71
foodstuffs 71
argued 71
prohibition 71
stupid 71
acquire 71
Anyone 71
95 71
optimism 71
inability 71
deliberate 71
qualitative 71
measured 71
understands 71
ir@@ 71
murdered 71
civilians 71
recommends 71
celebrating 71
warnings 71
wave 71
ELDR 71
ses 71
multinationals 71
unification 71
Argentina 71
socialist 70
37 70
49 70
distortion 70
publish 70
phrase 70
threatens 70
turns 70
tend 70
tabling 70
unresolved 70
Fortunately 70
techniques 70
enforced 70
entirety 70
competitors 70
ary 70
guidance 70
mix 70
departments 70
repair 70
ness 70
reputation 70
incapable 70
der@@ 70
seriousness 70
(E@@ 70
bu@@ 70
Prize 70
des 70
reintegration 70
promising 70
Muslim 70
zero 70
domain 70
regulators 70
broadcasting 70
Saddam 70
Kurdish 70
incompatible 69
San 69
certification 69
38 69
group's 69
50@@ 69
Gender 69
ter@@ 69
4% 69
mostly 69
discriminatory 69
es’ 69
formula 69
bold 69
lawyers 69
label 69
severely 69
pan-European 69
advisory 69
wrote 69
venture 69
departure 69
purchasing 69
automatic 69
reassure 69
silent 69
centuries 69
manufacture 69
Bulgarian 69
ideology 69
telephone 69
earth 69
fell 69
ent@@ 69
/2001 69
Cypriot 69
ers' 69
substantive 69
containers 69
toys 69
biotechnology 69
Velzen 69
G7 69
alike 68
derogation 68
ise 68
disability 68
crossing 68
43 68
patient 68
ments 68
slavery 68
years' 68
immense 68
permission 68
ia 68
10@@ 68
precondition 68
people’s 68
arisen 68
ev@@ 68
thrust 68
patent 68
licences 68
summary 68
attaches 68
costly 68
go@@ 68
mon@@ 68
F 68
eligible 68
card 68
asset 68
ked 68
disturbing 68
awarded 68
c 68
abolishing 68
ping 68
replacing 68
Ro@@ 68
Several 68
belonging 68
eve 68
exemplary 68
persistent 68
disarmament 68
Libya 68
Unless 68
river 68
judgments 68
ingredients 68
God 68
subsidiary 68
feelings 68
waterway 68
recognized 68
cat 68
preference 67
painful 67
exercising 67
ising 67
concluding 67
flying 67
unjustified 67
disadvantages 67
ci@@ 67
Working 67
perceived 67
threaten 67
illegally 67
prejudice 67
criticise 67
expresses 67
underlines 67
repressive 67
input 67
knew 67
pressures 67
2007-2013 67
incomprehensible 67
7% 67
linking 67
relief 67
counting 67
suspension 67
circulation 67
d' 67
remedy 67
60% 67
pornography 67
viewed 67
consult 67
adapting 67
prisons 67
(A5-0@@ 67
forests 67
rigour 67
Di@@ 67
ch 67
renewal 67
Arctic 67
small-scale 67
allocating 67
Uzbekistan 67
/02): 67
Switzerland 66
ages 66
Chair 66
anybody 66
s-@@ 66
twenty 66
Ex@@ 66
Washington 66
bans 66
40@@ 66
a-@@ 66
tone 66
weakness 66
virtue 66
tensions 66
calendar 66
missed 66
opponents 66
liaison 66
retirement 66
recourse 66
engagement 66
write 66
risen 66
evil 66
sa@@ 66
isation 66
contents 66
draftsman 66
guardian 66
wake 66
quarter 66
soldiers 66
soil 66
Euratom 66
illnesses 66
ver@@ 66
feasible 66
vote: 66
zones 66
C4-0@@ 66
apologise 66
UCLAF 66
convenience 66
petition 66
au@@ 66
cooperative 66
CFP 66
Buttiglione 66
produces 65
alisation 65
55 65
66 65
ownership 65
computer 65
transmission 65
Whether 65
lin@@ 65
lawmaking 65
well-being 65
innovations 65
eliminated 65
capitalist 65
ged 65
ari@@ 65
consolidating 65
reconsider 65
privilege 65
People’s 65
Democrat 65
legacy 65
wishing 65
equipped 65
mentioning 65
x 65
Communication 65
smooth 65
rhetoric 65
(SL) 65
mothers 65
Le@@ 65
occurs 65
east 65
Dialogue 65
Universal 65
neutral 65
ning 65
Christians 65
punished 65
injured 65
dog 65
cr@@ 65
su@@ 65
traceability 65
tra@@ 65
Members' 65
AIDS 65
mortality 65
disappear 64
air@@ 64
sion 64
run-up 64
ber@@ 64
macroeconomic 64
updated 64
gains 64
wasted 64
drastic 64
bio@@ 64
ality 64
Presidency's 64
Bolkestein 64
retained 64
McCreevy 64
attended 64
citizens’ 64
consulting 64
authors 64
Y@@ 64
T 64
Norway 64
translation 64
deplore 64
pieces 64
/EEC 64
Innovation 64
permits 64
disproportionate 64
throw 64
delivering 64
acknowledges 64
intensify 64
referendums 64
witnessing 64
IMF 64
accusations 64
fires 64
mutually 64
imbalance 64
worthwhile 64
Merkel 64
announce 64
Progress 64
capabilities 64
rare 64
organising 64
r 64
ve 64
tomorrow's 64
generic 64
August 64
duly 64
Nuclear 64
Belarusian 64
equity 64
ease 64
Liikanen 64
donor 64
GALILEO 64
lastly 63
player 63
York 63
undermined 63
occurring 63
35@@ 63
politician 63
lift 63
requesting 63
admitted 63
killing 63
continually 63
precedence 63
evaluated 63
Harbour 63
grasp 63
quantity 63
gear 63
Madeira 63
participated 63
lived 63
thrown 63
prize 63
insisted 63
trouble 63
tes 63
strengthens 63
Government's 63
display 63
ying 63
Very 63
er' 63
somewhere 63
adjust 63
destroying 63
ta 63
textile 63
hunger 63
applaud 63
/2002) 63
lobby 63
journey 63
Blokland 63
gi@@ 63
abstain 63
Maritime 63
(EGF) 63
Dalai 63
FRONTEX 63
acquired 62
profitable 62
(LT) 62
uncertain 62
formulate 62
echo 62
excess 62
striving 62
ish 62
reveals 62
anticipate 62
rec@@ 62
breakthrough 62
conducting 62
pending 62
simpler 62
abide 62
(COD)) 62
alive 62
selective 62
nation@@ 62
seize 62
chaired 62
José 62
dominated 62
dominant 62
(the 62
disagreement 62
allocate 62
gen@@ 62
assumed 62
confine 62
pride 62
harassment 62
austerity 62
white 62
expanding 62
war@@ 62
unrealistic 62
one's 62
Forum 62
car@@ 62
capacities 62
tolerate 62
Ford 62
wood 62
distortions 62
ph@@ 62
prompt 62
League 62
Côte 62
internally 62
self-determination 62
publishing 62
ps 62
ballot 62
ard 62
Zimbabwe 62
papers 62
liquidity 62
Paragraph 62
suppliers 62
biofuels 62
Phare 62
plenty 61
kilometres 61
dramatically 61
endeavours 61
deepening 61
46 61
frequent 61
decides 61
suspect 61
stipulates 61
Europe-wide 61
guiding 61
Goals 61
theory 61
Karas 61
pushed 61
anyway 61
Meanwhile 61
reasonably 61
say: 61
deliberations 61
utterly 61
peripheral 61
notification 61
failures 61
transposed 61
approaching 61
straightforward 61
alleged 61
engaging 61
wisdom 61
leg@@ 61
altogether 61
robust 61
id@@ 61
et@@ 61
repeating 61
promptly 61
os 61
stabilisation 61
Much 61
gallery 61
incredible 61
blocked 61
weapon 61
intelligence 61
Nordic 61
girls 61
prevents 61
fruitful 61
welcoming 61
weekend 61
pandemic 61
tested 61
Christmas 61
Toulouse 61
Council' 61
alert 61
taxpayer 61
shipyards 61
orders 61
Bush 61
28@@ 61
organization 61
Racism 61
Angola 61
Lama 61
tariffs 60
fying 60
B 60
25@@ 60
investigated 60
challenging 60
15% 60
barrier 60
Jean 60
broadband 60
z 60
strongest 60
wall 60
questionable 60
resist 60
restoring 60
prioritise 60
intent 60
Fraga 60
Islands 60
analysing 60
pain 60
stressing 60
economics 60
hearings 60
undesirable 60
recover 60
distinguished 60
individually 60
persecuted 60
violated 60
hoc 60
and/or 60
employ 60
2015 60
liberties 60
obsolete 60
beliefs 60
frontier 60
financially 60
d'Ivoire 60
27@@ 60
Galicia 60
conceal 60
Wallström 60
coal 60
Russia's 60
Governments 60
embargo 60
bee 60
120 59
fortunately 59
draws 59
temporarily 59
all@@ 59
macro-economic 59
secured 59
professions 59
du@@ 59
upheld 59
definitions 59
Sunday 59
Ber@@ 59
dubious 59
Has 59
arbitrary 59
proportionate 59
independently 59
entrepreneurs 59
Japanese 59
eligibility 59
moderate 59
high-@@ 59
mine 59
connections 59
ruled 59
letters 59
art 59
Personally 59
bonds 59
substitute 59
ats 59
desperately 59
tri@@ 59
following: 59
h 59
Support 59
belongs 59
autonomous 59
Lebanon 59
successive 59
vi@@ 59
multi-@@ 59
university 59
minors 59
themes 59
aids 59
adult 59
mutilation 59
passive 59
tunnel 59
ECOFIN 59
copyright 59
suspicion 59
newly 59
et 59
oriented 59
Timor 59
sur@@ 59
pricing 59
des@@ 59
motivated 59
mankind 59
transferring 59
allowances 59
nationalism 59
automotive 59
waterways 59
concerted 59
Yugoslav 59
luck 59
Langen 59
embryonic 59
Cypriots 59
Nobody 58
á@@ 58
standardisation 58
col@@ 58
forth 58
States’ 58
tight 58
speedy 58
slightest 58
emergence 58
sheep 58
ancient 58
choosing 58
cautious 58
ve@@ 58
fishery 58
Sahara 58
trialogue 58
displayed 58
ni@@ 58
Capital 58
annually 58
P 58
warrant 58
pull 58
permanently 58
layer 58
caution 58
ry 58
inter-@@ 58
delayed 58
drift 58
in-@@ 58
atory 58
cu@@ 58
secretariat 58
ratio 58
teams 58
quoted 58
absent 58
processed 58
Algerian 58
é 58
records 58
ur@@ 58
checked 58
technically 58
incidentally 58
700 58
confined 58
ke@@ 58
Delors 58
MEDA 58
wines 58
platforms 58
milk 58
handle 58
hatred 58
tankers 58
trademark 58
beekeeping 58
tic@@ 57
sustain 57
8% 57
harder 57
men@@ 57
dynamism 57
Bullmann 57
factories 57
Blair 57
Regulations 57
lifting 57
mergers 57
classes 57
perception 57
restored 57
makers 57
touched 57
user 57
unilaterally 57
appreciated 57
confused 57
displaced 57
bed 57
com@@ 57
ators 57
Environmental 57
adds 57
-related 57
newspapers 57
brutal 57
servants 57
chapters 57
afterwards 57
mi@@ 57
UEN 57
al' 57
returning 57
antibiotics 57
interfere 57
trained 57
Mo@@ 57
sentences 57
applicants 57
presidency's 57
reasoning 57
Par@@ 57
allies 57
revising 57
introduces 57
saved 57
el 57
supplied 57
Jacques 57
subsidy 57
Elles 57
ECHO 57
Neighbourhood 57
modes 57
dealers 57
donation 57
Gauzès 56
dark 56
70% 56
41 56
schedule 56
ECR 56
Besides 56
disappointing 56
generating 56
deleted 56
forming 56
flooding 56
are@@ 56
paramount 56
benefited 56
propaganda 56
00 56
completing 56
stepped 56
forcing 56
tion@@ 56
audiovisual 56
underestimate 56
Fifteen 56
imposition 56
website 56
unambiguous 56
forecasts 56
assisted 56
totalitarian 56
coexistence 56
deeds 56
imperialist 56
Order 56
gaining 56
reveal 56
Taking 56
enormously 56
Rehn 56
aggressive 56
od@@ 56
buying 56
cease 56
anti@@ 56
Somalia 56
obligatory 56
); 56
warn 56
prosperous 56
26@@ 56
insisting 56
backs 56
settle 56
Or 56
Athens 56
Armenian 56
Secretary 56
retail 56
scandal 56
] 56
and@@ 56
tyres 56
zing 56
calm 56
33@@ 56
timber 56
dare 56
emphasize 56
Rio 56
transplantation 56
beer 56
nowhere 55
speaker) 55
underway 55
station 55
ak@@ 55
globally 55
engines 55
pretty 55
begins 55
dependency 55
encountered 55
academic 55
es) 55
lacks 55
um 55
Cox 55
discretion 55
sparsely 55
visibility 55
authoritarian 55
opted 55
elite 55
hi@@ 55
owing 55
ator 55
exceptionally 55
complaint 55
Whatever 55
treating 55
harsh 55
f 55
contempt 55
inclusive 55
insofar 55
diplomacy 55
damaged 55
parameters 55
teachers 55
marking 55
violate 55
tune 55
600 55
rape 55
tor@@ 55
pen@@ 55
tens 55
plus 55
(I@@ 55
methodology 55
compliment 55
modernise 55
Which 55
spreading 55
suspend 55
Islam 55
preferences 55
devastated 55
tells 55
report's 55
Afghan 55
fin@@ 55
mobilising 55
Un@@ 55
incorporating 55
Arabia 55
drinking 55
Evans 55
mercury 55
embryo 55
/97 55
artificial 54
liable 54
desperate 54
Citizens 54
surface 54
interaction 54
mentions 54
Almunia 54
scarcely 54
9% 54
up@@ 54
ineffective 54
sub-@@ 54
plain 54
misuse 54
back@@ 54
conditional 54
vigorously 54
honoured 54
realisation 54
Tuesday 54
ill@@ 54
fragmentation 54
conventional 54
hidden 54
Right 54
expects 54
exceed 54
O 54
sports 54
Michel 54
predecessor 54
correspond 54
entities 54
ation; 54
reiterated 54
finished 54
contradictions 54
prerogatives 54
unlikely 54
decrease 54
overlook 54
a' 54
accelerate 54
blue 54
Rompuy 54
sed 54
Resolution 54
proliferation 54
scourge 54
Board 54
forgetting 54
rehabilitation 54
injustice 54
Palacio 54
Police 54
counterparts 54
dismantling 54
visits 54
'yes' 54
oppression 54
translate 54
Sudan 54
(Applause 54
explosion 54
Taliban 54
ls 54
storms 54
ed; 54
page 54
decentralised 54
cigarette 54
studied 54
ff@@ 54
Solbes 54
Macau 54
ERTMS 54
Again 53
sk@@ 53
partially 53
rejects 53
honesty 53
claiming 53
advocating 53
sts 53
exempt 53
non-discrimination 53
striking 53
impressive 53
twelve 53
receives 53
allegations 53
Gebhardt 53
blocking 53
outlines 53
viewpoint 53
worry 53
stone 53
protectionist 53
lobbyists 53
comprehensible 53
varied 53
annex 53
shameful 53
agents 53
Agreements 53
moments 53
prominent 53
inherent 53
it: 53
envisage 53
shocking 53
know-how 53
exercised 53
dying 53
surveys 53
admittedly 53
90% 53
opposing 53
Among 53
backwards 53
pensioners 53
protocols 53
Asylum 53
reliability 53
phenomena 53
Dis@@ 53
alise 53
benefiting 53
Lamassoure 53
feet 53
advised 53
relocations 53
delete 53
capability 53
deposit 53
offshore 53
committee's 53
TACIS 53
ex 53
catches 53
settlements 53
Georgian 53
Media 53
Opportunities 52
65 52
hypocritical 52
timetables 52
viability 52
slight 52
negotiators 52
Climate 52
Ad@@ 52
work@@ 52
suited 52
incredibly 52
stimulus 52
admission 52
explaining 52
Global 52
St@@ 52
alleviate 52
opt 52
camp 52
450 52
Equally 52
modification 52
Directorate-General 52
foot 52
complain 52
shaping 52
charging 52
prudent 52
imprisoned 52
zed 52
equitable 52
carries 52
endorses 52
199@@ 52
affordable 52
courses 52
rarely 52
ven@@ 52
sorts 52
herself 52
tighten 52
blow 52
assuming 52
ka 52
fac@@ 52
Fifth 52
abused 52
perpetrators 52
fe@@ 52
adjourned 52
prosecutor 52
traffickers 52
Pirker 52
Today's 52
committing 52
Technological 52
shut 52
specify 52
tourist 52
capitalism 52
pushing 52
fusion 52
codes 52
tly 52
cow 52
tongue 52
sacrifice 52
licence 52
Haarder 52
Hussein 52
Byrne 52
tically 51
counts 51
discrepancies 51
assert 51
ICAO 51
(2) 51
evaluating 51
Competition 51
EU-wide 51
underestimated 51
stimulating 51
simultaneously 51
convictions 51
adhered 51
overlooked 51
advise 51
maintains 51
Countries 51
sceptical 51
Something 51
mistaken 51
ving 51
transpose 51
possession 51
responsibly 51
publicity 51
countless 51
08@@ 51
cornerstone 51
tragedies 51
indicating 51
DG 51
incorporation 51
mainstreaming 51
occupational 51
250 51
formulation 51
boats 51
capita 51
assisting 51
cooperating 51
illness 51
hospital 51
waiver 51
facto 51
margins 51
refuge 51
odds 51
Ministry 51
assurances 51
tu@@ 51
democrats 51
thirty 51
Muslims 51
bl@@ 51
ist@@ 51
bomb 51
Section 51
ay 51
mor@@ 51
harmony 51
/98) 51
dealings 51
diversification 51
sporting 51
Kazakhstan 51
alization 51
foods 51
accessing 50
pi@@ 50
analysed 50
neutrality 50
(CNS)] 50
Round 50
inconsistent 50
36@@ 50
lifted 50
law@@ 50
confidentiality 50
blocks 50
incorrect 50
notified 50
Scientific 50
observer 50
exceeded 50
collectively 50
lu@@ 50
urging 50
ner 50
objection 50
cor@@ 50
discover 50
Recently 50
Certain 50
outlook 50
outbreak 50
EP 50
Management 50
Sarkozy 50
micro@@ 50
Scottish 50
ation@@ 50
Seventh 50
ir 50
clarifying 50
refuses 50
fabric 50
shocked 50
Everything 50
humans 50
database 50
Serbian 50
forward-looking 50
combustion 50
compatibility 50
1989 50
assigned 50
Berlusconi 50
EU' 50
the@@ 50
coasts 50
aries 50
suggesting 50
cross-@@ 50
Pen 50
Lamy 50
Essen 50
Molitor 50
Singapore 50
Interim 50
diabetes 50
premature 49
freight 49
58 49
adhere 49
report: 49
forefront 49
ignoring 49
ed: 49
undermines 49
today’s 49
on: 49
nowadays 49
boosting 49
manufactured 49
partial 49
skill 49
unequivocal 49
influenced 49
Ac@@ 49
weakest 49
bar@@ 49
hesitate 49
ity; 49
mature 49
complying 49
headings 49
unusual 49
inspiration 49
weakening 49
traditionally 49
behave 49
homophobia 49
children's 49
ys 49
devised 49
proving 49
/0@@ 49
cite 49
foreseen 49
Schüssel 49
mer@@ 49
stipulated 49
style 49
replacement 49
tougher 49
perpetrated 49
mar@@ 49
a; 49
frank 49
worsening 49
(C@@ 49
debts 49
sixth 49
reduces 49
immigrant 49
Cairo 49
expectation 49
cap@@ 49
genital 49
Montenegro 49
fossil 49
balances 49
deployed 49
ash@@ 49
Prestige 49
confrontation 49
copy 49
condolences 49
drilling 49
co-decision 49
For@@ 49
millennium 49
gr@@ 49
passport 49
thematic 49
Gothenburg 49
ot@@ 49
Albanian 49
Nordmann 49
aeroplanes 49
nurses 49
gifts 49
socialists 48
neglected 48
trains 48
struggling 48
neoliberal 48
56 48
alising 48
feasibility 48
arena 48
vigorous 48
Mathieu 48
confirmation 48
insistence 48
29@@ 48
workable 48
24@@ 48
conscious 48
legislate 48
endeavouring 48
counterfeit 48
portfolio 48
Azores 48
mid-@@ 48
council 48
ty@@ 48
radically 48
residing 48
synergies 48
day-to-day 48
goodwill 48
consist 48
protests 48
accorded 48
denounce 48
suspected 48
Approval 48
games 48
outcomes 48
serving 48
Lu@@ 48
Car@@ 48
replies 48
combated 48
deeper 48
Violence 48
Beijing 48
spheres 48
Or@@ 48
confronted 48
UN@@ 48
tors 48
Her@@ 48
75 48
ors 48
destination 48
hospitals 48
damages 48
ker 48
Chechen 48
frequency 48
km 48
polluting 48
ens 48
Amnesty 48
Brok 48
visiting 48
V 48
LIFE 48
provisional 48
Russians 48
Putin 48
FTA 48
nutrition 48
realize 48
feedingstuffs 48
Alan 48
love 47
Up 47
continuously 47
52 47
competing 47
distant 47
ges 47
sen@@ 47
He@@ 47
sky 47
validity 47
separately 47
we@@ 47
acute 47
smart 47
grips 47
principally 47
reluctant 47
Oomen-Ruijten 47
criticising 47
under-@@ 47
Dr 47
denying 47
proportionality 47
defines 47
ass@@ 47
ana 47
Po@@ 47
evolution 47
hearts 47
suit 47
inhumane 47
ins 47
stri@@ 47
alism 47
misunderstanding 47
embarked 47
down@@ 47
remembered 47
preferable 47
Have 47
universally 47
human@@ 47
Ferrero-Waldner 47
R 47
detention 47
pa@@ 47
concentrating 47
illustrate 47
persist 47
continents 47
imprisonment 47
controversy 47
38@@ 47
keeps 47
bus 47
outrageous 47
pure 47
secrecy 47
systemic 47
An@@ 47
finger 47
frustration 47
low-@@ 47
scene 47
well-balanced 47
activists 47
up-to-date 47
eat 47
fairness 47
impunity 47
winner 47
Bar@@ 47
havens 47
channel 47
Dührkop 47
Quartet 47
geopolitical 47
Initiative 47
pluralism 47
mouth 47
harmonization 47
B5-0@@ 47
slaughter 47
‘yes’ 47
Costa 47
beet 47
garlic 47
expanded 46
somebody 46
high-speed 46
Admittedly 46
literally 46
tender 46
vis-à-vis 46
acknowledging 46
customers 46
precarious 46
dilemma 46
arriving 46
assumption 46
head@@ 46
cure 46
govern 46
entrepreneurial 46
teaching 46
dollar 46
y) 46
discriminated 46
Combating 46
unfounded 46
prevailing 46
aforementioned 46
mu@@ 46
disgraceful 46
weakened 46
profitability 46
improves 46
Go@@ 46
experiments 46
anxious 46
corrected 46
England 46
collected 46
Gu@@ 46
brave 46
disappeared 46
store 46
Dimas 46
milestone 46
(4) 46
specifications 46
utilisation 46
narrow 46
example: 46
fo@@ 46
municipal 46
prohibit 46
chances 46
ori@@ 46
arm 46
legality 46
tur@@ 46
survey 46
week's 46
justifies 46
bombs 46
urges 46
Wogau 46
lesser 46
frame 46
stamp 46
ation' 46
ranging 46
adults 46
freezing 46
appointments 46
Slovenian 46
honestly 46
Monitoring 46
ecosystems 46
States; 46
catastrophe 46
Napolitano 46
speci@@ 46
machines 46
undemocratic 46
Berès 46
shorter 46
sessions 46
Bösch 46
(DA) 46
ETA 46
exported 46
ing-@@ 46
replied 46
arts 46
Uganda 46
cultivation 46
/2009 46
TENs 46
thrombin 46
char@@ 45
pollutants 45
edge 45
accord 45
y’ 45
world’s 45
flood 45
hinder 45
odd 45
pu@@ 45
readily 45
unreasonable 45
shop 45
somehow 45
Poverty 45
quo 45
incumbent 45
inc@@ 45
scepticism 45
screening 45
Lehne 45
wondering 45
it; 45
ous@@ 45
form@@ 45
(S@@ 45
medium-term 45
Crowley 45
da 45
fathers 45
20th 45
beautiful 45
cruel 45
John 45
voiced 45
Rocard 45
ite 45
exploiting 45
non-EU 45
supportive 45
lobbying 45
dossiers 45
embark 45
eleven 45
male 45
rationale 45
ment; 45
v 45
son 45
yield 45
quarters 45
exposure 45
deployment 45
kill 45
contaminated 45
mines 45
trap 45
parental 45
gener@@ 45
everyone's 45
read@@ 45
Lulling 45
unknown 45
Prevention 45
alised 45
ches 45
resume 45
undertook 45
Zapatero 45
Se@@ 45
vaccination 45
fulfils 45
can@@ 45
deficiencies 45
councils 45
fly 45
preceded 45
smoke 45
industrialised 45
hedge 45
conversion 45
synergy 45
offensive 45
br@@ 45
Rasmussen 45
roll-call 45
labels 45
POPs 45
non-proliferation 45
panic 45
NUTS 45
den@@ 45
/01 45
Kashgar 45
Wathelet 45
sitting: 44
extends 44
devise 44
cre@@ 44
alarm 44
timing 44
pave 44
tries 44
Špidla 44
ver 44
cohesive 44
lagging 44
vo@@ 44
gra@@ 44
one-@@ 44
preferential 44
enjoys 44
splendid 44
that: 44
window 44
ambiguous 44
advisable 44
assent 44
pages 44
dozens 44
gather 44
panel 44
motives 44
unlawful 44
communicated 44
inter 44
Posselt 44
varies 44
ann@@ 44
dictatorships 44
select 44
ts; 44
gesture 44
ty-@@ 44
twenty-five 44
Del@@ 44
unequivocally 44
Confederal 44
arrival 44
undeclared 44
poorly 44
entity 44
yourselves 44
neglect 44
communist 44
cur@@ 44
lending 44
aggression 44
duration 44
unequal 44
ble 44
Tunisia 44
renew 44
two-@@ 44
IND/DEM 44
describes 44
tor 44
religions 44
gh@@ 44
long-standing 44
reserved 44
supporters 44
SME 44
temperature 44
preserved 44
Tra@@ 44
ited 44
Darfur 44
Chapter 44
rotating 44
ga@@ 44
therapeutic 44
conferred 44
decentralisation 44
Country 44
coin 44
corporations 44
an-@@ 44
people' 44
co-operation 44
restoration 44
enlarge 44
deterrent 44
barely 44
M 44
labelled 44
speculative 44
minimise 44
Ultimately 44
stepping 44
taught 44
amounting 44
transportation 44
1990s 44
theatre 44
non-tariff 44
petrol 44
emphasized 44
est@@ 44
Kauppi 44
Mexican 44
racial 44
alcoholic 44
SESAR 44
H1N1 44
switch 43
illustrated 43
patience 43
illustrates 43
modernising 43
congratulated 43
allowance 43
minimal 43
duplication 43
/2006 43
specialist 43
updating 43
warned 43
demonstrators 43
functional 43
foreigners 43
designated 43
appeals 43
realism 43
points: 43
Overall 43
ep@@ 43
av@@ 43
tively 43
ity' 43
headed 43
appoint 43
dissemination 43
tied 43
plea 43
half-@@ 43
educated 43
ts: 43
dec@@ 43
predict 43
Per@@ 43
Ombudsman 43
identical 43
tendencies 43
supervisors 43
performed 43
west 43
Far 43
a: 43
reinforcement 43
Union; 43
reacted 43
villages 43
recycling 43
nice 43
humane 43
expectancy 43
imminent 43
exchanging 43
auspices 43
verdict 43
catastrophic 43
Kurds 43
sentenced 43
rac@@ 43
percent 43
Me@@ 43
shipowners 43
800 43
exporting 43
Barón 43
fed 43
fifty 43
Israelis 43
countryside 43
Com@@ 43
Burmese 43
Garriga 43
heartfelt 43
driftnets 43
weaker 43
Veterinary 43
piracy 43
unconditional 43
judgement 43
ecosystem 43
'European 43
Busquin 43
37@@ 43
TEN 43
Heading 43
honey 43
/01): 43
owned 42
carriers 42
public-private 42
46@@ 42
149) 42
bid 42
adopts 42
(3) 42
/2006) 42
closest 42
excluding 42
profession 42
destructive 42
Amongst 42
skilled 42
coordinator 42
explains 42
safeguarded 42
pledge 42
transparently 42
commission 42
authorising 42
transform 42
ative 42
ship@@ 42
reminding 42
Cor@@ 42
ach@@ 42
evidently 42
aged 42
coordinators 42
box 42
incurred 42
checking 42
enti@@ 42
defenders 42
Honourable 42
stabilise 42
communautaire 42
Work 42
85 42
e's 42
charter 42
dedication 42
ically 42
prostitution 42
loopholes 42
penalise 42
fl@@ 42
resignation 42
commendable 42
fulfilment 42
collect 42
fortunate 42
ce@@ 42
Corbett 42
alist 42
ai@@ 42
Robert 42
submission 42
Supreme 42
cross-compliance 42
off) 42
software 42
dogs 42
N 42
Fontaine 42
82 42
spot 42
ge 42
investor 42
defeat 42
Belgrade 42
film 42
Belarussian 42
bas@@ 41
formation 41
liberalised 41
buses 41
derive 41
cynical 41
ill-@@ 41
derived 41
supplement 41
finalised 41
engine 41
C6-0@@ 41
richer 41
ises 41
broadest 41
unchanged 41
circles 41
suffers 41
objectively 41
earliest 41
you: 41
contracting 41
dividing 41
List 41
overdue 41
Europe@@ 41
engineering 41
boards 41
insists 41
reaffirm 41
subscribe 41
quest 41
overview 41
selected 41
passes 41
ars 41
attributed 41
filled 41
protective 41
named 41
ob@@ 41
civilised 41
í@@ 41
hostile 41
az@@ 41
constituted 41
sulphur 41
long-@@ 41
lively 41
cement 41
dialogues 41
gar@@ 41
instructions 41
tempted 41
ants 41
attending 41
constructively 41
worries 41
Ireland's 41
forwards 41
virtual 41
expressions 41
fragmented 41
tends 41
Network 41
eradicate 41
equip 41
repatriation 41
weather 41
UNHCR 41
passion 41
Australia 41
misery 41
securities 41
bro@@ 41
alis@@ 41
severity 41
textiles 41
soft 41
rose 41
possess 41
acceding 41
tin@@ 41
harmonious 41
Good 41
sheet 41
Executive 41
Independent 41
foreseeable 41
expiry 41
suicide 41
accede 41
Delegation 41
forwarded 41
organisms 41
documentation 41
forever 41
appearance 41
ante 41
onwards 41
classified 41
NACE 41
Part 41
Galeote 41
score 41
roaming 41
Europe: 40
accessibility 40
Trans@@ 40
clo@@ 40
province 40
standpoint 40
gathered 40
ball 40
litres 40
credits 40
verification 40
slogan 40
Small 40
Chirac 40
anti-discrimination 40
sc@@ 40
conceived 40
balancing 40
postponement 40
)@@ 40
starts 40
chairmen 40
legislator 40
hal@@ 40
y’s 40
renationalisation 40
laundering 40
fees 40
alia 40
meaningless 40
rebuild 40
ESF 40
country’s 40
arose 40
accommodate 40
characteristic 40
separated 40
(P@@ 40
reviewing 40
iting 40
sharp 40
a) 40
sudden 40
reinforces 40
Fin@@ 40
Incidentally 40
award 40
outdated 40
ade 40
11@@ 40
operator 40
ts' 40
watching 40
historically 40
wi@@ 40
ak 40
equ@@ 40
manipulation 40
mobilised 40
facilitated 40
Presidencies 40
stopping 40
98@@ 40
us: 40
d'Ancona 40
responds 40
approximation 40
exempted 40
attain 40
anti-fraud 40
50th 40
bordering 40
right-wing 40
xenophobic 40
Cam@@ 40
favoured 40
undergoing 40
studying 40
six-month 40
backdrop 40
measuring 40
unwilling 40
People' 40
vigilance 40
ice 40
establishments 40
Au@@ 40
Sch@@ 40
Colombia 40
G 40
timeframe 40
supplemented 40
Staes 40
retention 40
currencies 40
dynamics 40
disciplinary 40
five-year 40
St 40
reaffirmed 40
Cold 40
s" 40
preconditions 40
Torres 40
collecting 40
exhaustion 40
i's 39
deterioration 39
coincidence 39
distort 39
eco-@@ 39
Aviation 39
token 39
emphatically 39
None 39
super@@ 39
sentiment 39
Southern 39
(in 39
Take 39
postal 39
grass-roots 39
lowering 39
decisively 39
termed 39
automobile 39
tro@@ 39
rests 39
presently 39
Interinstitutional 39
Too 39
EC@@ 39
metres 39
ering 39
favours 39
ently 39
statutory 39
Looking 39
calculations 39
upholding 39
Bearing 39
ram@@ 39
impacts 39
dly 39
lawyer 39
La@@ 39
48@@ 39
os@@ 39
retaining 39
Topolánek 39
confusing 39
fatal 39
outright 39
illustration 39
Experts 39
Five 39
reaches 39
dignified 39
che@@ 39
Voting 39
punish 39
approached 39
ity: 39
Herman 39
penal 39
supposedly 39
(CNS)) 39
off@@ 39
incomplete 39
college 39
deadlock 39
IV 39
unused 39
artists 39
reservation 39
thirds 39
Grossetête 39
corresponds 39
produc@@ 39
safely 39
ster@@ 39
homosexuals 39
friendship 39
branch 39
56@@ 39
doubtless 39
la 39
Pacific 39
scandals 39
uncontrolled 39
rooted 39
leap 39
Alpine 39
dolphins 39
Catholic 39
peacefully 39
Israel's 39
blockade 39
subordinate 39
Revision 39
Division 39
packages 39
fundamentalism 39
officer 39
contamination 39
Caudron 39
Schnellhardt 39
cats 39
motto 39
mountains 39
sclerosis 39
Hulten 39
grand 38
disappearance 38
pro-@@ 38
51 38
63 38
broaden 38
lorries 38
multi@@ 38
Sa@@ 38
Directives 38
cornerstones 38
rou@@ 38
extremism 38
inhuman 38
our@@ 38
ned 38
shed 38
unreservedly 38
ence 38
Implementation 38
ics 38
Institutional 38
Lamfalussy 38
Measures 38
ash 38
Currently 38
legislature 38
Estévez 38
pri@@ 38
combining 38
intercultural 38
distorted 38
operated 38
Pack 38
ished 38
ina 38
projec@@ 38
st 38
satisfactorily 38
ears 38
winners 38
end@@ 38
kes 38
ach 38
wild 38
ignores 38
ment@@ 38
Her 38
142) 38
evolving 38
Union: 38
Be@@ 38
quiet 38
ring 38
exaggerated 38
liber@@ 38
teach 38
entrepreneurship 38
endless 38
(BG) 38
are: 38
Road 38
ate@@ 38
/98 38
policing 38
sing 38
hesitation 38
Im@@ 38
har@@ 38
34@@ 38
Rübig 38
reminds 38
Recent 38
smoothly 38
volatility 38
Crespo 38
Jo@@ 38
110 38
afforded 38
Seveso 38
(COD)] 38
pan@@ 38
birds 38
Organization 38
appearing 38
fu@@ 38
refunds 38
midst 38
Solvency 38
holdings 38
estimate 38
nomination 38
PHARE 38
premiums 38
esteemed 38
circle 38
irreversible 38
interconnection 38
oceans 38
mil@@ 38
ati@@ 38
patents 38
Agricultural 38
libraries 38
Uzbek 38
importing 38
Works 38
(H-05@@ 38
drinks 38
smokers 38
Altener 38
Swiss 37
Prague 37
Recommendation 37
congestion 37
pointless 37
club 37
childcare 37
part-time 37
business@@ 37
-and-@@ 37
unsustainable 37
readiness 37
protects 37
enforcing 37
unnecessarily 37
farmers' 37
enthusiastic 37
unstable 37
denominator 37
Workers 37
nonsense 37
explore 37
Level 37
attacked 37
conformity 37
Speaking 37
capitals 37
–@@ 37
pleasant 37
Director 37
sanction 37
Tomorrow 37
diagnosis 37
inadmissible 37
iron 37
Ko@@ 37
Nobel 37
GNP 37
al; 37
aw@@ 37
00@@ 37
accurately 37
exhaustive 37
prevailed 37
deepen 37
altered 37
miss 37
pr@@ 37
incidence 37
Due 37
Alexander 37
Lucas 37
Maybe 37
Almost 37
counterproductive 37
Member's 37
Deputy 37
condemns 37
dreadful 37
extradition 37
thing: 37
wrongly 37
ashamed 37
direc@@ 37
brain 37
roll 37
sid@@ 37
proximity 37
failings 37
imposes 37
ines 37
troika 37
airline 37
exercises 37
manufacturer 37
specialised 37
Steel 37
breakdown 37
inefficient 37
ery 37
sacrificed 37
SA@@ 37
endorsement 37
A) 37
adjusted 37
relaunch 37
ne 37
Report: 37
football 37
yours 37
reads 37
Randzio-Plath 37
exciting 37
approves 37
Sir 37
Daul 37
sacrifices 37
basin 37
richest 37
Former 37
leverage 37
Bangemann 37
alized 37
Stenmarck 37
nickel 37
Cambodia 37
part) 37
54 36
Unlike 36
ers; 36
doubled 36
forcefully 36
governmental 36
returns 36
accelerated 36
vain 36
grip 36
exacerbate 36
Experience 36
unaware 36
doctor 36
tightening 36
introductory 36
sounds 36
rigorously 36
a’s 36
tru@@ 36
Doyle 36
af@@ 36
corridors 36
str@@ 36
avian 36
ban@@ 36
limitation 36
speeding 36
drain 36
tical 36
tions: 36
impressed 36
sl@@ 36
ted; 36
ke 36
expulsion 36
detained 36
holders 36
Council: 36
Process 36
L 36
1979 36
ck@@ 36
household 36
sexes 36
loud 36
persists 36
pronounced 36
Daphne 36
malaria 36
violating 36
Li@@ 36
Title 36
misunderstandings 36
output 36
acy 36
auctions 36
generosity 36
land@@ 36
profoundly 36
Iranian 36
don't 36
kin@@ 36
municipalities 36
Banotti 36
interfering 36
Sadly 36
identifies 36
foot-and-mouth 36
wing 36
chiefly 36
qualification 36
maturity 36
ski 36
sw@@ 36
modifications 36
reactors 36
Medina 36
no-one 36
moderation 36
U 36
Strip 36
disgrace 36
patterns 36
IMO 36
revenues 36
concur 36
abstaining 36
COM 36
widening 36
recommending 36
Plooij-van 36
Professor 36
levy 36
cease-fire 36
persuaded 36
file 36
assistants 36
39@@ 36
Brenner 36
vodka 36
MEDIA 36
delaying 35
59 35
temptation 35
Kallas 35
oning 35
coincide 35
originating 35
conflicting 35
ments; 35
Greater 35
compromised 35
regrettably 35
reversed 35
anxiety 35
Őry 35
influx 35
imply 35
risky 35
broadcast 35
cri@@ 35
self-evident 35
posting 35
occasionally 35
impartial 35
Frassoni 35
redress 35
illusion 35
low@@ 35
consisting 35
employer 35
drastically 35
opt-out 35
privileges 35
dissatisfaction 35
ideals 35
indicative 35
headquarters 35
intensively 35
machine 35
ran@@ 35
95@@ 35
fruits 35
manifest 35
gift 35
reactionary 35
proceeding 35
Mon@@ 35
ging 35
frameworks 35
varying 35
constituent 35
fies 35
stabilising 35
supporter 35
allegedly 35
loan 35
P) 35
inviting 35
sions 35
Things 35
munitions 35
calculated 35
chief 35
marginalisation 35
IT 35
abilities 35
accommodation 35
upper 35
undergo 35
(A@@ 35
deprive 35
apologies 35
Faced 35
attacking 35
K 35
fleeing 35
barbaric 35
Milosevic 35
67@@ 35
hopeful 35
one: 35
penalised 35
complementarity 35
Th@@ 35
underpin 35
Pe@@ 35
pretend 35
sta@@ 35
(A5-04@@ 35
degrees 35
sel@@ 35
coach 35
useless 35
presumably 35
civilisations 35
resolutely 35
[COM(2001) 35
Lo@@ 35
Cuban 35
churches 35
Cotonou 35
disregarded 35
ly: 35
regain 35
rotation 35
referral 35
headway 35
devices 35
destined 35
Metten 35
ascertain 35
dwell 35
volunteers 35
declining 35
Red 35
frozen 35
ever-increasing 35
aquaculture 35
Bal@@ 35
disagreements 35
institute 35
globalization 35
despair 35
Product 35
Business 35
abduction 35
Bertens 35
vaccines 35
Färm 35
Kozloduy 35
Progressive 34
branches 34
concession 34
53 34
ud@@ 34
enters 34
declaring 34
lands 34
-up 34
one-sided 34
optimum 34
(INI)] 34
entrusted 34
Ma@@ 34
ment: 34
differs 34
relying 34
posted 34
ers’ 34
careers 34
discriminate 34
pockets 34
solemn 34
worded 34
curb 34
buried 34
rulings 34
guard 34
accomplished 34
ide@@ 34
campaigning 34
specialists 34
verify 34
anti-Semitism 34
pay@@ 34
Throughout 34
Paul 34
1980s 34
notable 34
gravity 34
dropped 34
rectify 34
bulk 34
music 34
enjoying 34
popul@@ 34
logically 34
al: 34
bitter 34
mal@@ 34
reflecting 34
feared 34
interpretations 34
conception 34
constitutions 34
Man@@ 34
offset 34
forge 34
Being 34
construct 34
ped 34
EU@@ 34
deplorable 34
distinct 34
unhappy 34
provoked 34
locked 34
fore 34
Wall 34
inf@@ 34
BBC 34
ceilings 34
conditionality 34
conveyed 34
allotted 34
walls 34
resolute 34
Nassauer 34
winter 34
70@@ 34
cash 34
ric@@ 34
irresponsibility 34
addiction 34
flu 34
government's 34
11% 34
Pakistani 34
corrupt 34
calculation 34
corner 34
supplying 34
78 34
Swiebel 34
trials 34
abandoning 34
bing 34
Eurojust 34
Annual 34
homosexual 34
ranks 34
euro@@ 34
representations 34
EU-Russia 34
Consumers 34
Technology 34
online 34
regrets 34
Warsaw 34
besides 34
fraudulent 34
Welcome 34
ner@@ 34
Macao 34
micro-@@ 34
Europe; 34
staffing 34
horse 34
Category 34
pro-European 34
needing 34
origins 34
collapsed 34
Munich 34
upgrading 34
Air 34
Galileo 34
comparative 34
González 34
Ch@@ 34
Official 34
shot 34
licensing 34
Gorsel 34
Vilvoorde 34
na 34
gladly 34
ay@@ 34
EU-US 34
prospectus 34
modulation 34
(SEC(2009)1089 34
liberalising 33
MS 33
twenty-first 33
fits 33
triggered 33
turnover 33
w 33
fostering 33
shortages 33
imp@@ 33
exacerbated 33
likelihood 33
favourably 33
catalogue 33
oblige 33
impasse 33
tre@@ 33
ut@@ 33
int@@ 33
incoming 33
undeniable 33
year’s 33
Europe’ 33
emerges 33
self-regulation 33
diet 33
overly 33
unhealthy 33
areas: 33
conform 33
questioning 33
uncertainties 33
lying 33
similarly 33
loc@@ 33
66@@ 33
specifies 33
vel@@ 33
care@@ 33
ignorance 33
gn@@ 33
endorsing 33
marginalised 33
El@@ 33
convert 33
formerly 33
grey 33
Natura 33
baby 33
agendas 33
speedily 33
nationalist 33
ers: 33
Moldovan 33
aftermath 33
cards 33
abducted 33
hate 33
counted 33
rethink 33
bizarre 33
contributors 33
comprising 33
questioned 33
monies 33
Fourth 33
directors 33
occupy 33
tar 33
achievable 33
dreams 33
celebration 33
plight 33
attendance 33
Between 33
sen 33
epidemic 33
bought 33
forceful 33
Immigration 33
intervening 33
part@@ 33
ample 33
wealthy 33
Nigeria 33
denial 33
director 33
consumers' 33
David 33
pur@@ 33
id 33
wa@@ 33
er; 33
tripartite 33
cen@@ 33
invaluable 33
couples 33
ining 33
o's 33
wor@@ 33
suppression 33
arrange 33
ment' 33
slick 33
k-@@ 33
Saturday 33
superfluous 33
wearing 33
annum 33
department 33
ratifying 33
interest@@ 33
bankers 33
Administrative 33
eng@@ 33
Rotterdam 33
rel@@ 33
ess@@ 33
'a 33
seized 33
magnitude 33
promotional 33
grassroots 33
reopen 33
ch-@@ 33
noting 33
sa 33
dollars 33
Tribunal 33
applause) 33
Lancker 33
her@@ 33
%) 33
re 33
infection 33
alities 33
continental 33
Access 33
Broek 33
Ortega 33
republics 33
habit 33
phone 33
transplant 33
vegetables 33
Tibetans 33
reside 33
beekeepers 33
withdrawing 32
channelled 32
'We 32
bur@@ 32
hand@@ 32
non 32
ved 32
Along 32
countries; 32
47@@ 32
seventh 32
indifferent 32
arguing 32
populist 32
Communism 32
multilateralism 32
conducive 32
WHO 32
employee 32
admiration 32
neo-liberal 32
filling 32
authorise 32
REACH 32
contentious 32
predicted 32
EP@@ 32
yed 32
anger 32
render 32
permissible 32
Others 32
reg@@ 32
father 32
istic 32
premise 32
horrific 32
pictures 32
faithful 32
insight 32
ological 32
supervise 32
ck 32
Based 32
Making 32
ish@@ 32
transformed 32
dictate 32
pon@@ 32
House's 32
iz@@ 32
def@@ 32
Inter@@ 32
comprises 32
Wales 32
fortress 32
colonial 32
intensified 32
lat@@ 32
signatories 32
ale 32
75% 32
directions 32
laudable 32
disparity 32
S) 32
contexts 32
gathering 32
observatory 32
Statement 32
broke 32
beforehand 32
prompted 32
99@@ 32
prohibiting 32
successor 32
traders 32
marginal 32
progressively 32
X@@ 32
feeds 32
seeds 32
virus 32
pandemics 32
contractual 32
del 32
categorically 32
gay 32
smallest 32
raft 32
d'@@ 32
45@@ 32
accusation 32
today' 32
cul@@ 32
ched 32
complaining 32
practised 32
web 32
Auditors' 32
differentiation 32
Polledo 32
fication 32
Terrorism 32
mortgage 32
clearing 32
abandonment 32
Pasty 32
targeting 32
(EEC) 32
Cross 32
Ankara 32
Jewish 32
coastline 32
physically 32
rush 32
liberalization 32
axis 32
extraordinarily 32
–– 32
Bolivia 32
qualities 32
miles 32
Muscardini 32
Rothley 32
drink 32
Rodríguez 32
Haiti 32
Liese 31
certificates 31
jeopardised 31
investigating 31
all-@@ 31
continual 31
Guidelines 31
Tax 31
Efforts 31
Böge 31
fic@@ 31
mindful 31
sittings 31
No@@ 31
tighter 31
assertion 31
formulating 31
2004@@ 31
Gargani 31
quicker 31
City 31
Specifically 31
scarcity 31
luxury 31
Nazism 31
experiment 31
disposed 31
emb@@ 31
culturally 31
lit@@ 31
preferably 31
hydrocarbons 31
answering 31
antly 31
ant@@ 31
owed 31
undergone 31
signatures 31
progressing 31
competi@@ 31
initiating 31
wellbeing 31
mitigate 31
winning 31
revolutionary 31
envoy 31
observing 31
constructed 31
aspire 31
inde@@ 31
untenable 31
geographically 31
arm@@ 31
'I 31
part-sessions 31
vulnerability 31
star@@ 31
backward 31
insult 31
mentality 31
influential 31
sick 31
shopping 31
computers 31
Schmid 31
intern@@ 31
in' 31
Flynn 31
surrounded 31
tactics 31
Data 31
Peijs 31
insignificant 31
ham@@ 31
cas@@ 31
specifying 31
mafia 31
angry 31
Church 31
endanger 31
universality 31
chaos 31
respon@@ 31
peacekeeping 31
troubled 31
packaging 31
ECHR 31
cruelty 31
guards 31
awful 31
pertaining 31
tyre 31
embrace 31
[COM(2000) 31
expires 31
day's 31
seminar 31
personality 31
blackmail 31
va 31
develops 31
noble 31
benchmarks 31
decision-makers 31
multi-annual 31
non-compliance 31
interpreters 31
backbone 31
align 31
farmer 31
tion-@@ 31
Immunities 31
e) 31
Wynn 31
hiding 31
holiday 31
distribute 31
inclined 31
unexpected 31
equilibrium 31
catching 31
enlargements 31
unlimited 31
Lambert 31
ard@@ 31
instrumental 31
usefulness 31
H 31
Germans 31
thresholds 31
scientifically 31
Ver@@ 31
21@@ 31
GFCM 31
Confidence 31
fat 31
feeding 31
dam@@ 31
Creativity 31
Syrian 31
frequencies 31
Seattle 31
ow@@ 30
Opening 30
57 30
62 30
ΕU 30
liberalise 30
pertinent 30
2050 30
loses 30
upcoming 30
El 30
sciences 30
tations 30
parity 30
precious 30
unscrupulous 30
counter@@ 30
Likewise 30
steady 30
sal@@ 30
Society 30
Advisory 30
atten@@ 30
eventual 30
dating 30
(COM(@@ 30
deepest 30
fund@@ 30
oversight 30
awarding 30
ishing 30
printed 30
operative 30
rebuilding 30
jo@@ 30
Bonde 30
preamble 30
younger 30
succession 30
exceeding 30
consum@@ 30
misgivings 30
tional 30
flagrant 30
happily 30
enthusiastically 30
policy: 30
ali@@ 30
ack 30
consultative 30
scrapping 30
dic@@ 30
intending 30
Change 30
Florenz 30
Mal@@ 30
command 30
arrests 30
confirming 30
visitors 30
aging 30
upset 30
announcing 30
format 30
restraint 30
Fifthly 30
Standing 30
relatives 30
pol@@ 30
à 30
chronic 30
scrutinise 30
): 30
things: 30
top@@ 30
fronts 30
internet 30
” 30
ore 30
companies' 30
Minutes) 30
proportions 30
strategically 30
nationally 30
(Rapporteur: 30
(A4-00@@ 30
qualify 30
postponing 30
deletion 30
Coordination 30
At@@ 30
hor@@ 30
clash 30
semi-@@ 30
hostage 30
shipments 30
reminder 30
henceforth 30
describing 30
ó@@ 30
beg 30
occurrence 30
colour 30
theoretical 30
AR@@ 30
sympathetic 30
Ten 30
versions 30
plunged 30
habits 30
joy 30
transported 30
registers 30
cargo 30
fixing 30
fora 30
vested 30
auditing 30
listing 30
signature 30
/9@@ 30
(F@@ 30
ref@@ 30
James 30
Niebler 30
boat 30
discrepancy 30
Ri@@ 30
Pörtschach 30
changeover 30
dismantle 30
crude 30
350 30
1967 30
me: 30
native 30
Klaus 30
consequent 30
pupils 30
customary 30
consume 30
EPP 30
unforeseen 30
ath 30
unthinkable 30
89 30
proceeds 30
SIS 30
reconciling 30
C5-00@@ 30
99 30
ou 30
Vi@@ 30
Frattini 30
crucially 30
accidental 30
Cornelissen 30
Annan 30
breeding 30
hectares 30
unduly 30
Needless 30
log@@ 30
1986 30
accuracy 30
militarisation 30
EU/@@ 30
Dini 30
column 30
Whitehead 30
haulage 30
secular 30
Izquierdo 30
growers 30
(H-07@@ 30
promotions 30
López 30
Qatar 30
Maaten 30
Jarzembowski 29
ster 29
implements 29
stories 29
ations; 29
US@@ 29
voluntarily 29
dra@@ 29
S&D 29
extensively 29
Moroccan 29
/00@@ 29
comprehensively 29
ans@@ 29
oc@@ 29
polls 29
Unemployment 29
second-class 29
hamper 29
distrust 29
invasion 29
invoked 29
consumed 29
contradict 29
liberalism 29
accomplish 29
Stat@@ 29
regul@@ 29
water@@ 29
finishing 29
wasting 29
sticking 29
Competitiveness 29
bone 29
therapy 29
standardised 29
new@@ 29
2000-2006 29
decreased 29
objectives: 29
seconds 29
respectful 29
contemporary 29
tortured 29
Iron 29
federalist 29
gratifying 29
Additionally 29
doubtful 29
volumes 29
illicit 29
celebrated 29
routine 29
case-law 29
small- 29
commodity 29
University 29
effec@@ 29
ambiguity 29
remuneration 29
cited 29
recipients 29
busy 29
Refugees 29
fy 29
ron@@ 29
ton@@ 29
realising 29
Cultural 29
travellers 29
tiny 29
waves 29
issues: 29
compound 29
comm@@ 29
ord@@ 29
enemy 29
Val@@ 29
champion 29
rooms 29
maternity 29
wheel 29
adjusting 29
respectively 29
curious 29
slave 29
church 29
ations: 29
Europol's 29
encounter 29
other's 29
stuck 29
heat 29
observance 29
advent 29
So@@ 29
artistic 29
desertification 29
commerce 29
admirable 29
climatic 29
memorandum 29
amazed 29
executions 29
technique 29
post@@ 29
ess 29
motorway 29
interdependence 29
proclaimed 29
tie 29
sorted 29
extremist 29
custody 29
Frahm 29
confidential 29
ES@@ 29
sha@@ 29
Head 29
indicator 29
persistence 29
Lange 29
(COS)] 29
donations 29
corridor 29
dy 29
Madagascar 29
detect 29
recalled 29
Weber 29
Court's 29
Administration 29
two-thirds 29
spectacular 29
vice 29
Theato 29
Verification 29
Fabre-Aubrespy 29
freed 29
kers 29
transmitted 29
re: 29
pain@@ 29
touches 29
contradicts 29
130 29
eradicating 29
ians 29
bul@@ 29
Thessaloniki 29
Moura 29
iled 29
-free 29
lifestyle 29
Nielson 29
wh@@ 29
/2000) 29
generalised 29
catalyst 29
interpreting 29
soya 29
Miranda 29
sufferers 29
ambiguities 29
ian 29
broadcasters 29
Hebron 29
CBRN 29
Altiero 29
Johnston 29
phased 28
eless 28
Trans-European 28
ran 28
61 28
unifying 28
visions 28
mode 28
Obama 28
commissioned 28
unambiguously 28
200@@ 28
ced 28
situated 28
monitors 28
occupying 28
Contrary 28
recipient 28
load 28
deb@@ 28
uniting 28
norm 28
opportune 28
least-developed 28
servic@@ 28
sweeping 28
Scandinavian 28
notify 28
evaluations 28
Moving 28
self@@ 28
organisational 28
composed 28
co-financing 28
Canary 28
valued 28
'Europe 28
designation 28
remembering 28
totalitarianism 28
Either 28
van@@ 28
phones 28
bri@@ 28
ordered 28
defeated 28
black@@ 28
nationalities 28
rest@@ 28
critically 28
bridges 28
sive 28
fluorinated 28
season 28
miracle 28
compromising 28
irrational 28
modify 28
sector@@ 28
revive 28
med 28
seed 28
associate 28
Har@@ 28
conver@@ 28
forecast 28
executed 28
designate 28
aspiration 28
Whereas 28
Particular 28
unrest 28
geography 28
premium 28
picked 28
heed 28
clothing 28
negligence 28
posing 28
prerequisites 28
glass 28
The@@ 28
han@@ 28
well@@ 28
warmest 28
applause 28
misunderstood 28
here: 28
Roth-Behrendt 28
Bontempi 28
fully-fledged 28
og@@ 28
eradication 28
convicted 28
inconceivable 28
Life 28
emotional 28
49@@ 28
Eurodac 28
differentiated 28
resign 28
settling 28
ris@@ 28
anticipation 28
literature 28
identities 28
much-needed 28
crossroads 28
Disease 28
superficial 28
par 28
importers 28
hole 28
travelled 28
corrections 28
Mu@@ 28
envisages 28
holidays 28
oul@@ 28
indefinitely 28
supreme 28
Group's 28
state@@ 28
obliges 28
hierarchy 28
Hu@@ 28
extremists 28
hugely 28
shareholders 28
rapporteur' 28
dr@@ 28
cleaner 28
Coal 28
Foundation 28
burning 28
Schmidt 28
additions 28
Venezuela 28
ef@@ 28
Institutions 28
obesity 28
stipulate 28
overnight 28
recovered 28
Mulder 28
tures 28
Mann 28
pigs 28
juncture 28
ang@@ 28
benchmark 28
Te@@ 28
125 28
lab@@ 28
heated 28
Stabilisation 28
absorption 28
redistribution 28
unjust 28
ined 28
widen 28
Bay 28
standstill 28
square 28
passage 28
Hungarians 28
poll 28
sm@@ 28
unsafe 28
/2004) 28
justifiable 28
extraction 28
Johannesburg 28
Taoiseach 28
strain 28
corrective 28
forgive 28
jeopardising 28
courtesy 28
fundamentalist 28
sensibly 28
imagination 28
pregnancy 28
sub-Saharan 28
handicaps 28
amb@@ 28
nuisance 28
taste 28
multimedia 28
ue 28
Diamantopoulou 28
salute 28
Vidal-Quadras 28
OLAF's 28
La 28
Director-General 28
renewables 28
combatting 28
Hänsch 28
/96 28
homosexuality 28
bi-regional 28
census 28
Maes 28
nicotine 28
ele@@ 27
tered 27
driver 27
67 27
magic 27
unbundling 27
illusions 27
whoever 27
deserved 27
encompass 27
comparing 27
tim@@ 27
shifting 27
hindered 27
scrapped 27
inspire 27
vicious 27
Edinburgh 27
maximise 27
-to-@@ 27
infringe 27
stand@@ 27
measurable 27
prescription 27
angle 27
tired 27
Never 27
complies 27
caring 27
deep-sea 27
EC-@@ 27
one’s 27
As@@ 27
overlap 27
Nazi 27
judging 27
Stalinism 27
murders 27
Curtain 27
Italians 27
ing-up 27
t’s 27
HCFCs 27
bs 27
reiterating 27
conscientious 27
bargaining 27
ser@@ 27
hunting 27
doctrine 27
madness 27
reasons: 27
Recital 27
acquisition 27
annexed 27
weigh 27
atrocities 27
legitimately 27
expelled 27
norms 27
levelled 27
reciprocal 27
adversely 27
suffice 27
que 27
agree@@ 27
polic@@ 27
multi-level 27
explosive 27
tan@@ 27
reluctance 27
17% 27
row 27
achieves 27
problem: 27
Precisely 27
sting 27
acknowledgement 27
to-@@ 27
Ger@@ 27
tenth 27
Kar@@ 27
injuries 27
blatant 27
rap@@ 27
R) 27
e-mail 27
databases 27
cleaning 27
correlation 27
advisers 27
roughly 27
-the 27
brand 27
mid@@ 27
punishable 27
sophisticated 27
Er@@ 27
Bel@@ 27
Parties 27
vertical 27
costing 27
140 27
audits 27
district 27
Be 27
deploy 27
Titley 27
stateless 27
correction 27
premises 27
Future 27
region@@ 27
IN@@ 27
Staff 27
Tajani 27
ward 27
motorcycles 27
locally 27
tering 27
tanker 27
depriving 27
mann 27
cooperated 27
diminish 27
globe 27
philosophical 27
Morgan 27
teacher 27
disclosure 27
Ru@@ 27
preceding 27
ce 27
infected 27
pet 27
disruption 27
Four 27
derivatives 27
Mitchell 27
flexibly 27
inflationary 27
importation 27
wisely 27
129 27
mismanagement 27
assertions 27
McNally 27
budgeting 27
modernised 27
tourists 27
benchmarking 27
President's 27
Su@@ 27
parent 27
crossings 27
shaped 27
magnificent 27
man-made 27
lorry 27
hear@@ 27
'we 27
counteract 27
tolerant 27
sentiments 27
centr@@ 27
constructing 27
Bosnia-Herzegovina 27
freeze 27
EM@@ 27
UKIP 27
desires 27
tightened 27
scoreboard 27
Chilean 27
inquiries 27
notwithstanding 27
morally 27
homelessness 27
ations' 27
pivotal 27
deem 27
organizing 27
appraisal 27
compliments 27
Guarantee 27
Thors 27
Current 27
excuses 27
sou@@ 27
CD@@ 27
Markets 27
accounted 27
pe 27
Secretariat 27
Indonesia 27
Hoff 27
safest 27
hormones 27
o-@@ 27
91 27
giant 27
let@@ 27
Proposal 27
Bilbao 27
Haug 27
telecoms 27
Milinkevich 27
plutonium 27
issuance 27
Tsatsos 27
ns 26
colours 26
69 26
Alps 26
accompany 26
vigour 26
sign@@ 26
ce; 26
side@@ 26
Hol@@ 26
avail 26
Eurogroup 26
+@@ 26
taboo 26
relocating 26
pattern 26
pro-active 26
enc@@ 26
migrant 26
dering 26
18% 26
precision 26
infringed 26
reimbursement 26
steer 26
ba@@ 26
clubs 26
Better 26
cost-benefit 26
proceeded 26
22@@ 26
lobbies 26
astonishing 26
overhaul 26
60@@ 26
enlarging 26
phasing-out 26
Negotiations 26
predecessors 26
-year 26
revival 26
stereotypes 26
multilingualism 26
Congratulations 26
institutes 26
bloody 26
designs 26
beauty 26
History 26
market; 26
misused 26
fied 26
divergent 26
abundantly 26
employing 26
stagnation 26
supervising 26
tw@@ 26
confuse 26
advancing 26
Particularly 26
stops 26
X 26
on-@@ 26
divergence 26
‘European 26
exile 26
1970s 26
downturn 26
households 26
non-existent 26
compelled 26
Verhofstadt 26
likes 26
dered 26
Latvian 26
77 26
missile 26
qui@@ 26
underground 26
summarise 26
challenged 26
steadily 26
fierce 26
(LV) 26
isolate 26
lunch 26
5-@@ 26
ile 26
person's 26
strengths 26
Parliament: 26
ber 26
holistic 26
cl@@ 26
ther@@ 26
horrendous 26
health@@ 26
successors 26
detection 26
de-@@ 26
pool 26
prosecuted 26
anism 26
unrestricted 26
distress 26
on's 26
92@@ 26
/99) 26
meanwhile 26
us' 26
deforestation 26
Drugs 26
rivers 26
e-commerce 26
ceasefire 26
Ra@@ 26
CO@@ 26
Committee's 26
pal@@ 26
commented 26
re' 26
partisan 26
corps 26
today: 26
Child 26
much-@@ 26
NGO 26
left-wing 26
first-@@ 26
shops 26
sti@@ 26
lots 26
annexes 26
Basically 26
decision@@ 26
unites 26
-scale 26
cleared 26
exhausted 26
defender 26
Bi@@ 26
homework 26
defends 26
streamlining 26
forums 26
Can@@ 26
single-@@ 26
eating 26
auditors 26
detected 26
allocations 26
cows 26
dominate 26
stra@@ 26
evolve 26
dro@@ 26
Credentials 26
Leonardo 26
Müller 26
portfolios 26
arrogance 26
levies 26
aring 26
fix 26
tics 26
tide 26
cereals 26
il 26
Malmström 26
visa-free 26
Strategic 26
justifying 26
Caspian 26
ass 26
econom@@ 26
misguided 26
centred 26
dictator 26
twentieth 26
exploration 26
redouble 26
roadmap 26
Cohn-Bendit 26
requisite 26
Journal 26
elec@@ 26
C7-0@@ 26
expired 26
Egyptian 26
closures 26
alizing 26
zation 26
Tri@@ 26
Kofi 26
1408/71 26
Equatorial 26
Sharon 26
proteins 26
Aznar 26
cadmium 26
synthesis 26
ousness 26
coupled 26
Observatory 26
Turks 26
Guantánamo 26
supernumerary 26
meat-and-bone 26
radiological 26
GPS 26
64 25
68 25
spiral 25
plane 25
regulates 25
pledges 25
fold 25
ger 25
2006@@ 25
markedly 25
prohibits 25
slowdown 25
hampered 25
countries’ 25
foresee 25
accustomed 25
Community’s 25
words: 25
Colleagues 25
True 25
collateral 25
ated; 25
respec@@ 25
Papastamkos 25
march 25
abstentions 25
ros@@ 25
improper 25
guise 25
broadening 25
questionnaire 25
transposing 25
irrelevant 25
violates 25
Front 25
IF@@ 25
landing 25
organis@@ 25
destiny 25
ism@@ 25
Sal@@ 25
sol@@ 25
gging 25
plac@@ 25
Hopefully 25
ple@@ 25
Fi@@ 25
ly-@@ 25
ences 25
asserted 25
Holland 25
cancelled 25
Legislation 25
2) 25
master 25
J 25
TACs 25
dispel 25
horror 25
use@@ 25
ine@@ 25
passports 25
por@@ 25
workings 25
utter 25
revealing 25
govern@@ 25
radiation 25
tisation 25
35% 25
Pa@@ 25
contraception 25
Regrettably 25
shoulders 25
ICT 25
restricts 25
motivation 25
(and 25
Review 25
Mi@@ 25
conceivable 25
educating 25
marriage 25
unavoidable 25
Various 25
Rec@@ 25
addicts 25
fil@@ 25
pin@@ 25
hesitant 25
Fo@@ 25
als' 25
ders 25
Interior 25
gangs 25
Water 25
owner 25
emp@@ 25
Somali 25
democrat 25
emergencies 25
900 25
+ 25
districts 25
lec@@ 25
recast 25
clarifications 25
ple 25
Shi@@ 25
bounds 25
denounced 25
Procedure) 25
horizon 25
pping 25
boo@@ 25
Christianity 25
Mc@@ 25
Ros@@ 25
expose 25
rendered 25
retraining 25
bolster 25
appliances 25
planes 25
landscape 25
craft 25
distances 25
noisy 25
42@@ 25
Linkohr 25
mining 25
vocation 25
selecting 25
clock 25
hot 25
steering 25
embarking 25
policy; 25
timescale 25
Abkhazia 25
inalienable 25
encompasses 25
rights; 25
1988 25
qual@@ 25
liberals 25
exerted 25
ure 25
HIV 25
Decisions 25
Klinz 25
wholesale 25
ming 25
reform@@ 25
admissible 25
onerous 25
ane 25
overseas 25
93 25
Alavanos 25
minim@@ 25
smo@@ 25
boom 25
underlining 25
livelihood 25
opting 25
Cardiff 25
ah 25
Laos 25
Czechs 25
pos@@ 25
dictated 25
ze@@ 25
vic@@ 25
matched 25
provider 25
Sellafield 25
Meissner 25
coastguard 25
reproduction 25
ans' 25
degradation 25
clandestine 25
healthier 25
(200@@ 25
(manufacture 25
practise 25
AL@@ 25
7a 25
Someone 25
prioritising 25
presupposes 25
pp@@ 25
River 25
preventative 25
toy 25
ok 25
'to 25
88@@ 25
sis 25
zu 25
fuelled 25
Cas@@ 25
Ghilardotti 25
Berg 25
Díez 25
tax-free 25
evasion 25
Minsk 25
Turkey' 25
censuses 25
Coveney 25
is' 24
hu@@ 24
rolling 24
weakens 24
Cre@@ 24
soul 24
appealing 24
ion@@ 24
Peninsula 24
medi@@ 24
vacuum 24
pres@@ 24
confronting 24
month@@ 24
rice 24
ger@@ 24
boycott 24
irregular 24
bloc 24
scenarios 24
relocate 24
Ministerial 24
optional 24
commence 24
container 24
2005@@ 24
admits 24
bly 24
policy-making 24
ECJ 24
intact 24
perceive 24
lax 24
perverse 24
defects 24
dismissed 24
bit@@ 24
er-@@ 24
disappoint 24
th-@@ 24
rewarded 24
affirmation 24
unwanted 24
rises 24
ear@@ 24
mistrust 24
dictators 24
kindly 24
prejudices 24
tomorrow’s 24
thin@@ 24
deteriorating 24
jungle 24
triangle 24
Commission: 24
ano 24
SLIM 24
inertia 24
permitting 24
Char@@ 24
net@@ 24
monthly 24
passionate 24
remedied 24
synthetic 24
ishes 24
of@@ 24
beaten 24
breaks 24
south-eastern 24
person@@ 24
fourteen 24
institutionalised 24
predictable 24
sho@@ 24
EFD 24
149(8)) 24
repetition 24
Buzek 24
Eurobonds 24
Agencies 24
pat@@ 24
indiscriminate 24
sceptics 24
mercy 24
gs 24
circum@@ 24
carcinogenic 24
Atomic 24
quote: 24
believing 24
endure 24
golden 24
ally-@@ 24
paradoxical 24
loo@@ 24
daughter 24
Ap@@ 24
Am@@ 24
centrally 24
thereof 24
argues 24
stored 24
images 24
dismiss 24
Is@@ 24
ca@@ 24
manpower 24
er: 24
Albanians 24
vis@@ 24
taxed 24
heating 24
biomass 24
utilised 24
plainly 24
unpleasant 24
and-@@ 24
authorisations 24
mineral 24
1987 24
mit@@ 24
clashes 24
195@@ 24
livelihoods 24
peace@@ 24
minute's 24
Non-Proliferation 24
Quaestors 24
cha@@ 24
Giscard 24
discusses 24
Fortress 24
documented 24
intervals 24
Budapest 24
escalation 24
risk@@ 24
high-risk 24
burdened 24
ot 24
egg 24
federation 24
sinking 24
ble@@ 24
VI 24
trans-@@ 24
obscure 24
appointing 24
exerting 24
flaws 24
tolerated 24
tation 24
professionalism 24
23@@ 24
und@@ 24
merger 24
case-by-case 24
comfort 24
EI@@ 24
Securities 24
ely 24
incorporates 24
Nicholson 24
pric@@ 24
intensity 24
losers 24
spends 24
Socrates 24
Gahrton 24
Col@@ 24
altar 24
88 24
Children 24
(H-10@@ 24
compensatory 24
ack@@ 24
remedies 24
commodities 24
Inquiry 24
famine 24
tions; 24
tar@@ 24
custom 24
slogans 24
Ho@@ 24
provoke 24
Composition 24
European-@@ 24
Nagorno-Karabakh 24
conf@@ 24
assault 24
ich 24
uous 24
ance@@ 24
Parliaments 24
intimidation 24
spirits 24
interview 24
Qu@@ 24
unauthorised 24
Fatuzzo 24
ious 24
enemies 24
bal@@ 24
Pri@@ 24
disregarding 24
dated 24
beat 24
Queen 24
Don@@ 24
Poles 24
Stevenson 24
chamber 24
skin 24
alas 24
women’s 24
harmonized 24
compounds 24
virtues 24
restructure 24
Sjöstedt 24
Graefe 24
Community' 24
confess 24
customer 24
concise 24
Donnelly 24
Conduct 24
Bowe 24
proposal) 24
homophobic 24
beverages 24
auction 24
Territorial 24
deposits 24
EU-India 24
EMAS 24
Xynthia 24
Argentine 24
/99): 24
Podimata 23
ade@@ 23
breathe 23
cing 23
attracting 23
ces 23
Peter 23
again: 23
reconciled 23
’@@ 23
phrases 23
Rel@@ 23
subsidised 23
index 23
House’s 23
scrap 23
citizen@@ 23
ceased 23
testify 23
rejoice 23
anti-European 23
… 23
stems 23
institutions' 23
tle 23
endeavoured 23
short-sighted 23
tantamount 23
/2@@ 23
/200@@ 23
Non-@@ 23
enacted 23
McCarthy 23
Winkler 23
combines 23
twofold 23
proportional 23
Ocean 23
TA@@ 23
Technical 23
cessation 23
Govern@@ 23
ania 23
fa@@ 23
dictatorial 23
rapporteur’s 23
contest 23
fascism 23
commemoration 23
decreasing 23
Catalan 23
nominated 23
prescribed 23
administered 23
provocation 23
cla@@ 23
one-minute 23
blank 23
iness 23
objec@@ 23
outs 23
letting 23
conversations 23
my@@ 23
originate 23
protesting 23
throwing 23
asi@@ 23
vein 23
picking 23
omm@@ 23
alleviating 23
bones 23
brilliant 23
sion@@ 23
convenient 23
fourthly 23
Greece's 23
meagre 23
communicating 23
loved 23
overriding 23
clearance 23
drama 23
Facility 23
shores 23
objectivity 23
Duff 23
waited 23
signatory 23
Oslo 23
ra 23
k's 23
Times 23
time-@@ 23
carpet 23
readings 23
Request 23
Platform 23
break@@ 23
pregnant 23
populism 23
streamline 23
outgoing 23
bills 23
(For 23
superior 23
conservative 23
ex-@@ 23
wife 23
1) 23
heroin 23
supervised 23
progressed 23
uniformly 23
wholehearted 23
RE@@ 23
generates 23
Bonino 23
declined 23
fall@@ 23
this; 23
flee 23
three-@@ 23
contemplate 23
thr@@ 23
defensive 23
communic@@ 23
bil@@ 23
crews 23
eroded 23
rebel 23
fur@@ 23
Mugabe 23
Chief 23
an's 23
mandates 23
ils 23
possesses 23
Vigo 23
commercialisation 23
explored 23
Trafficking 23
ell@@ 23
disturbed 23
cumbersome 23
rally 23
differentiate 23
Kashmir 23
interrupted 23
McKenna 23
distressing 23
dé@@ 23
compensated 23
2000/0@@ 23
thirteen 23
sleep 23
Milan 23
relies 23
za 23
one' 23
cynicism 23
Sierra 23
inven@@ 23
show@@ 23
't 23
Pres@@ 23
Gál 23
invented 23
scant 23
offenders 23
apparatus 23
translations 23
exporters 23
aming 23
commemorate 23
trip 23
tak@@ 23
regulator 23
clients 23
subsidising 23
elaborate 23
cyclical 23
reorganisation 23
frustrated 23
acking 23
stag@@ 23
dragging 23
activate 23
artificially 23
earned 23
duty-free 23
43@@ 23
nee@@ 23
Cresson 23
aligned 23
fish@@ 23
recreational 23
MO@@ 23
05 23
lam@@ 23
received: 23
Keyser 23
Jordan 23
š@@ 23
í 23
simultaneous 23
Revolution 23
diminished 23
depopulation 23
downwards 23
Generally 23
Kok 23
reversal 23
lessly 23
triumph 23
connect 23
attained 23
Herzog 23
Gemelli 23
asylum-seekers 23
inherited 23
dogma 23
ory 23
80@@ 23
halting 23
Wise 23
ich@@ 23
fer@@ 23
free-trade 23
ments' 23
Serbs 23
ture 23
128 23
downward 23
resumption 23
Burg 23
abstract 23
morality 23
Hughes 23
externally 23
journeys 23
cancellation 23
oper@@ 23
intensifying 23
predominantly 23
arranged 23
nu@@ 23
printing 23
Kyrgyzstan 23
Feio 23
supplements 23
Baringdorf 23
Falun 23
Gong 23
additive 23
92 23
Simpson 23
IP@@ 23
ö@@ 23
nuts 23
world' 23
fantastic 23
Barrot 23
Arafat 23
Taiwan 23
flavourings 23
Morris 23
radicalisation 23
HACCP 23
Happart 23
lan@@ 22
deteriorated 22
Min@@ 22
withstand 22
Ci@@ 22
hur@@ 22
delegated 22
midnight 22
vers 22
vehemently 22
focal 22
cop@@ 22
eggs 22
gal@@ 22
Programmes 22
graduates 22
unquestionably 22
occupies 22
st-@@ 22
Major 22
Read 22
non@@ 22
indifference 22
kidnapped 22
interconnections 22
retro@@ 22
barbarity 22
tism 22
ever-@@ 22
peculiar 22
notorious 22
alling 22
Inter-@@ 22
feedback 22
parcel 22
Do@@ 22
unregulated 22
speeded 22
Instrument 22
Earlier 22
neo-@@ 22
homeland 22
memories 22
hardship 22
Stalin 22
mainstream 22
groupings 22
1985 22
streamlined 22
redefine 22
celebrations 22
Montreal 22
ties; 22
determines 22
spell 22
e’ 22
96@@ 22
Schröder 22
lucky 22
mood 22
Anti-@@ 22
tive; 22
state-@@ 22
Ne@@ 22
app@@ 22
ventures 22
Transparency 22
wondered 22
Respect 22
Ambassador 22
grand@@ 22
Mayor 22
undue 22
market' 22
intelligently 22
clever 22
Germany's 22
Alongside 22
'in 22
days' 22
bureaucrats 22
lic@@ 22
incalculable 22
spectre 22
differential 22
prevalent 22
releases 22
reacting 22
employability 22
ya 22
recalling 22
splitting 22
interparliamentary 22
inno@@ 22
cour@@ 22
misled 22
marriages 22
Liberia 22
arch@@ 22
inflicted 22
fulness 22
tiveness 22
reprehensible 22
/99 22
conflic@@ 22
George 22
starvation 22
fitting 22
(SYN)) 22
one-off 22
IDA 22
landed 22
els 22
hybrid 22
installation 22
don@@ 22
Bro@@ 22
dent 22
Gibraltar 22
le-@@ 22
exhibition 22
student 22
logistics 22
culmination 22
motive 22
neuro@@ 22
tal@@ 22
ili@@ 22
clarifies 22
environments 22
bird 22
dri@@ 22
ye@@ 22
months' 22
favouring 22
logistical 22
Liber@@ 22
revenge 22
provocative 22
Länder 22
ton 22
indivisible 22
133 22
upgrade 22
civic 22
instituted 22
equation 22
locations 22
Was 22
precautions 22
Did 22
maps 22
rumours 22
exaggeration 22
Schuman 22
surpluses 22
dinner 22
efficacy 22
iti@@ 22
sat 22
Wil@@ 22
Coming 22
Election 22
gun 22
beneficiary 22
percentages 22
spotlight 22
Department 22
Chernobyl 22
assi@@ 22
Ash@@ 22
lling 22
Dan@@ 22
(C4-0@@ 22
SO@@ 22
suppose 22
experimental 22
dem@@ 22
powerless 22
Oreja 22
Dover 22
ace 22
absorb 22
term@@ 22
diminishing 22
diverted 22
habitats 22
ency 22
cord 22
Rwanda 22
solu@@ 22
region's 22
Albertini 22
Documents 22
mat@@ 22
boy 22
Intercultural 22
Fe@@ 22
rectified 22
G8 22
1000 22
(B5-0@@ 22
ek 22
lip 22
53@@ 22
lar@@ 22
China's 22
rapprochement 22
spatial 22
sand 22
Piecyk 22
Still 22
admire 22
2001/0@@ 22
typically 22
anxieties 22
complications 22
/1999 22
/1@@ 22
Schmitt 22
Basic 22
Carlos 22
Gi@@ 22
Galician 22
depths 22
ene 22
variable 22
pre-emptive 22
searching 22
simplistic 22
Philip 22
trades 22
disintegration 22
Conservation 22
low-carbon 22
yards 22
Committees 22
environmentally-friendly 22
non-European 22
Andean 22
ites 22
WEU 22
King 22
Couto 22
critics 22
hardest 22
Wurtz 22
doubling 22
producers' 22
rer 22
spo@@ 22
begging 22
152 22
films 22
President-designate 22
Paulsen 22
Kiev 22
Trentin 22
2001/02@@ 22
waive 22
incinerators 22
qua 21
rit@@ 21
euro-@@ 21
comfortable 21
mountainous 21
announcements 21
roc@@ 21
sights 21
bow 21
'; 21
ation's 21
thereafter 21
docu@@ 21
panacea 21
Kovács 21
Ol@@ 21
12% 21
paths 21
prevails 21
framed 21
cra@@ 21
Goebbels 21
reports: 21
realistically 21
stream 21
alistic 21
Mer@@ 21
consuming 21
dismissal 21
understandably 21
high@@ 21
ç@@ 21
tanks 21
deportations 21
iss@@ 21
Autonomous 21
ideologies 21
Developing 21
horrors 21
conditioning 21
plug 21
Anything 21
Farage 21
Independence 21
spared 21
walk 21
recitals 21
reiterates 21
them; 21
ast@@ 21
nit@@ 21
reward 21
anis@@ 21
halted 21
Force 21
ills 21
deriving 21
leisure 21
day@@ 21
turnout 21
guideline 21
condi@@ 21
Javier 21
turmoil 21
bel@@ 21
alarmed 21
joins 21
ator@@ 21
monopol@@ 21
lightly 21
avoidance 21
exacerbating 21
rationalisation 21
DU 21
Weapons 21
ko@@ 21
question@@ 21
Ste@@ 21
invites 21
tible 21
metal 21
squ@@ 21
attracted 21
breath 21
excludes 21
1975 21
T) 21
devising 21
user-friendly 21
Training 21
hon@@ 21
converted 21
rebels 21
recalls 21
public's 21
havoc 21
Migration 21
(COM(98)0@@ 21
Illegal 21
Local 21
Temporary 21
tax@@ 21
(CNS)); 21
setting-up 21
stretch 21
contra@@ 21
codified 21
preparedness 21
ation) 21
immune 21
Fishing 21
Drug 21
gulf 21
calculating 21
(which 21
Pakistan's 21
2014 21
conserve 21
homeless 21
diversify 21
dire 21
Mission 21
Uruguay 21
invoke 21
ü@@ 21
pped 21
Il@@ 21
outrage 21
regions' 21
State's 21
Specific 21
smugglers 21
Coelho 21
rubbish 21
(Article 21
ga 21
ca 21
tended 21
practic@@ 21
108 21
red@@ 21
sec@@ 21
mixing 21
rela@@ 21
lapses 21
tandem 21
commonly 21
tragically 21
di 21
vit@@ 21
mediation 21
alliances 21
Fiori 21
hel@@ 21
restate 21
anti-competitive 21
cartels 21
81 21
Canadian 21
struc@@ 21
commissioner 21
issue: 21
finalise 21
ture@@ 21
screen 21
Waste 21
directive's 21
totalling 21
sister 21
consul@@ 21
Groups 21
rein@@ 21
ligh@@ 21
shield 21
glob@@ 21
alises 21
approved) 21
Anti-Fraud 21
bol@@ 21
accuse 21
(continuation) 21
tle@@ 21
ths 21
1960s 21
device 21
witnesses 21
Pérez 21
ferry 21
tailored 21
recipe 21
seafarers 21
Petersburg 21
forbidden 21
sin 21
behaving 21
forging 21
JRC 21
winds 21
Pi@@ 21
tting 21
ail@@ 21
Ed@@ 21
anti-democratic 21
neighbourly 21
EA@@ 21
statutes 21
pays' 21
brake 21
Croatian 21
important: 21
individu@@ 21
Wim 21
Deprez 21
jeopardy 21
Presidential 21
ashing 21
lag 21
novel 21
conclu@@ 21
borrowing 21
adaptations 21
editorial 21
hostility 21
stat@@ 21
matches 21
non-member 21
well-founded 21
re-establish 21
Movement 21
mislead 21
mobil@@ 21
hunt 21
electrical 21
inadequacy 21
lowered 21
accepted) 21
Radical 21
Bjerregaard 21
tele@@ 21
Lithuanian 21
Bushill-Matthews 21
minded 21
AS@@ 21
abnormal 21
hostages 21
school@@ 21
by@@ 21
/2005) 21
ration@@ 21
alize 21
superstate 21
indignation 21
assumes 21
organize 21
elementary 21
-B4-0@@ 21
Roman 21
ethically 21
Schaffner 21
Bruton 21
Draft 21
Naples 21
Suu 21
Ceyhun 21
Gasòliba 21
Ju@@ 21
truce 21
Nabucco 21
Bioethics 21
Pelttari 21
Power 21
exclusivity 21
Airbus 21
twenty-@@ 20
passengers' 20
prudence 20
forty 20
ler 20
naive 20
tenacity 20
Bill 20
ride 20
85% 20
avi@@ 20
polluter 20
transforming 20
-of-@@ 20
rightful 20
three-year 20
periphery 20
oldest 20
anticipating 20
acceleration 20
Look 20
seasonal 20
propag@@ 20
flourish 20
reunited 20
z's 20
hindering 20
infringing 20
unfairly 20
4) 20
verified 20
non-legislative 20
chairmanship 20
nominal 20
measurement 20
cy 20
revert 20
basing 20
gl@@ 20
au 20
expedite 20
practicable 20
discourage 20
er’s 20
dig@@ 20
ko 20
Takkula 20
deleting 20
oppressed 20
deputy 20
intermediaries 20
anthem 20
Pope 20
Br@@ 20
long@@ 20
disseminate 20
fortune 20
ered 20
Trakatellis 20
sterling 20
tives 20
adherence 20
obey 20
able' 20
one; 20
way@@ 20
ironic 20
anc@@ 20
eth@@ 20
deportation 20
noticeable 20
way: 20
ols 20
Danes 20
sto@@ 20
detainees 20
121 20
ching 20
tolerable 20
(B@@ 20
hazard 20
liabilities 20
toward 20
fruition 20
terribly 20
ve; 20
ammunition 20
instructed 20
emi@@ 20
power@@ 20
declar@@ 20
Pen@@ 20
work' 20
life@@ 20
gender-based 20
accumulate 20
Sim@@ 20
posi@@ 20
informa@@ 20
telephones 20
Membership 20
ME@@ 20
logists 20
drug@@ 20
domination 20
beating 20
Apparently 20
shel@@ 20
girl 20
embassies 20
Resumption 20
d'Ancona's 20
Gradin 20
paedophile 20
handing 20
receptive 20
complic@@ 20
oils 20
NATO's 20
cle@@ 20
Ti@@ 20
rank 20
ows 20
graphy 20
ruin 20
infectious 20
cohe@@ 20
transmit 20
medium- 20
ask: 20
ff 20
weeks' 20
peace-keeping 20
ur 20
fighters 20
fled 20
Thailand 20
cli@@ 20
oring 20
fan 20
no-@@ 20
att@@ 20
ing's 20
affirmed 20
arrogant 20
mel@@ 20
consciously 20
distinguishing 20
Nord 20
loyal 20
diplomats 20
Border 20
plan@@ 20
manifestation 20
196@@ 20
cry 20
vicinity 20
residential 20
yr@@ 20
guilt 20
motorways 20
Especially 20
aud@@ 20
dirty 20
Turchi 20
relaxed 20
Ital@@ 20
vel 20
compensating 20
accusing 20
97@@ 20
grain 20
dumped 20
Mauritania 20
Directorate 20
bre@@ 20
Maghreb 20
orientations 20
ve' 20
Directorates-General 20
commissioners 20
resolutions: 20
recurring 20
coffers 20
boxes 20
rendering 20
polluted 20
154 20
ben@@ 20
colleges 20
post-2013 20
controllers 20
duc@@ 20
Lord 20
employers' 20
ei@@ 20
tireless 20
ities 20
solar 20
inconsistency 20
petty 20
Gal@@ 20
79 20
g's 20
ón 20
anchored 20
oppressive 20
bat@@ 20
Gil-Robles 20
fan@@ 20
manages 20
gg@@ 20
electors 20
phases 20
less-favoured 20
lever 20
destabilising 20
Abruzzo 20
educate 20
ly; 20
ums 20
Hezbollah 20
probable 20
Slovakia's 20
Gallagher 20
Ob@@ 20
May@@ 20
Graça 20
presidents 20
giants 20
level; 20
Rhine 20
inflexible 20
Romano 20
scratch 20
Essentially 20
Andalusia 20
-0@@ 20
unbridled 20
summed 20
ini 20
apology 20
criticized 20
son's 20
IS 20
recognizes 20
bribery 20
comparability 20
communism 20
sively 20
work; 20
drought 20
elapsed 20
mile 20
trace 20
attributable 20
AIDCP 20
trusted 20
unfavourable 20
vegetable 20
94 20
spouses 20
vertebral 20
dioxins 20
food-@@ 20
treatments 20
transplants 20
cheaply 20
inconvenience 20
Franco-German 20
Konrad 20
Valverde 20
modal 20
waged 20
Rojo 20
imaginative 20
Tobacco 20
Böhm 20
praised 20
wary 20
pessimism 20
Carnero 20
comparisons 20
Peterle 20
(O-00@@ 20
energy-efficient 20
Cramer 20
Uyghurs 20
Silk 20
Stream 20
Jonckheer 20
Likud 20
(H-00@@ 20
ESMA 20
CONNECT 20
Carlgren 20
signalling 19
presen@@ 19
accumulated 19
sine 19
exorbitant 19
repeat: 19
flawed 19
port@@ 19
72 19
ted: 19
institution@@ 19
anti-grassroots 19
deceive 19
implicitly 19
Statistics 19
negotiator 19
Presidency’s 19
)0@@ 19
/20@@ 19
masses 19
-friendly 19
flesh 19
develop@@ 19
2030 19
analytical 19
medium@@ 19
se; 19
hard-@@ 19
ceremony 19
subsidi@@ 19
energetic 19
dogmatic 19
accoun@@ 19
multifunctional 19
blatantly 19
definitively 19
pessimistic 19
overwhelmingly 19
inter-institutional 19
paperwork 19
ey@@ 19
rounds 19
elephant 19
opaque 19
primacy 19
abo@@ 19
Lan@@ 19
deferred 19
killings 19
alien@@ 19
termination 19
aspects: 19
Cri@@ 19
Holocaust 19
matic 19
ening 19
defenceless 19
unpunished 19
manifested 19
crow@@ 19
complained 19
bias 19
ow 19
E-@@ 19
ouse 19
rein 19
void 19
watered 19
cultivated 19
require@@ 19
ado 19
paradox 19
underpinned 19
massacre 19
anti-grass 19
NA@@ 19
t) 19
fore@@ 19
equals 19
Studies 19
collaborate 19
valu@@ 19
Council; 19
conten@@ 19
esteem 19
tual 19
deter 19
gold 19
Rack 19
tom@@ 19
sizeable 19
bridging 19
re-examine 19
Oral 19
Situation 19
sharply 19
guests 19
berg 19
(ET) 19
gues 19
Eur@@ 19
pling 19
pluralistic 19
willingly 19
interdependent 19
Vietnam 19
yields 19
rolled 19
applauded 19
guarantor 19
veritable 19
merge 19
loyalty 19
Vice-@@ 19
anti-personnel 19
laboratories 19
armaments 19
ny 19
kov@@ 19
Hel@@ 19
Nedelcheva 19
businessmen 19
raped 19
uprising 19
roof 19
discrimin@@ 19
st' 19
second-@@ 19
thanked 19
seal 19
boast 19
six-@@ 19
resid@@ 19
one@@ 19
dish@@ 19
country; 19
Svensson 19
iling 19
uni@@ 19
sacred 19
dry 19
-out 19
density 19
installed 19
sealed 19
aim@@ 19
perseverance 19
destabilisation 19
ce: 19
slowed 19
resistant 19
Closure 19
system@@ 19
ading 19
sch@@ 19
excesses 19
Lady 19
(M@@ 19
outbreaks 19
forecasting 19
appreciates 19
tian 19
hitting 19
Ab@@ 19
anim@@ 19
Frankfurt 19
Smith 19
rigidity 19
emotions 19
portion 19
provinces 19
Méndez 19
ham 19
compiled 19
emotion 19
Q@@ 19
criticises 19
outlining 19
Minister's 19
Had 19
Tim@@ 19
attentively 19
avert 19
inspect 19
sin@@ 19
however: 19
disorders 19
verifiable 19
IS@@ 19
budge@@ 19
od 19
ules 19
small@@ 19
people; 19
crystal 19
rain 19
AC@@ 19
Promoting 19
full-time 19
chairs 19
censorship 19
Vice-Presidents 19
Green@@ 19
relaxation 19
certified 19
book@@ 19
indulge 19
remainder 19
presume 19
treasury 19
time; 19
ministries 19
holder 19
aching 19
depos@@ 19
coping 19
shore 19
prof@@ 19
versa 19
omission 19
Aelvoet 19
industry's 19
investigative 19
scarce 19
hazards 19
ultra-peripheral 19
paralysis 19
ened 19
tions' 19
nightmare 19
criminalise 19
Ben@@ 19
discounts 19
GBP 19
looming 19
Euroland 19
intra-Community 19
maxim@@ 19
veal 19
ants' 19
extract 19
upheaval 19
converting 19
earthquakes 19
hypothetical 19
kets 19
Netanyahu 19
Dec@@ 19
ma 19
unwillingness 19
deaf 19
nutritional 19
PCA 19
classic 19
Presidency-in-Office 19
pipelines 19
cutbacks 19
distinctive 19
Georgia's 19
congress 19
chains 19
symptoms 19
tribunal 19
pic@@ 19
facilitates 19
argu@@ 19
Ahern 19
rewards 19
joke 19
Mira 19
Prodi's 19
Lis@@ 19
Cederschiöld 19
Álvarez 19
bankruptcy 19
(COS)) 19
laboratory 19
thy 19
(Loud 19
doub@@ 19
ial 19
ins@@ 19
Tunnel 19
union@@ 19
authorities' 19
Covenant 19
inasmuch 19
hanging 19
paving 19
zes 19
cou@@ 19
tain@@ 19
exodus 19
coo@@ 19
start-up 19
lia 19
zz@@ 19
ain@@ 19
suspending 19
keys 19
Jews 19
ER@@ 19
erroneous 19
IC@@ 19
117 19
diligence 19
harvest 19
arable 19
tun@@ 19
Motion 19
importer 19
poisoning 19
Spaniards 19
UNESCO 19
Old 19
here; 19
ize 19
manifesto 19
fats 19
spinal 19
shortcoming 19
Collins 19
separating 19
Xenophobia 19
ology 19
nitrogen 19
Perry 19
spiritual 19
'one 19
Standards 19
prohibitions 19
Zana 19
fle@@ 19
174 19
pass@@ 19
Aung 19
Kyi 19
Dupuis 19
Schroedter 19
Disabilities 19
Rapid 19
band 19
Conclusions 19
Mierlo 19
distorting 19
lifestyles 19
shavings 19
Musotto 19
TRIPS 19
Bor@@ 19
slaughterhouses 19
Gräßle 19
Uyghur 19
zoonotic 19
Miller 19
co-incineration 19
Romany 19
purchased 18
Railway 18
public@@ 18
formulae 18
shifted 18
fif@@ 18
teenth 18
Networks 18
contr@@ 18
71 18
able: 18
Spain's 18
wounded 18
enquiry 18
clim@@ 18
probability 18
0% 18
Si@@ 18
8/@@ 18
sector's 18
Representatives 18
fellow-@@ 18
Commissioner: 18
Gar@@ 18
thin 18
truths 18
SME@@ 18
concede 18
popularity 18
Jobs 18
sy@@ 18
cho@@ 18
relieved 18
employ@@ 18
prestige 18
astonished 18
myth 18
bet 18
noteworthy 18
phasing 18
retains 18
extracted 18
COREPER 18
able; 18
self-interest 18
character@@ 18
TB 18
blanket 18
EPLP 18
Gra@@ 18
spe@@ 18
depart 18
prefers 18
anomaly 18
co-legislator 18
reap 18
comp@@ 18
codification 18
220 18
yearly 18
reasoned 18
legislating 18
random 18
/2004 18
contrac@@ 18
denies 18
sea@@ 18
Greeks 18
104@@ 18
invitations 18
fostered 18
brothers 18
ruthless 18
shake 18
competitions 18
enquiries 18
Erasmus 18
tings 18
fascinating 18
six@@ 18
urs 18
multitude 18
Families 18
obsession 18
sensitivities 18
evade 18
‘the 18
Bank's 18
tion’ 18
sted 18
len@@ 18
intervened 18
Stubb 18
motivate 18
incur 18
job@@ 18
Pal@@ 18
disseminating 18
termin@@ 18
Cup 18
finalising 18
switched 18
Romanians 18
prosecute 18
Nowadays 18
complicity 18
mildly 18
bonus 18
constituting 18
inhabited 18
Regulatory 18
focussed 18
308 18
exploring 18
cost-effective 18
cluster 18
MI@@ 18
groundwork 18
Lomé 18
aroused 18
100th 18
earnings 18
devoting 18
inferior 18
crazy 18
draconian 18
retired 18
ational 18
Mor@@ 18
tier 18
warfare 18
segregation 18
eager 18
recording 18
suitability 18
eries 18
Men 18
President@@ 18
intermediary 18
speeds 18
rushed 18
all: 18
capture 18
5) 18
succeeding 18
Implementing 18
Elimination 18
lifetime 18
Congolese 18
watched 18
bon@@ 18
lim@@ 18
portra@@ 18
punitive 18
devi@@ 18
crux 18
variations 18
hom@@ 18
Kosovars 18
gypsies 18
Issues 18
pause 18
carte 18
pul@@ 18
52@@ 18
44@@ 18
bod@@ 18
unbalanced 18
sion: 18
comprise 18
130@@ 18
dead@@ 18
plead 18
tin 18
quantifiable 18
tac@@ 18
Channel 18
ik@@ 18
correspondence 18
Explanations 18
ce' 18
implication 18
170 18
devastation 18
mess 18
Everybody 18
Arms 18
four-year 18
brutality 18
Ah@@ 18
simple: 18
(INI)) 18
We@@ 18
d'Estaing 18
ire 18
implied 18
prisoner 18
subjective 18
regretted 18
correcting 18
ded: 18
loading 18
timid 18
screens 18
Convention's 18
commenting 18
Ul@@ 18
escaping 18
side-@@ 18
smen 18
bin 18
far-@@ 18
lapse 18
work-related 18
deadly 18
mentally 18
bankrupt 18
faults 18
sy 18
redundancy 18
Forest 18
cartel 18
Ossetia 18
slaves 18
Sh@@ 18
Duma 18
impede 18
Earth 18
ent' 18
ba 18
Harms 18
conclusive 18
cabinet 18
om 18
unqualified 18
Frankly 18
wonders 18
flag@@ 18
è@@ 18
shoot 18
ford 18
omitted 18
refund 18
Statements 18
savers 18
legislations 18
disrupt 18
(CAP) 18
non-commercial 18
but@@ 18
integra@@ 18
1984 18
mounting 18
itting 18
undertakes 18
itation 18
Colom 18
Jensen 18
doomed 18
provisionally 18
immensely 18
Angela 18
750 18
Andorra 18
entitlement 18
frontloading 18
economists 18
emigration 18
nomenclature 18
transporting 18
says: 18
curbing 18
Pen's 18
easing 18
alignment 18
spaces 18
led@@ 18
Using 18
survived 18
acks 18
penetration 18
lis@@ 18
Turkey’s 18
coup 18
revitalise 18
'polluter 18
persuasion 18
l-@@ 18
cooper@@ 18
ase 18
West@@ 18
brink 18
disinformation 18
mediator 18
mainland 18
Intergroup 18
ent; 18
resounding 18
unitary 18
invariably 18
slip 18
run@@ 18
enforceable 18
C5-05@@ 18
area; 18
ensuing 18
Aarhus 18
bind 18
(A5-03@@ 18
val@@ 18
cheque 18
seated 18
manifestly 18
98 18
María 18
theirs 18
fills 18
purse 18
Nogueira 18
"the 18
ands 18
y" 18
Rom@@ 18
deserving 18
newly-@@ 18
thir@@ 18
87 18
right: 18
Sta@@ 18
four@@ 18
mechanical 18
specially 18
indic@@ 18
infant 18
fluctuations 18
accumulation 18
safe@@ 18
high-tech 18
Pap@@ 18
Du@@ 18
-2006 18
pragmatism 18
instigation 18
lead@@ 18
verge 18
Over@@ 18
beneath 18
bottlenecks 18
Bur@@ 18
stering 18
dams 18
Supplementary 18
deterrence 18
marketed 18
birthday 18
kidnapping 18
9/@@ 18
Timorese 18
catastrophes 18
ful@@ 18
crew 18
right@@ 18
glaring 18
verbal 18
quantified 18
Lyons 18
Santer's 18
contend 18
batteries 18
sidelined 18
inseparable 18
pollutant 18
ong@@ 18
Marín 18
dioxin 18
Holte 18
Weiler 18
restaurants 18
suffrage 18
harmonize 18
Myanmar 18
beans 18
whisky 18
stolen 18
commonplace 18
packet 18
cheapest 18
factual 18
bioethics 18
Wortmann-Kool 18
pesticide 18
mild 18
Ethics 18
Borders 18
reflections 18
Qualifications 18
Gabon 18
India's 18
vaccine 18
g/km 18
143 18
Danielsson 18
ISO 18
Beysen 18
Druckmaschinen 18
Ugandan 18
Kalfin 18
Musharraf 18
Deauville 18
Roche 18
45% 17
handicap 17
uniformity 17
Actually 17
conveying 17
enact 17
gel 17
flourishing 17
Iberian 17
,@@ 17
differen@@ 17
succeeds 17
pled 17
Air@@ 17
obstructing 17
opposes 17
ETS 17
Bre@@ 17
Davies 17
securit@@ 17
invest@@ 17
consisted 17
longer-term 17
protested 17
Already 17
sluggish 17
speak@@ 17
Americ@@ 17
distorts 17
prosper 17
Farmers 17
Oil 17
ft 17
1957 17
exceeds 17
fear@@ 17
strand 17
circulated 17
cer@@ 17
Young 17
wordings 17
Posting 17
unwise 17
broad@@ 17
hammer 17
flagship 17
synonymous 17
ation’ 17
surrender 17
administer 17
ays 17
ong 17
consciences 17
gestures 17
loophole 17
Often 17
Kroes 17
renewing 17
umbrella 17
DE@@ 17
North-@@ 17
540 17
together: 17
teen@@ 17
/2005 17
Est@@ 17
ties: 17
fascist 17
1951 17
indiscriminately 17
dispense 17
calmly 17
amazing 17
staunch 17
enhances 17
insul@@ 17
fullest 17
trialogues 17
drag 17
reassuring 17
Pol@@ 17
questions: 17
unsuccessful 17
grows 17
foot@@ 17
defect 17
situation: 17
South-East 17
advantageous 17
Left/Nordic 17
complemented 17
Might 17
acceded 17
post-war 17
sem@@ 17
tis@@ 17
particular: 17
dissatisfied 17
years’ 17
ica 17
Shar@@ 17
versus 17
cumulative 17
Fri@@ 17
install 17
handful 17
Gollnisch 17
infancy 17
oned 17
industr@@ 17
tip 17
simplicity 17
oured 17
Troika 17
obstruct 17
fraction 17
abl@@ 17
90@@ 17
research@@ 17
101 17
spokesman 17
Journalists 17
Moldova's 17
degrading 17
Moody's 17
downgraded 17
embarrassing 17
bond 17
': 17
y-based 17
France's 17
disputed 17
merging 17
week@@ 17
cost-@@ 17
compelling 17
suspicions 17
by-@@ 17
insecure 17
pover@@ 17
Eurobarometer 17
house@@ 17
directing 17
Pl@@ 17
tal 17
ä@@ 17
therein 17
rearing 17
Ph@@ 17
talent 17
managerial 17
counter-@@ 17
ju@@ 17
summarised 17
paren@@ 17
battles 17
Sen@@ 17
Digital 17
commensurate 17
74 17
Company 17
95% 17
ha 17
2000@@ 17
explo@@ 17
punishing 17
Jan 17
Catherine 17
penny 17
array 17
occasional 17
Applause 17
drug-free 17
long-awaited 17
too@@ 17
ken 17
ination 17
fron@@ 17
shelter 17
Clear 17
aeroplane 17
arrives 17
man's 17
leeway 17
emit 17
Franz 17
minis@@ 17
divides 17
cal@@ 17
rea@@ 17
ush@@ 17
33% 17
pir@@ 17
convened 17
Around 17
stemming 17
springs 17
alists 17
UK's 17
founder 17
Army 17
Chad 17
inspected 17
1956 17
Humanitarian 17
suits 17
sian 17
world-wide 17
confer 17
print 17
ades 17
empowered 17
interactive 17
right) 17
expedi@@ 17
discredit 17
Plan@@ 17
itous 17
debatable 17
exchanged 17
bra@@ 17
ners 17
xes 17
198@@ 17
Noise 17
though@@ 17
monoxide 17
dishonest 17
A5-0@@ 17
Fund@@ 17
Back 17
toll 17
discontinued 17
negligent 17
year' 17
centralisation 17
o' 17
bogged 17
time@@ 17
sized 17
overfishing 17
ero@@ 17
Leone 17
dismantled 17
thread 17
Brussel@@ 17
examples: 17
prosecutors 17
flouted 17
sum@@ 17
empire 17
tiv@@ 17
guides 17
Reference 17
tendering 17
Effective 17
underpinning 17
win@@ 17
Tony 17
States: 17
infamous 17
ony 17
kills 17
formalities 17
Charles 17
headlines 17
mitigation 17
programme's 17
tending 17
Papoutsis 17
EDF 17
holy 17
incompetence 17
nominations 17
non-compulsory 17
workload 17
Brinkhorst 17
ties' 17
age@@ 17
rati@@ 17
objective: 17
Cal@@ 17
ashed 17
ago@@ 17
37(2) 17
lucrative 17
ferries 17
Prince 17
distributors 17
Four@@ 17
ep 17
electronics 17
Science 17
dictates 17
persisting 17
shutting 17
Mic@@ 17
Objectives 17
deception 17
Italy's 17
Nor@@ 17
Ta@@ 17
ton's 17
lea@@ 17
Belder 17
Romani 17
contravene 17
terminology 17
Russia’s 17
crash 17
co-existence 17
parti@@ 17
influencing 17
consensual 17
admitting 17
comprehend 17
Mag@@ 17
connecting 17
interconnected 17
extinction 17
longest 17
stein 17
connec@@ 17
LO@@ 17
ocean 17
cancel 17
EAGGF 17
scor@@ 17
perfec@@ 17
read: 17
thly 17
floating 17
fundamentalists 17
Smet 17
Establishing 17
Resources 17
accords 17
shaken 17
') 17
omissions 17
Rapkay 17
fake 17
Seoul 17
disciplines 17
ick 17
relieve 17
asing 17
Assistance 17
depletion 17
n-@@ 17
Open 17
optimise 17
releasing 17
fatalities 17
warrants 17
grade 17
massacres 17
pledged 17
dragged 17
priorities: 17
ung 17
Mario 17
Bildt 17
Senate 17
temp@@ 17
tonne 17
waste@@ 17
CIA 17
lasted 17
Jouyet 17
super-@@ 17
oak 17
sink 17
sunk 17
Laschet 17
across-the-board 17
republic 17
harbour 17
tionally 17
Leinen 17
evolved 17
detail@@ 17
lifts 17
Dayton 17
teen 17
cover@@ 17
shortfall 17
cake 17
Istanbul 17
illiteracy 17
fat@@ 17
educ@@ 17
favourite 17
Steering 17
complacency 17
landfill 17
hysteria 17
Sanders-ten 17
enzymes 17
secretarial 17
Oostlander 17
writer 17
ind@@ 17
á 17
Votes 17
tables 17
Transcaucasian 17
sca@@ 17
short-@@ 17
McCartin 17
C-@@ 17
guardians 17
Korakas 17
C5-04@@ 17
chairing 17
hinders 17
Similar 17
future; 17
137(1) 17
Ramos 17
skies 17
cardiovascular 17
Laval 17
bombers 17
paedophilia 17
medication 17
Wine 17
oni 17
Fava 17
gentlemen's 17
Garrido 17
pains 17
Paasilinna 17
Rad@@ 17
86 17
denominations 17
unspent 17
Piétrasanta 17
Quecedo 17
Ignalina 17
McMahon 17
Langenhagen 17
clinical 17
Neves 17
Fernandes 17
B5-06@@ 17
Gillig 17
pollination 17
seller 17
fare 16
opening-up 16
with@@ 16
Position 16
travel@@ 16
optimal 16
altering 16
ideally 16
eagerly 16
casting 16
mp@@ 16
Mat@@ 16
inconsistencies 16
(A6-00@@ 16
process@@ 16
cowardly 16
workplaces 16
Gas 16
Mobility 16
countering 16
change@@ 16
bare 16
resorting 16
shifts 16
doorstep 16
miserable 16
ripe 16
occupations 16
south-east 16
access@@ 16
greed 16
Make 16
protec@@ 16
thro@@ 16
discourse 16
CC@@ 16
contention 16
yielded 16
oneself 16
respectable 16
compani@@ 16
weighty 16
repeal 16
Later 16
famili@@ 16
arity 16
predictability 16
drafts 16
renounce 16
ate: 16
off-@@ 16
plurality 16
sharks 16
timescales 16
above-mentioned 16
Ban@@ 16
double-@@ 16
sun@@ 16
revolves 16
fun 16
divorce 16
holocaust 16
pocket 16
Comm@@ 16
deported 16
nic@@ 16
consciousness 16
tex@@ 16
Hitler 16
satisfying 16
twin 16
inging 16
Mel@@ 16
viewpoints 16
publications 16
le's 16
wiser 16
penalising 16
Manuel 16
gy@@ 16
aris@@ 16
reallocation 16
first-class 16
inv@@ 16
255 16
oun@@ 16
tors' 16
websites 16
preserves 16
amend@@ 16
overlapping 16
reopening 16
eminent 16
Task 16
IRA 16
irreparable 16
Gill 16
mem@@ 16
dance 16
rights: 16
Pr@@ 16
pun@@ 16
Thomas 16
Romania's 16
amnesty 16
disappearing 16
b) 16
tion's 16
government@@ 16
repayment 16
bail@@ 16
two-speed 16
commemorating 16
Military 16
Six 16
sponsored 16
ander 16
good@@ 16
dog@@ 16
one-third 16
awareness-raising 16
mented 16
milit@@ 16
principles: 16
CE@@ 16
marketplace 16
minimising 16
mockery 16
star 16
2010-@@ 16
Ass@@ 16
pensioner 16
society' 16
utilise 16
tured 16
haven 16
Hon@@ 16
Domestic 16
abusive 16
Em@@ 16
Rapporteur 16
Gucht 16
Fischer 16
ed' 16
abstention 16
jail 16
rent 16
-A4-0@@ 16
C4-00@@ 16
pathetic 16
fait 16
Zealand 16
troubles 16
abundance 16
verbatim 16
deduc@@ 16
burned 16
secu@@ 16
mail 16
transcend 16
pap@@ 16
disapproval 16
receipt 16
exporter 16
diverting 16
Cameron 16
epidemics 16
Twenty 16
rights' 16
schooling 16
ti 16
humble 16
erosion 16
flooded 16
durable 16
Valencia 16
trade@@ 16
concentrates 16
banner 16
contingent 16
injury 16
Ag@@ 16
rocket 16
Commissioner-designate 16
sadness 16
Castro 16
bargain 16
brutally 16
participatory 16
Catalonia 16
Flanders 16
alo@@ 16
innumerable 16
ion 16
pil@@ 16
excep@@ 16
thought-out 16
impro@@ 16
120@@ 16
chan@@ 16
Governance 16
Minister@@ 16
trees 16
beacon 16
sacrosanct 16
intrinsic 16
Ca@@ 16
grief 16
disast@@ 16
superiority 16
ght 16
Catholics 16
originated 16
multicultural 16
bles 16
ium 16
ment's 16
scores 16
dominance 16
flies 16
planting 16
spill 16
prescribe 16
revived 16
reintroduce 16
chicken 16
solemnly 16
contractors 16
ore@@ 16
realm 16
unimportant 16
immoral 16
Veld 16
uring 16
appe@@ 16
crimin@@ 16
Hautala 16
majorities 16
co 16
grossly 16
1976 16
land's 16
Pre@@ 16
Commission; 16
105 16
regularity 16
Integrated 16
mounted 16
Indians 16
credit-rating 16
insured 16
conceive 16
Larosière 16
Tur@@ 16
trigger 16
Beyond 16
add@@ 16
54@@ 16
les@@ 16
Tomlinson 16
irritation 16
benches 16
envy 16
commenced 16
abe@@ 16
momentous 16
turbulence 16
tion) 16
flowing 16
unchecked 16
rep@@ 16
57@@ 16
Miert 16
q 16
kil@@ 16
sit@@ 16
entrust 16
Silguy 16
usefully 16
harmed 16
approximate 16
-European 16
tigh@@ 16
/02@@ 16
networking 16
(A4-04@@ 16
liquid 16
relax 16
calculate 16
envoys 16
way; 16
sil@@ 16
je@@ 16
ez 16
see@@ 16
geographic 16
psycho@@ 16
Bulgaria's 16
Ukrainians 16
mag@@ 16
(N@@ 16
accommodating 16
stalemate 16
tised 16
recruit 16
origin@@ 16
Hundreds 16
SAP 16
Croatia's 16
circumstance 16
stretched 16
meted 16
sle@@ 16
MPs 16
surprisingly 16
pot 16
ups 16
Protecting 16
forgot 16
sailing 16
cents 16
endangering 16
sion' 16
constitu@@ 16
corpor@@ 16
flood@@ 16
ro 16
productions 16
curtain 16
vitality 16
ese 16
lady 16
(COM(2001) 16
agent 16
cat@@ 16
prioritised 16
nat@@ 16
enduring 16
Ludford 16
Islam@@ 16
control@@ 16
ick@@ 16
Harmonisation 16
rubber 16
1999) 16
narcotics 16
impe@@ 16
neglecting 16
reproach 16
free@@ 16
counterpart 16
Susta 16
restrained 16
resolution@@ 16
dge 16
D) 16
industri@@ 16
inadequacies 16
actor 16
appropriation 16
ret@@ 16
ty' 16
residual 16
filed 16
ments: 16
ol 16
ie 16
School 16
comple@@ 16
vol@@ 16
nineteenth 16
loose 16
Iraq's 16
Bu@@ 16
thrive 16
daring 16
superpower 16
Sor@@ 16
mini-@@ 16
mysterious 16
NATO@@ 16
atomic 16
notions 16
torn 16
ances 16
biology 16
discards 16
Louis 16
governs 16
ú@@ 16
LA@@ 16
Union-@@ 16
ACTA 16
Vilnius 16
PP@@ 16
burn 16
ecologically 16
beds 16
sizes 16
by-products 16
avenues 16
Guatemala 16
inventory 16
Women’s 16
pluralist 16
technolog@@ 16
Improving 16
Sweden's 16
triple 16
indictment 16
morning's 16
emphatic 16
Fer@@ 16
deceived 16
patients' 16
(for 16
Bourlanges 16
inserted 16
tolls 16
o'clock 16
pacts 16
agus 16
aded 16
rents 16
103(2) 16
ano@@ 16
resolution: 16
I) 16
justifiably 16
incitement 16
Jové 16
1/2001 16
Recovery 16
Verde 16
potatoes 16
Hor@@ 16
ast 16
Leyla 16
(Explanation 16
reign 16
shellfish 16
Sainjon 16
76 16
allergies 16
victim@@ 16
trademarks 16
Castil@@ 16
methane 16
offic@@ 16
(A5-014@@ 16
Marinos 16
enclave 16
Peres 16
resisted 16
Plant 16
second-hand 16
Design 16
Amending 16
168 16
NOx 16
Clegg 16
Sweden' 16
Crisis 16
auctioning 16
Reinfeldt 16
reprocessing 16
Georgians 16
Berenguer 16
micro-organisms 16
Vilvorde 16
Comunidad 16
Valenciana 16
Heidelberger 16
Pinochet 16
unleaded 16
Sam 16
B5-04@@ 16
FTT 16
Armenia's 16
cris@@ 15
ticket 15
Juan 15
jump 15
synchron@@ 15
gin@@ 15
Miguel 15
tickets 15
intensification 15
lights 15
redefined 15
supplementing 15
grandchildren 15
red: 15
peculiarities 15
firmer 15
earning 15
structuring 15
mar 15
economical 15
East@@ 15
Increased 15
soci@@ 15
entrenched 15
testimony 15
fuelling 15
circumvent 15
misplaced 15
tactic 15
brunt 15
mandated 15
equipping 15
halfway 15
nec@@ 15
bon 15
impartiality 15
proposition 15
nd 15
sounded 15
confers 15
discontent 15
ang 15
bet@@ 15
pulling 15
complicate 15
(B6-0@@ 15
concentrations 15
prudential 15
frustrating 15
tsunami 15
breached 15
Juncker 15
participates 15
‘Citizens 15
eli@@ 15
rough 15
conspicuous 15
contests 15
dents 15
1974 15
murderous 15
fair@@ 15
wiped 15
brother 15
issue; 15
selec@@ 15
needless 15
other@@ 15
proposal: 15
acquainted 15
richness 15
hydro@@ 15
175 15
ll@@ 15
depressing 15
vari@@ 15
problem@@ 15
problems: 15
R[amp]D 15
two-year 15
ance' 15
reinstate 15
eminently 15
m' 15
paradoxically 15
barred 15
setbacks 15
elaboration 15
16% 15
devil 15
again@@ 15
directorate 15
m; 15
AT@@ 15
104 15
present-day 15
slaughtered 15
quanti@@ 15
humour 15
liberation 15
Ven@@ 15
‘The 15
pioneering 15
revo@@ 15
in's 15
Transnistria 15
answerable 15
emigrate 15
devoid 15
diplom@@ 15
st: 15
proclaim 15
coun@@ 15
lawful 15
Medicines 15
W 15
dust 15
lung 15
utopian 15
Knowing 15
hol@@ 15
victims' 15
2010@@ 15
rated 15
p-@@ 15
harms 15
Discrimination 15
dedicate 15
crisis: 15
paved 15
64@@ 15
stan@@ 15
societal 15
se: 15
Sec@@ 15
3) 15
UN's 15
exemp@@ 15
vitro 15
Functioning 15
ria 15
mooted 15
farce 15
pornographic 15
ally: 15
Conven@@ 15
files 15
83 15
communiti@@ 15
Terrón 15
missiles 15
lodge 15
greener 15
commits 15
evils 15
dogmas 15
foresight 15
misfortune 15
Conventions 15
FYROM 15
Naval 15
tense 15
cool 15
hereby 15
powered 15
Vic@@ 15
tuberculosis 15
encompassing 15
unanswered 15
Caspary 15
Afric@@ 15
arduous 15
Gener@@ 15
amp@@ 15
ai 15
Verona 15
burst 15
biased 15
ffs 15
neck 15
thorny 15
onian 15
injustices 15
constraint 15
plen@@ 15
wishful 15
network@@ 15
policemen 15
ors' 15
tis 15
beginnings 15
impending 15
clear-cut 15
auth@@ 15
partner@@ 15
employs 15
publicised 15
ards 15
clear@@ 15
ys@@ 15
wretched 15
kilometre 15
Egyp@@ 15
Gen@@ 15
privately 15
ten-year 15
stones 15
tackles 15
Airport 15
professionally 15
peninsula 15
Cha@@ 15
satisfies 15
Cork 15
son@@ 15
unbelievable 15
win-win 15
1950 15
far-sighted 15
translating 15
aff@@ 15
logging 15
Senegal 15
thers 15
headline 15
Commission/High 15
informative 15
Subcommittee 15
treats 15
conversation 15
Languages 15
pious 15
own@@ 15
'made 15
ing) 15
Figueiredo 15
bullying 15
94/@@ 15
fraud@@ 15
episode 15
bor@@ 15
even@@ 15
Credit 15
rers 15
flames 15
SA 15
gigantic 15
unofficial 15
forged 15
tt@@ 15
unpopular 15
del@@ 15
retailers 15
formality 15
Cap@@ 15
stripping 15
Vinci 15
106 15
play@@ 15
health-care 15
rence 15
ED@@ 15
Budge@@ 15
Chairmen 15
gue 15
j 15
trips 15
attaching 15
featured 15
Len@@ 15
traded 15
block@@ 15
sion; 15
Achieving 15
affirm 15
1980 15
ama 15
C4-04@@ 15
resigned 15
aggreg@@ 15
reprogramming 15
Yemen 15
revolutions 15
Use 15
Abbas 15
hr@@ 15
upgraded 15
Iran@@ 15
suppressed 15
elect 15
nationalistic 15
Brie 15
tful 15
thed 15
crushed 15
subscri@@ 15
broker 15
mixture 15
ell 15
barrels 15
Organic 15
delegates 15
tial 15
KGB 15
sli@@ 15
embassy 15
intellectuals 15
bottom-up 15
Bangladesh 15
IM@@ 15
fished 15
macro-@@ 15
betrayed 15
slower 15
Cu@@ 15
stir 15
cinema 15
ounding 15
Ga@@ 15
principled 15
disparate 15
mer 15
exc@@ 15
audience 15
dared 15
les' 15
country' 15
migra@@ 15
text) 15
Whenever 15
ara 15
mindset 15
correctness 15
Philippe 15
streams 15
Zal@@ 15
furthering 15
end-@@ 15
mad@@ 15
/2003 15
delu@@ 15
Twenty-@@ 15
tless 15
endangered 15
Biodiversity 15
fast-@@ 15
TE@@ 15
(ESF) 15
doubly 15
Nation@@ 15
Bra@@ 15
Considering 15
strictest 15
Maltese 15
reads: 15
guess 15
highly-@@ 15
entr@@ 15
defensible 15
ization 15
diplomas 15
High@@ 15
far@@ 15
Consider 15
ley 15
Flemish 15
Hussein's 15
fanaticism 15
strategy: 15
bombing 15
employees' 15
evening's 15
Berend 15
orm@@ 15
Lisi 15
94@@ 15
Gross 15
sies 15
federalism 15
dozen 15
row@@ 15
plantations 15
UR@@ 15
pressed 15
CA@@ 15
Popular 15
ary: 15
prerogative 15
Kirkhope 15
cred@@ 15
matching 15
German@@ 15
2003@@ 15
allu@@ 15
contravention 15
tracking 15
attainable 15
Aegean 15
Community-wide 15
them: 15
esa 15
approach@@ 15
Bowis 15
ENP 15
Wolf 15
Helms-Burton 15
preoccupation 15
democratization 15
/7@@ 15
100@@ 15
fired 15
Atlanta 15
sup@@ 15
coincides 15
quoting 15
ruminant 15
taxing 15
writers 15
time: 15
ular 15
le' 15
Prosecutor' 15
MEPs' 15
generalized 15
lation 15
dissidents 15
complements 15
clean@@ 15
dar@@ 15
Mary 15
Orange 15
114 15
politic@@ 15
President-in-@@ 15
marsh@@ 15
cell@@ 15
rebate 15
EIB's 15
deepened 15
Martens 15
tioned 15
discovery 15
party-political 15
ity-@@ 15
ill-treatment 15
Cape 15
(on 15
originates 15
Wiersma 15
Bri@@ 15
hydrogen 15
Businesses 15
Lewandowski 15
Lebanese 15
eEurope 15
Animal 15
zoonoses 15
Farm 15
Solvit 15
GMO 15
IMPEL 15
87@@ 15
Rivera 15
methyl 15
Automotive 15
snuff 15
/00): 15
sub-national 15
Pasko 15
TEN-T 15
Ocalan 15
reason: 14
button 14
bar 14
Pyrenees 14
intimately 14
barri@@ 14
privatised 14
risking 14
presiding 14
73 14
preside 14
attractiveness 14
avoids 14
paves 14
Wa@@ 14
teeth 14
Emissions 14
stic@@ 14
ket 14
fastest 14
tou@@ 14
spur 14
(as 14
uncomfortable 14
cycles 14
stimulated 14
scrupulously 14
hindrance 14
an’s 14
seldom 14
illegality 14
inactive 14
widest 14
road@@ 14
slowing 14
Habsburg 14
materialise 14
struggles 14
underscore 14
hang 14
(including 14
situation; 14
manager 14
inaction 14
skir@@ 14
France@@ 14
authoritative 14
Verheugen@@ 14
Subsidiarity 14
discretionary 14
unwarranted 14
policy@@ 14
constituencies 14
technocratic 14
children’s 14
certificate 14
firm@@ 14
protection@@ 14
occasion@@ 14
RA@@ 14
curtail 14
representa@@ 14
remembrance 14
lamentable 14
230 14
some@@ 14
endured 14
memorial 14
chi@@ 14
tance 14
Prets 14
lers 14
langu@@ 14
ouses 14
courageously 14
Capitals 14
-year-old 14
friend@@ 14
prone 14
z-@@ 14
rever@@ 14
ozone-depleting 14
gas@@ 14
din@@ 14
dose 14
there@@ 14
sheer 14
hope@@ 14
forbid 14
reason@@ 14
Discussions 14
parliamentarian 14
repeats 14
ashes 14
Irrespective 14
EC) 14
ents 14
decrees 14
naming 14
first-hand 14
navig@@ 14
gauge 14
initiati@@ 14
removes 14
Money 14
Commissioner’s 14
that; 14
122 14
Memorial 14
separatist 14
inject 14
cracy 14
umb@@ 14
harness 14
ams 14
nam@@ 14
shipment 14
alluded 14
Austrians 14
intentions: 14
mono@@ 14
dom@@ 14
suspicious 14
elites 14
USSR 14
ement 14
debate: 14
Venice 14
harming 14
job-creating 14
unilateralism 14
Barroso's 14
rol@@ 14
insolvency 14
governments' 14
fail@@ 14
reunite 14
inspec@@ 14
metre 14
enrichment 14
withdrew 14
heavier 14
seminars 14
(D@@ 14
temperatures 14
sweep 14
remarkably 14
measurements 14
boys 14
entitlements 14
discriminates 14
Spe@@ 14
women; 14
discouraged 14
554 14
deteriorate 14
Righ@@ 14
recruited 14
eradicated 14
grew 14
-level 14
well-educated 14
Ever 14
earners 14
key@@ 14
privatisations 14
PS 14
gers 14
aire 14
perpetu@@ 14
/2007 14
silver 14
Priority 14
humiliating 14
Chatzimarkakis 14
Integration 14
trivial 14
:@@ 14
amended) 14
viol@@ 14
freeing 14
influences 14
patri@@ 14
husband 14
20-@@ 14
lenient 14
Blanc 14
day: 14
blindly 14
blamed 14
naked 14
sexually 14
supplier 14
olig@@ 14
tapping 14
ter' 14
lawfully 14
137 14
accompli 14
wel@@ 14
modern-day 14
geostrategic 14
militar@@ 14
cleansing 14
Electronic 14
unjustifiable 14
Estevan 14
coaches 14
ig@@ 14
tear 14
legitimise 14
brains 14
exit 14
Ö@@ 14
relieving 14
problem; 14
Evaluation 14
quantify 14
simplifications 14
wastes 14
monuments 14
ia's 14
it-@@ 14
rings 14
pour 14
factions 14
exhaust 14
blockades 14
convene 14
Organis@@ 14
mediocre 14
Libicki 14
31@@ 14
27% 14
million@@ 14
rul@@ 14
aggravate 14
illing 14
force@@ 14
reinstated 14
rescued 14
prolong 14
discouraging 14
ther 14
al's 14
Hy@@ 14
distributing 14
strip 14
corporation 14
peoples' 14
unleashed 14
'S@@ 14
same-sex 14
Viol@@ 14
non-military 14
Genoa 14
else@@ 14
inefficiency 14
unmarried 14
mark@@ 14
tionist 14
ting@@ 14
Giving 14
ces; 14
less@@ 14
delude 14
anchor 14
attachment 14
thesis 14
weekly 14
lay@@ 14
sentencing 14
proclamation 14
levied 14
Orthodox 14
minute' 14
tirelessly 14
Laden 14
ition 14
comb@@ 14
after-@@ 14
relocated 14
Brittany 14
pilots 14
rhetorical 14
belonged 14
reluctantly 14
women' 14
marvellous 14
class@@ 14
eco@@ 14
68@@ 14
ge's 14
grass 14
Products 14
pounds 14
tropical 14
fortnight 14
sits 14
ICC 14
Examples 14
breadth 14
ski@@ 14
DP 14
Lisbon@@ 14
Ge@@ 14
irs 14
tricky 14
warranted 14
agency's 14
watering 14
intermediate 14
Lords 14
8) 14
objects 14
administra@@ 14
greet 14
Daniel 14
aci@@ 14
/2008 14
shadows 14
wound 14
stop@@ 14
copies 14
insert 14
specul@@ 14
secre@@ 14
Vir@@ 14
gin 14
rewarding 14
Cioloş 14
k' 14
latent 14
hum@@ 14
responsive 14
processors 14
Oper@@ 14
never-ending 14
/E@@ 14
Swoboda's 14
145 14
Wijsenbeek 14
procedure) 14
ér@@ 14
Eurosceptics 14
me-@@ 14
consultants 14
chambers 14
(5) 14
V) 14
Quisthoudt-Rowohl 14
reactor 14
ki 14
buffer 14
offici@@ 14
paraphrase 14
market-@@ 14
GATT 14
instructors 14
adolescents 14
Large 14
guil@@ 14
chips 14
by-catch 14
switching 14
d) 14
on-going 14
opportun@@ 14
sacrificing 14
amounted 14
Res@@ 14
any@@ 14
181 14
Lakes 14
Klima 14
limit@@ 14
rai@@ 14
McIntosh 14
glance 14
capit@@ 14
caus@@ 14
Wh@@ 14
an' 14
lah 14
spar@@ 14
lac@@ 14
technic@@ 14
ada 14
colon@@ 14
poison 14
usage 14
awaits 14
rampant 14
retreat 14
fingers 14
optim@@ 14
prison@@ 14
smoo@@ 14
(A5-02@@ 14
indefensible 14
post-conflict 14
horizons 14
dness 14
Sk@@ 14
vision@@ 14
yesterday’s 14
prolonged 14
unreserved 14
Gor@@ 14
Nov@@ 14
ground@@ 14
clusters 14
de: 14
margin@@ 14
defective 14
Creating 14
132 14
aired 14
veil 14
Full 14
eas@@ 14
Group@@ 14
VOTE 14
crossed 14
96 14
ision 14
ans: 14
93@@ 14
misconception 14
tious 14
purchases 14
edition 14
pig 14
Coun@@ 14
best-@@ 14
int 14
savage 14
SE@@ 14
Requirements 14
adequacy 14
crack 14
Additional 14
waiving 14
pipe 14
landslides 14
indisputable 14
rulers 14
systems' 14
tivity 14
admissibility 14
Breyer 14
Lancker's 14
aling 14
flanking 14
(COM(96)0@@ 14
socio-@@ 14
marginalization 14
staying 14
IA 14
candidacy 14
gentleman 14
selfishness 14
fool@@ 14
footprint 14
Nations' 14
speculate 14
bag 14
interregional 14
colonialism 14
reminders 14
mediate 14
2002@@ 14
Hatzidakis 14
compiling 14
nasty 14
14% 14
cro@@ 14
Republic@@ 14
symbolises 14
Lower 14
Ferber 14
agreeable 14
sail 14
dearly 14
diagno@@ 14
B6-0@@ 14
er) 14
champions 14
Colombian 14
Victims 14
happiness 14
RO@@ 14
closes 14
unbearable 14
Building 14
patenting 14
EU-Japan 14
cont@@ 14
declares 14
untrue 14
Tom@@ 14
fee 14
culminated 14
burnt 14
tying 14
mitigating 14
Avilés 14
Salvador 14
perceptible 14
paradigm 14
(A6-0@@ 14
standardise 14
adhering 14
report; 14
disorder 14
relaxing 14
160 14
aromatic 14
disap@@ 14
authorized 14
ego@@ 14
years: 14
absorbed 14
7-@@ 14
ite@@ 14
slowness 14
Graenitz 14
PC@@ 14
Gröner 14
Anyway 14
citizens: 14
'T@@ 14
energetically 14
yn@@ 14
demo@@ 14
sport@@ 14
carcasses 14
hill 14
orientated 14
abattoirs 14
nut 14
disseminated 14
bovine 14
Reading 14
1-@@ 14
Fox 14
displaying 14
genic 14
enlightened 14
susceptible 14
Kohl 14
benef@@ 14
channelling 14
kg 14
Pradier 14
Tánaiste 14
Serb 14
Quinn 14
NAFTA 14
Fernández-Albor 14
Broad 14
Leon 14
wool 14
contradic@@ 14
7) 14
bec@@ 14
Cappato 14
Ni@@ 14
outlets 14
Strengthening 14
infrastructural 14
deputising 14
single-hull 14
Ministers' 14
Ethiopia 14
Parliament@@ 14
edifice 14
telecommunication 14
ature 14
Accounting 14
Land 14
overwhelmed 14
Bon@@ 14
self-sufficiency 14
Champ@@ 14
(Committee 14
ov@@ 14
Turk@@ 14
McGuinness 14
negatively 14
Jud@@ 14
nar@@ 14
Decree 14
(A5-015@@ 14
Lalumière 14
Father 14
Chanterie 14
pit@@ 14
Ukraine’s 14
Strategy; 14
incinerated 14
1999@@ 14
bromide 14
Lear 14
Mura 14
/2003) 14
Rainsy 14
Twitter 14
specificities 13
Savary 13
comfortably 13
interoperable 13
insulting 13
Cer@@ 13
Ori@@ 13
faulty 13
grap@@ 13
Cancún 13
European@@ 13
380 13
call-back 13
harmon@@ 13
suitably 13
Flexibility 13
indulging 13
persistently 13
outsourcing 13
Workers’ 13
attribute 13
enriching 13
lawlessness 13
group’s 13
mount 13
ing’ 13
acious 13
treat@@ 13
may@@ 13
cosmetic 13
Heaton-Harris 13
Lap@@ 13
scar@@ 13
Hammerstein 13
ambassadors 13
spokesperson 13
drives 13
sorely 13
bin@@ 13
Politicians 13
overestim@@ 13
selfish 13
anti-social 13
55@@ 13
initiation 13
author@@ 13
me; 13
burdensome 13
sounding 13
idealism 13
Wallis 13
unworkable 13
cable 13
culprits 13
draftsmen 13
casual 13
public’s 13
wag@@ 13
corpus 13
risk-@@ 13
Pursuant 13
full-@@ 13
Varela 13
deepwater 13
F) 13
2007-@@ 13
titles 13
theoretically 13
ia; 13
twinning 13
acquiring 13
alien 13
enrich 13
overarching 13
Television 13
programme: 13
promoters 13
Ser@@ 13
'Citizens 13
voter 13
recurrence 13
invent 13
acquain@@ 13
Beazley 13
neg@@ 13
gor@@ 13
gree@@ 13
builds 13
F-@@ 13
containment 13
grounded 13
surprises 13
tant 13
defer 13
Kindermann 13
Policies 13
guidelin@@ 13
country-specific 13
fashionable 13
eness 13
effor@@ 13
spells 13
even-handed 13
drawbacks 13
pho@@ 13
discovering 13
e’s 13
arbitrarily 13
proposal@@ 13
colegislator 13
umpteenth 13
jargon 13
rationally 13
Direc@@ 13
robbery 13
Increasing 13
stricken 13
Sar@@ 13
commemor@@ 13
ier 13
non-discriminatory 13
implicit 13
non-binding 13
pupil 13
Corrections 13
signalled 13
broadcasts 13
Bucharest 13
flat 13
clout 13
delivers 13
indebtedness 13
downgrade 13
Welsh 13
lips 13
divergences 13
aegis 13
reac@@ 13
Union@@ 13
Baghdad 13
tum@@ 13
Bas@@ 13
toxicity 13
unborn 13
sincerity 13
arsenal 13
San@@ 13
storing 13
Plumb 13
brakes 13
childbirth 13
Investing 13
medieval 13
counties 13
hastily 13
Clar@@ 13
Reding's 13
sanctioned 13
midday 13
Serious 13
campaigned 13
Tr@@ 13
lo 13
self-government 13
ail 13
deni@@ 13
justic@@ 13
euthanasia 13
appealed 13
Living 13
predatory 13
updates 13
kit@@ 13
hurt 13
Population 13
Anna 13
slap 13
ord 13
barons 13
sco@@ 13
Wiebenga 13
ant; 13
reversing 13
(CNS)@@ 13
pooling 13
duplicate 13
overshadowed 13
reign@@ 13
groups: 13
absorbing 13
seemingly 13
subjecting 13
recycled 13
energy-intensive 13
/98-98/0@@ 13
91@@ 13
replaces 13
strides 13
legalisation 13
tory 13
powder 13
scre@@ 13
cons@@ 13
refine 13
re-examination 13
on' 13
wo@@ 13
vil@@ 13
Dem@@ 13
discharge: 13
(EC@@ 13
Failure 13
simplifies 13
GSP 13
lor@@ 13
charity 13
acies 13
unsuitable 13
now: 13
Sudanese 13
Jan@@ 13
tren@@ 13
About 13
VII 13
defuse 13
statesman 13
silence) 13
Governor 13
dence 13
share@@ 13
dividends 13
downstream 13
handicapped 13
commended 13
sun 13
MacCormick 13
anisation 13
Constitu@@ 13
fir@@ 13
2001/20@@ 13
hollow 13
decim@@ 13
shy 13
married 13
curriculum 13
needlessly 13
(COM(2002) 13
compe@@ 13
mourning 13
ile@@ 13
communal 13
Assessment 13
as: 13
shooting 13
exempting 13
nerve 13
revisions 13
yardstick 13
interlinked 13
buil@@ 13
psychologically 13
investig@@ 13
(A5-029@@ 13
bars 13
hour@@ 13
Consul@@ 13
solid@@ 13
Skinner 13
repairs 13
dev@@ 13
til@@ 13
unionists 13
amid 13
freedom@@ 13
aria 13
Wi@@ 13
circulate 13
unusually 13
& 13
unnoticed 13
exten@@ 13
Mac@@ 13
groups' 13
acity 13
quietly 13
sliding 13
relation@@ 13
4-@@ 13
olive 13
itor@@ 13
és 13
list@@ 13
system; 13
invisible 13
state-of-the-art 13
saying: 13
inclu@@ 13
set-up 13
Ren@@ 13
opinion@@ 13
disrup@@ 13
adhe@@ 13
reassurance 13
Bavaria 13
irreplaceable 13
(GA) 13
demon@@ 13
escu 13
need@@ 13
compounded 13
white@@ 13
raison 13
Dell'Alba 13
nepotism 13
precaution 13
year; 13
menting 13
Parliament; 13
2000' 13
Soon 13
tioning 13
stranded 13
Arroni 13
'at 13
overheating 13
stabilisers 13
Intrastat 13
FIFG 13
Numerous 13
director@@ 13
shortest 13
fortunes 13
Nature 13
negligible 13
paralysed 13
periodic 13
swept 13
kick-start 13
1950s 13
encountering 13
TO@@ 13
res; 13
embarrassment 13
pes@@ 13
remo@@ 13
short-lived 13
policy' 13
on) 13
underdeveloped 13
sidelines 13
stalled 13
Liby@@ 13
Royal 13
Tannock 13
Salafranca 13
bell 13
chi 13
high-ranking 13
Slovaks 13
Bratislava 13
Václav 13
ishment 13
1948 13
Russi@@ 13
Put@@ 13
attracts 13
sic 13
'What 13
indent 13
multiply 13
Pollution 13
IC 13
NPT 13
lessness 13
norm@@ 13
loser 13
assistant 13
bes 13
stretches 13
sympathise 13
ear 13
Armenians 13
Karabakh 13
Sy@@ 13
pursues 13
yoke 13
(H@@ 13
Sup@@ 13
0s 13
dissent 13
cus@@ 13
campaigners 13
ova 13
ank 13
alled 13
flora 13
ama@@ 13
obscene 13
Marine 13
Pas@@ 13
Though 13
socioeconomic 13
UMTS 13
beware 13
sand@@ 13
Imbeni 13
Cour@@ 13
loudly 13
them@@ 13
procedu@@ 13
1/2002 13
ption 13
Fraisse 13
inst@@ 13
escaped 13
apprentic@@ 13
Pac@@ 13
distribu@@ 13
sank 13
Zimbabwean 13
concealed 13
illogical 13
Marin@@ 13
conceptual 13
open@@ 13
asthma 13
2000/02@@ 13
Communities' 13
public-sector 13
Commissioner' 13
Holmes 13
wom@@ 13
theft 13
tive' 13
ska 13
righ@@ 13
1945 13
(ECHR) 13
obstruction 13
blueprint 13
OR@@ 13
ani 13
petroleum 13
-month 13
pitiful 13
EU-NATO 13
DRC 13
sadd@@ 13
projected 13
modus 13
scrupulous 13
OSPAR 13
oil@@ 13
ability' 13
to: 13
fiction 13
society: 13
methodologies 13
Problems 13
eu@@ 13
als: 13
work: 13
pulled 13
SAPARD 13
hurdle 13
dreamt 13
freer 13
lethal 13
blood@@ 13
bel 13
crisis; 13
embody 13
hopeless 13
tonnage 13
visionary 13
apartheid 13
raging 13
Walter 13
ñ@@ 13
chooses 13
(a) 13
possessed 13
responsibilit@@ 13
prejudge 13
third-@@ 13
vice-@@ 13
athletes 13
Panel 13
double-hulled 13
scapegoat 13
strang@@ 13
dolphin 13
Venezuelan 13
axes 13
regularisation 13
imperialism 13
Karimov 13
life-long 13
suc@@ 13
ately 13
break-up 13
Caucasian 13
gen 13
Ferreira 13
Fernández 13
ough@@ 13
truth@@ 13
Toy 13
stuff 13
expire 13
ized 13
orderly 13
enough: 13
'mad 13
EUROPOL 13
revol@@ 13
zer 13
unacceptably 13
Memb@@ 13
171 13
Mombaur 13
betra@@ 13
Dijk 13
Peking 13
personalities 13
bis@@ 13
dawn 13
oestradiol 13
histor@@ 13
To@@ 13
-term 13
glued 13
energy-related 13
dding 13
C) 13
opt-in 13
landmark 13
criticize 13
sabotage 13
Westendorp 13
Richard 13
walking 13
cost@@ 13
ter-@@ 13
Fu@@ 13
rem@@ 13
Maij-Weggen 13
Cul@@ 13
tol@@ 13
wrong@@ 13
preci@@ 13
iest 13
spon@@ 13
physi@@ 13
Kittelmann 13
d's 13
indulgence 13
naval 13
(EIB) 13
hard@@ 13
Valley 13
Joseph 13
Papayannakis 13
Lao 13
Fruteau 13
gh 13
ASEAN 13
Guinean 13
lacked 13
gene 13
blaming 13
Partido 13
grasped 13
Czarnecki 13
whis@@ 13
pets 13
EU; 13
hull 13
future: 13
skilful 13
Kong's 13
singing 13
reliance 13
gent 13
subscribers 13
subscriber 13
Niebl@@ 13
Járóka 13
Guantanamo 13
HIV/AIDS 13
preach 13
() 13
value-added 13
germ 13
cofinance 13
Commissioners-designate 13
take-up 13
Reducing 13
lin 13
AP@@ 13
onic 13
buyers 13
tig@@ 13
Kosovo's 13
dat@@ 13
Euro-Atlantic 13
disappears 13
ISPA 13
focussing 13
Ara@@ 13
tons 13
Lukashenko's 13
2001/@@ 13
Katiforis 13
non-trade 13
Buitenweg 13
acidification 13
week’s 13
Block 13
Baden-Württemberg 13
colonies 13
chip 13
fiftieth 13
bank' 13
fertilization 13
payout 13
891 13
(CBRN) 13
Cambodian 13
Harangozó 13
Baker 13
Roubatis 13
deman@@ 12
Companies 12
fares 12
ways: 12
band@@ 12
tely 12
cabotage 12
pronouncements 12
exacting 12
adventure 12
nail 12
guns 12
roo@@ 12
prematurely 12
cap 12
77@@ 12
Port 12
underpins 12
youngest 12
d’ 12
stagnate 12
politici@@ 12
depend@@ 12
ry@@ 12
EU: 12
employe@@ 12
volatile 12
Belar@@ 12
reaffirms 12
ated: 12
fal@@ 12
ose 12
creators 12
Base 12
apt 12
gambling 12
Millions 12
apathy 12
intents 12
Success 12
hurdles 12
deregulated 12
law-making 12
py@@ 12
coherently 12
recasting 12
Soci@@ 12
Simplification 12
shack@@ 12
presumed 12
Paradoxically 12
monster 12
minor@@ 12
rationalise 12
hinges 12
case; 12
extra-@@ 12
subjec@@ 12
terminated 12
Sri 12
north-@@ 12
ERDF 12
prediction 12
Jean-Claude 12
well-informed 12
Mari@@ 12
Stalinist 12
identi@@ 12
piecemeal 12
mes 12
ov 12
correc@@ 12
25th 12
exiled 12
wheel@@ 12
akis 12
o: 12
brochure 12
manifestations 12
public-@@ 12
communit@@ 12
valuing 12
enhancement 12
shoes 12
environment@@ 12
marker 12
Eurocrats 12
Nine@@ 12
gel@@ 12
ache 12
arranging 12
priori@@ 12
ings: 12
EE@@ 12
unpaid 12
109 12
Austri@@ 12
dump 12
import@@ 12
vac@@ 12
people: 12
homogeneous 12
heterogeneous 12
valuation 12
diluted 12
proposals: 12
Inte@@ 12
ani@@ 12
Pat 12
UNICE 12
ray 12
reconsidered 12
State; 12
ler@@ 12
deficient 12
Putting 12
cy@@ 12
%; 12
dilute 12
event@@ 12
inception 12
Luxembour@@ 12
nominate 12
insertion 12
laborious 12
branded 12
revisit 12
fact-finding 12
Chişinău 12
franch@@ 12
ner's 12
gic 12
militia 12
ambassador 12
Hom@@ 12
meth@@ 12
Portugal's 12
ish-@@ 12
impaired 12
intru@@ 12
restructured 12
shop@@ 12
predomin@@ 12
owes 12
despicable 12
plethora 12
formations 12
wash 12
assumptions 12
EURO@@ 12
babies 12
memb@@ 12
inhal@@ 12
cancers 12
contaminate 12
Karl 12
ailing 12
stark 12
Bloom 12
anonymous 12
classical 12
wives 12
talents 12
oppres@@ 12
perpetrator 12
well-trained 12
doc@@ 12
ingredient 12
quarrels 12
pushes 12
tremendously 12
stereo@@ 12
femin@@ 12
gall@@ 12
lesbian 12
three@@ 12
liv@@ 12
169 12
stayed 12
cher@@ 12
ł@@ 12
intimate 12
radic@@ 12
6-@@ 12
humiliated 12
absurdity 12
acid 12
blows 12
kill@@ 12
Presidenc@@ 12
criminality 12
sterilisation 12
imper@@ 12
unworthy 12
ides 12
Mont 12
dismay 12
cautiously 12
advertised 12
conveys 12
highway 12
civilization 12
dd@@ 12
blessing 12
Zimmermann 12
Politics 12
well-off 12
lian 12
ements 12
traumatic 12
destabilise 12
/97-@@ 12
Bolea 12
realises 12
surviving 12
do: 12
irrit@@ 12
Stra@@ 12
discus@@ 12
colleagues' 12
obliging 12
fel@@ 12
Debates 12
reckless 12
Private 12
Mess@@ 12
gates 12
aggravating 12
examines 12
Early 12
strings 12
yellow 12
droughts 12
320 12
unimaginable 12
Commonwealth 12
Afghanistan@@ 12
varieties 12
inspiring 12
solidar@@ 12
el-@@ 12
neutr@@ 12
echoing 12
agu@@ 12
Comprehensive 12
steadfast 12
Ribeiro 12
Al 12
bled 12
eloquent 12
san@@ 12
zi 12
ruining 12
'new 12
committe@@ 12
151 12
Dev@@ 12
fol@@ 12
inci@@ 12
Wu@@ 12
ads 12
intensely 12
locks 12
broadened 12
Sangatte 12
abbreviated 12
rock 12
trucks 12
pile 12
therefore: 12
migrate 12
84 12
mone@@ 12
waging 12
unrelated 12
immigra@@ 12
ment) 12
saddened 12
left) 12
Berluscon@@ 12
hat@@ 12
gang@@ 12
tening 12
request) 12
prey 12
mask 12
Ku@@ 12
hotel 12
loy@@ 12
itable 12
sour@@ 12
sixty 12
tack 12
burying 12
Responsibility 12
activated 12
/1/2001 12
disrupted 12
Some@@ 12
hell 12
laugh@@ 12
res' 12
stroke 12
War@@ 12
plu@@ 12
C5-016@@ 12
demarcation 12
success@@ 12
ini@@ 12
leak 12
leaks 12
shattered 12
wind@@ 12
perceptions 12
alle@@ 12
areas; 12
sustaining 12
subsidise 12
siveness 12
Sánchez 12
feat 12
junta 12
blasphemy 12
underfoot 12
fabric@@ 12
Mis@@ 12
Ages 12
toler@@ 12
'non-@@ 12
earnest 12
contacted 12
Stand@@ 12
reimbursed 12
appropri@@ 12
rationalising 12
fit@@ 12
expenditures 12
irregularity 12
earnestly 12
ings; 12
Mumbai 12
Michael 12
porting 12
82@@ 12
CESR 12
supervisor 12
Regulators 12
solvency 12
nationalisation 12
horses 12
hesit@@ 12
urred 12
indebted 12
accelerating 12
ance; 12
all' 12
society's 12
humiliation 12
family-@@ 12
worthless 12
ruined 12
easiest 12
fication' 12
salt 12
sovereign@@ 12
Pierre 12
che 12
tric@@ 12
Simply 12
denouncing 12
thoughtful 12
appalled 12
erring 12
computer@@ 12
1998@@ 12
Point 12
stu@@ 12
static 12
accommodated 12
Eriksson 12
N) 12
Marset 12
helm 12
9) 12
ound 12
bottle 12
Fraud 12
bananas 12
myths 12
(B4-0@@ 12
Brian 12
92/@@ 12
135 12
Swedes 12
reviews 12
smuggled 12
García 12
Natural 12
113 12
pharmac@@ 12
devaluation 12
/92 12
operator@@ 12
Souchet 12
creatures 12
retire 12
No-one 12
swee@@ 12
backlog 12
Secretary-General's 12
research; 12
sustain@@ 12
disservice 12
roundly 12
blowing 12
sheepmeat 12
innovate 12
accomplices 12
Iv@@ 12
als; 12
recurrent 12
tech 12
sym@@ 12
Berthu 12
err@@ 12
lodged 12
prestigious 12
demolition 12
ella 12
leaked 12
reread 12
breathing 12
ghts 12
Square 12
fanatics 12
Office's 12
Hamas@@ 12
decisiveness 12
multilingual 12
translates 12
Learning 12
reciproc@@ 12
Islamist 12
180 12
clouds 12
bloodshed 12
TB@@ 12
EDD 12
lowing 12
uncontrollable 12
overtaken 12
derives 12
fragility 12
Boris 12
heal@@ 12
trans-Atlantic 12
unify 12
sson 12
Baku 12
interventionism 12
tertiary 12
European-level 12
unhindered 12
take-@@ 12
aspires 12
seam@@ 12
upholds 12
parades 12
ve: 12
enshrines 12
upstream 12
hasty 12
dre@@ 12
spaw@@ 12
CF@@ 12
ef 12
Monde 12
Paul@@ 12
petitioners 12
Miss 12
cow' 12
shamefully 12
nonsensical 12
fellow-Members 12
criminalisation 12
lot@@ 12
measures; 12
tling 12
him@@ 12
scrap@@ 12
fores@@ 12
Bologna 12
Bible 12
policies: 12
starving 12
intentional 12
literary 12
childhood 12
126@@ 12
2000) 12
reminiscent 12
Román 12
es" 12
Eight 12
record@@ 12
ouring 12
assuring 12
regions; 12
gran@@ 12
Seen 12
Martin@@ 12
1930s 12
Disabled 12
LE@@ 12
Margot 12
ino 12
Watch 12
Fa@@ 12
humankind 12
factor@@ 12
slim 12
(SMEs) 12
Lamber@@ 12
support@@ 12
widened 12
propos@@ 12
assing 12
discharged 12
polluters 12
fauna 12
Meeting 12
Attention 12
authorization 12
co-ordin@@ 12
xed 12
ura 12
step@@ 12
(COM(95)0@@ 12
segregated 12
path@@ 12
tary 12
nights 12
saga 12
Judicial 12
Agree@@ 12
progres@@ 12
ly@@ 12
struggled 12
ghet@@ 12
unfettered 12
Commons 12
task@@ 12
Ba@@ 12
2001@@ 12
Bou@@ 12
knowingly 12
architects 12
stant 12
controller 12
aquatic 12
discredited 12
Calls 12
one-stop 12
ld 12
renegotiation 12
economy; 12
demise 12
powerlessness 12
rainfall 12
attentive 12
market: 12
Betancourt 12
compatriots 12
tap 12
bail 12
Ty@@ 12
Cris@@ 12
doping 12
inter-regional 12
131 12
Coreper 12
mesh 12
Appropriate 12
Pati@@ 12
Constitution’ 12
omni@@ 12
DDT 12
ballo@@ 12
utilising 12
UN’s 12
Ensuring 12
ded; 12
confines 12
formidable 12
capac@@ 12
patient@@ 12
overturned 12
helpless 12
decree 12
Béguin 12
re-establishing 12
RAPEX 12
Thyssen 12
branding 12
planted 12
ions 12
orally 12
li 12
hem@@ 12
emphasizes 12
lled 12
withhold 12
Legislative 12
power-@@ 12
Plenary 12
Fouque 12
mainstream@@ 12
afflicted 12
Kenya 12
presidenc@@ 12
breeders 12
better-@@ 12
manageable 12
colossal 12
dropping 12
dairy 12
set-aside 12
bother 12
brick 12
tenders 12
delegate 12
Pack@@ 12
energy-saving 12
loads 12
discharging 12
patho@@ 12
workshops 12
melting 12
Jean-Marie 12
Rac@@ 12
CDU 12
apologia 12
jails 12
Contro@@ 12
characterise 12
analy@@ 12
too: 12
asserting 12
properties 12
Papandreou 12
Commission@@ 12
CMO 12
ge' 12
Srebrenica 12
haste 12
polar 12
pra@@ 12
Kir@@ 12
cereal 12
Cuba's 12
voicing 12
Roca 12
locust 12
village 12
restaurant 12
Lagendijk 12
B5­0@@ 12
Seppänen 12
Xinjiang 12
impulse 12
Russian-@@ 12
genome 12
pas@@ 12
Turkish-@@ 12
belt 12
step-by-step 12
Fogh 12
xing 12
reimbur@@ 12
single-hulled 12
buck 12
Offic@@ 12
reuse 12
credentials 12
centur@@ 12
Mixed 12
figu@@ 12
Nowhere 12
passionately 12
Tru@@ 12
swing 12
America's 12
unsolicited 12
Year@@ 12
Ukraine's 12
grams 12
PA 12
renowned 12
obscur@@ 12
praises 12
remarked 12
about: 12
Bol@@ 12
muster 12
kies 12
CARS 12
'must 12
telecom 12
audio-visual 12
Gy@@ 12
boarding 12
over-regulation 12
SMS 12
view@@ 12
176@@ 12
ub@@ 12
alter@@ 12
elaborated 12
Janeiro 12
Sacrédeus 12
Ottawa 12
isolating 12
mission@@ 12
(A4-@@ 12
amends 12
dealer 12
Consensus 12
endocrine 12
ESA 12
discharges 12
yard 12
Nicolaï 12
B6-02@@ 12
Scot@@ 12
NAIADES 12
301 12
RFOs 12
Sichuan 12
Multiannual 12
blue-card 12
Majesty's 12
groundhandling 12
exclusions 12
extender 12
deplete 12
Fuster 12
Angolan 12
593 12
Somal@@ 12
Grigory 12
(GFCM) 12
-B4-02@@ 12
conservatives 11
hampering 11
keting 11
painstaking 11
actu@@ 11
rejec@@ 11
veiled 11
Seas 11
process; 11
oblig@@ 11
ty; 11
twin-track 11
/2010) 11
anno@@ 11
ate; 11
crowned 11
departing 11
outward 11
blocs 11
four-@@ 11
Kra@@ 11
matter@@ 11
insistent 11
García-Margallo 11
modifying 11
segment 11
inadequately 11
Today’s 11
heeded 11
groundless 11
bands 11
Confederation 11
self-employment 11
curtailment 11
tative 11
Sha@@ 11
workers’ 11
fantasy 11
will@@ 11
brac@@ 11
discriminating 11
self-criticism 11
heartily 11
Cashman 11
extra@@ 11
it's 11
Vladimir 11
invalid@@ 11
resisting 11
temptations 11
of-@@ 11
Doorn 11
custom@@ 11
practitioners 11
prescriptive 11
pharmaceuticals 11
complacent 11
Impact 11
basket 11
ary; 11
overrun 11
merged 11
compan@@ 11
bru@@ 11
fool 11
expedient 11
Wal@@ 11
overs 11
worthiness 11
gillnets 11
116 11
Maria 11
Nazis 11
235 11
lurch 11
citizens; 11
entertainment 11
clam@@ 11
GM 11
iceberg 11
integr@@ 11
devotes 11
Fran@@ 11
emble@@ 11
Regardless 11
inextricably 11
Nuremberg 11
Rem@@ 11
dimension@@ 11
talented 11
consultancy 11
air-@@ 11
windows 11
contributor 11
flu@@ 11
f-@@ 11
recover@@ 11
comprehen@@ 11
mud 11
outmoded 11
old-fashioned 11
scenes 11
uncovered 11
furthest 11
tives; 11
rewrite 11
insufficiently 11
home-@@ 11
acquitted 11
bord@@ 11
nour@@ 11
initi@@ 11
eastward 11
ultraliberal 11
upward 11
invol@@ 11
tain 11
obsessed 11
reprimand 11
weighed 11
directive@@ 11
Judging 11
law; 11
Committe@@ 11
maximising 11
Treaty; 11
erode 11
naïve 11
clearest 11
appropriateness 11
Lanka 11
Borg 11
pelagic 11
2008@@ 11
ena 11
iles 11
strife 11
cit@@ 11
turn@@ 11
all; 11
today; 11
Ry@@ 11
wit@@ 11
61@@ 11
countrymen 11
panels 11
g’s 11
fire@@ 11
insulating 11
systems; 11
potent 11
evenly 11
Important 11
‘a 11
protesters 11
outlet 11
masse 11
withholding 11
ambivalent 11
nostal@@ 11
Chi@@ 11
unease 11
dom 11
terror@@ 11
c) 11
unreliable 11
deceit 11
Preparation 11
@@@ 11
writ@@ 11
stupidity 11
pension@@ 11
borrow 11
ame 11
Fund: 11
italisation 11
metaphor 11
speculators 11
unfold 11
rev@@ 11
wards 11
dies 11
spontaneous 11
armament 11
um' 11
weaponry 11
shouting 11
calibre 11
syndrome 11
stigma@@ 11
unquestionable 11
oxides 11
Female 11
electing 11
carrot 11
ty: 11
democracy; 11
Exclusion 11
Fund's 11
start-ups 11
invests 11
well-developed 11
illiterate 11
Kingdom's 11
Fine 11
scourges 11
feminisation 11
men's 11
manipulated 11
doctr@@ 11
ves@@ 11
passages 11
awakening 11
level: 11
age: 11
Sub@@ 11
toxic@@ 11
fun@@ 11
Dear 11
lifespan 11
allocates 11
gypsy 11
friendliness 11
ressed 11
impotence 11
L) 11
sed: 11
Telecommunications 11
amendment) 11
Ter@@ 11
Nepal 11
Modern@@ 11
ET@@ 11
Prospectus 11
Burundi 11
cradle 11
nigh@@ 11
Initially 11
marital 11
presid@@ 11
amply 11
reintegrate 11
coercive 11
Saint 11
musc@@ 11
immunities 11
foreign@@ 11
infringes 11
Hitherto 11
fingerprints 11
made@@ 11
Frontiers 11
refugees' 11
Kosovar 11
sticks 11
scapegoats 11
Participation 11
sanitation 11
ants; 11
invoking 11
knocking 11
seeker 11
Dar@@ 11
Polic@@ 11
leng@@ 11
blanche 11
Lev@@ 11
Spencer 11
Myller 11
linkage 11
pitfalls 11
traced 11
presumption 11
persuading 11
contribu@@ 11
A4-0@@ 11
Exchange 11
keenly 11
version) 11
prote@@ 11
Cel@@ 11
exhib@@ 11
suspects 11
tow@@ 11
isations 11
orphan 11
Operation 11
Trichet 11
Respon@@ 11
rapes 11
deser@@ 11
intolerant 11
world@@ 11
Regul@@ 11
Patrie 11
brands 11
imagined 11
competition; 11
ulation 11
clothes 11
concealing 11
gateway 11
0-@@ 11
casualties 11
Reg@@ 11
Malaysia 11
ITS 11
sul@@ 11
terminal 11
powerfully 11
Horn 11
forerunner 11
polem@@ 11
Che@@ 11
Kabila 11
ut 11
riots 11
filter 11
angled 11
'm 11
,' 11
that@@ 11
fuller 11
bloo@@ 11
pseudo-@@ 11
interrelated 11
humility 11
anti-terrorist 11
plunge 11
impoverished 11
working-class 11
crush 11
horrified 11
ink@@ 11
hospitality 11
specific@@ 11
ual 11
scattered 11
patrols 11
destinations 11
Poland's 11
last-minute 11
Unity 11
county 11
conceptions 11
sta 11
quasi-@@ 11
Dra@@ 11
priori 11
grouping 11
deport 11
citing 11
monks 11
multiplier 11
knock-on 11
situ@@ 11
inated 11
ily 11
(Inter@@ 11
polite 11
interrup@@ 11
centre-@@ 11
Rossa 11
AZF 11
Total@@ 11
Inspec@@ 11
sia 11
locate 11
194@@ 11
disturbance 11
noisiest 11
administrators 11
repealing 11
C5-07@@ 11
leaf 11
now@@ 11
states@@ 11
non-nuclear 11
winding-up 11
members' 11
Bla@@ 11
Grand 11
visibly 11
deficiency 11
creeping 11
nervous 11
vir@@ 11
le: 11
fluid 11
interact 11
non-industrial 11
incoherent 11
arities 11
characterises 11
bo 11
102 11
dissident 11
Far@@ 11
flo@@ 11
Words 11
astonishment 11
lig@@ 11
murderers 11
testifies 11
audi@@ 11
Franc@@ 11
awards 11
Minorities 11
Minority 11
115 11
59@@ 11
č@@ 11
disclosed 11
ture' 11
clichés 11
participant 11
contravenes 11
distanced 11
endowed 11
3/@@ 11
Conditions 11
Assurance 11
(199@@ 11
Pom@@ 11
duplic@@ 11
conversely 11
tears 11
auditor 11
Cl@@ 11
dle 11
infections 11
documents: 11
II@@ 11
ignorant 11
g-@@ 11
resilience 11
equivalence 11
Lipietz 11
Banks 11
morals 11
guest 11
stabilised 11
Purvis 11
Je@@ 11
Equitable 11
Super@@ 11
manipulate 11
inundated 11
quo@@ 11
essentials 11
uncompetitive 11
maize 11
irrigation 11
farmer@@ 11
ence' 11
stores 11
Jean-@@ 11
cabinets 11
Remember 11
then@@ 11
gentlemen@@ 11
taxpay@@ 11
Samland 11
height 11
Commissioners' 11
Tillich 11
squab@@ 11
Undoubtedly 11
112 11
Den@@ 11
8-@@ 11
-led 11
fission 11
Getting 11
pid@@ 11
SEM 11
revelations 11
viruses 11
muddle 11
ter's 11
investiture 11
ancy 11
Club 11
ration 11
destroys 11
taries 11
62@@ 11
pre-empt 11
throws 11
ros 11
expel 11
tally 11
predic@@ 11
Arias 11
Camisón 11
abusing 11
colleague's 11
stimulation 11
prominently 11
diversified 11
hits 11
erup@@ 11
rat@@ 11
retabled 11
manual 11
Biscay 11
Colino 11
Imagine 11
undeniably 11
apo@@ 11
aly@@ 11
watch@@ 11
acc@@ 11
instruction 11
acutely 11
quarterly 11
programm@@ 11
suppress 11
exagger@@ 11
ted' 11
evacu@@ 11
ruins 11
inner 11
Protec@@ 11
ship; 11
institutions: 11
don 11
two-state 11
lately 11
ign@@ 11
payer 11
sper@@ 11
Israeli-Palestinian 11
im 11
Pöttering 11
unpredictable 11
IP 11
affords 11
medic@@ 11
Der@@ 11
syn@@ 11
disappearances 11
candidature 11
facets 11
resembles 11
148@@ 11
smell 11
mir@@ 11
re-establishment 11
Summits 11
assign 11
persevere 11
defen@@ 11
(paragraph 11
level@@ 11
staggering 11
advancement 11
ori 11
uttered 11
5-0@@ 11
Pow@@ 11
plastic 11
Electric 11
Members’ 11
ink 11
tread 11
ür@@ 11
chaotic 11
cross-sectoral 11
MP@@ 11
Small@@ 11
asbestos 11
cod 11
MS@@ 11
bach 11
artisanal 11
collaborative 11
unleash 11
Van@@ 11
dangerously 11
policeman 11
Radio 11
astute 11
disciplined 11
Mozambique 11
salient 11
Instance 11
tt 11
dissuasive 11
dez 11
Torture 11
lified 11
Moder@@ 11
tery 11
instigated 11
ath@@ 11
us; 11
Kau@@ 11
3/2002) 11
assimil@@ 11
incite 11
atro@@ 11
Marinho 11
C5­0@@ 11
Refugee 11
wire 11
hen@@ 11
corners 11
deviate 11
ant' 11
Ka@@ 11
overturn 11
habitual 11
erec@@ 11
Bundestag 11
Pensioners' 11
(of 11
delegations: 11
OK 11
Sign@@ 11
Kinga 11
patently 11
modern@@ 11
non-citizens 11
Indi@@ 11
bath 11
know@@ 11
broad-based 11
lar 11
Brazilian 11
awaited 11
lear@@ 11
Danfoss 11
gang 11
illed 11
15-@@ 11
countercyclical 11
Africans 11
smarter 11
attributes 11
implic@@ 11
ification 11
Serbia's 11
escalating 11
message: 11
(such 11
subordinated 11
Economics 11
Multi@@ 11
train@@ 11
Roth 11
communitization 11
set@@ 11
ère 11
pen 11
protagonists 11
shar@@ 11
detract 11
Fantuzzi 11
detached 11
luggage 11
marginalized 11
strong@@ 11
dele@@ 11
sword 11
acces@@ 11
sigh@@ 11
master@@ 11
nearing 11
assignment 11
it' 11
Total 11
hemisphere 11
mee@@ 11
deep-rooted 11
Bush@@ 11
re-established 11
Kur@@ 11
aked 11
lap@@ 11
adaptability 11
2002/00@@ 11
inter-parliamentary 11
Alger@@ 11
Thousands 11
Morillon 11
Gbagbo 11
fence 11
equi@@ 11
maiden 11
Martínez 11
thermal 11
2002/20@@ 11
proofing 11
framing 11
tyranny 11
anarchy 11
nega@@ 11
oil-@@ 11
applicability 11
aving 11
irony 11
in-house 11
Grech 11
bolder 11
energ@@ 11
registering 11
rs' 11
Icelandic 11
kidnappers 11
states: 11
liberate 11
coc@@ 11
treasure 11
every@@ 11
Fol@@ 11
IL@@ 11
IO@@ 11
Mongolia 11
self-sufficient 11
turbulent 11
sing@@ 11
socialism 11
Mad@@ 11
park 11
Conversely 11
Instruments 11
traw@@ 11
Few 11
Communists 11
prior@@ 11
se-@@ 11
supermarket 11
alli@@ 11
em 11
Med 11
Elmar 11
-in-@@ 11
issi@@ 11
sibility 11
seven@@ 11
Pan@@ 11
interfaces 11
Interpol 11
shut@@ 11
eighteen 11
afflicting 11
judgements 11
hy@@ 11
abject 11
practising 11
ASEM 11
Ispra 11
readable 11
decentralized 11
Alleanza 11
puzz@@ 11
Reformist 11
right; 11
battery 11
examinations 11
Nisticò 11
inten@@ 11
e-learning 11
reinvigor@@ 11
Tobin 11
'all 11
diligently 11
Argentin@@ 11
go-ahead 11
PPPs 11
org@@ 11
dispose 11
Labelling 11
therapies 11
Funding 11
Sloven@@ 11
peak 11
forcibly 11
Benelux 11
fe 11
ith 11
characterized 11
lied 11
extern@@ 11
Practical 11
mighty 11
musi@@ 11
domin@@ 11
preven@@ 11
nurture 11
Goe@@ 11
Director@@ 11
recognizing 11
Dur@@ 11
rescu@@ 11
Andreas 11
Ó 11
hun@@ 11
program 11
surreptitiously 11
firmness 11
aligning 11
Stri@@ 11
institutionally 11
aller@@ 11
designing 11
81@@ 11
injec@@ 11
reass@@ 11
reallocated 11
cho 11
payers 11
compel 11
condone 11
re; 11
-minded 11
indul@@ 11
Lam@@ 11
induce 11
[COM(1999) 11
202@@ 11
effected 11
Sie@@ 11
Soares 11
handover 11
TD@@ 11
illi@@ 11
covenants 11
scri@@ 11
opium 11
engages 11
Fron@@ 11
Stephen 11
mani@@ 11
ws 11
tactical 11
R&D 11
cane 11
tica 11
pill@@ 11
sen's 11
blessed 11
song 11
regulation's 11
coastlines 11
beaches 11
Afghans 11
Jos@@ 11
harbours 11
common@@ 11
incorrectly 11
traps 11
open-minded 11
a-half 11
intentionally 11
sectors; 11
Traffic 11
tour 11
Ninth 11
Seeber 11
Junilistan 11
reintroduced 11
bial 11
ters' 11
Mountains 11
efficienc@@ 11
akers 11
paediatric 11
Langen@@ 11
Tacis 11
decoupling 11
bottles 11
wooden 11
airs 11
attraction 11
Barroso’s 11
Borrell 11
Mao 11
24% 11
earmark 11
Bis@@ 11
FVO 11
backwardness 11
mg 11
wildlife 11
re-evaluation 11
pretending 11
anti-corruption 11
Hieronymi 11
loop 11
ranges 11
Tajikistan 11
irresponsibly 11
Gazprom 11
disdain 11
Pipeline 11
early-warning 11
discoveries 11
scrutin@@ 11
Río 11
bla@@ 11
Lamassoure's 11
Ales 11
Mikhalevich 11
scheduling 11
motorcycle 11
Ship@@ 11
Prior 11
Transcaucasia 11
Addiction 11
arbitrariness 11
Rail 11
propri@@ 11
Bowles 11
Perea 11
A5-00@@ 11
UNHRC 11
INSPIRE 11
Kuckelkorn 11
1997@@ 11
16th 11
Pelttari's 11
850 11
Star 11
Fashion 11
Mather 11
Nairobi 11
citrus 11
pollution-related 11
Häusling 11
reparations 11
Johnston's 11
Mapuche 11
vative 10
was: 10
cross-party 10
Sterckx 10
Manchester 10
Ortuondo 10
flowers 10
capitalise 10
revitalising 10
reading: 10
princi@@ 10
striven 10
essed 10
has@@ 10
Hennicot-Schoepges 10
B7-0@@ 10
articul@@ 10
tracks 10
Mutual 10
thi@@ 10
Chris 10
manoeuvres 10
[COM(@@ 10
(A6-008@@ 10
diversit@@ 10
grievances 10
206 10
wedge 10
-hour 10
pin 10
nearby 10
disposable 10
export@@ 10
dol@@ 10
untouched 10
measu@@ 10
prospective 10
rotten 10
threw 10
plum@@ 10
Statistical 10
Sinn 10
skilfully 10
laugh 10
Sur@@ 10
(O@@ 10
virtuous 10
dia 10
interferes 10
promoter 10
delight 10
met@@ 10
poisoned 10
tness 10
aptly 10
tab@@ 10
Kyprianou 10
digest 10
Sil@@ 10
‘better 10
stakeholder 10
fast-track 10
check@@ 10
SOLVIT 10
al’ 10
exist@@ 10
counter-productive 10
Europa 10
acquisitions 10
continu@@ 10
co-legislators 10
silenced 10
moment: 10
fibre 10
tool@@ 10
repealed 10
rid@@ 10
free-market 10
simplest 10
alarmingly 10
prepares 10
utes 10
take@@ 10
deems 10
blown 10
social-@@ 10
Suanzes-Carpegna 10
Polisario 10
envelope 10
n+2 10
CS@@ 10
disbursed 10
possible; 10
estate 10
(see 10
boosted 10
Were 10
Promotion 10
‘Europe 10
issu@@ 10
multi-faceted 10
formulations 10
autocratic 10
dow 10
violently 10
mystery 10
father@@ 10
everyone’s 10
indisputably 10
Figeľ 10
chequ@@ 10
resentment 10
measures: 10
enh@@ 10
erated 10
whereupon 10
370 10
herald 10
affront 10
Enterprise 10
null 10
Magda 10
implemen@@ 10
en: 10
lag@@ 10
omit 10
Wherever 10
dock 10
impossibility 10
lecture 10
symbol@@ 10
legitim@@ 10
penetrate 10
development: 10
rebu@@ 10
shining 10
expen@@ 10
d-up 10
fundamentals 10
nutshell 10
distract 10
clu@@ 10
secrets 10
Penal 10
sof@@ 10
awi 10
adjacent 10
asymmetry 10
76@@ 10
mayor 10
60th 10
ken@@ 10
Vo@@ 10
imag@@ 10
programme; 10
aer@@ 10
Ps 10
ight 10
Austria's 10
Kal@@ 10
Voronin 10
orchestr@@ 10
intimidated 10
Long 10
well-established 10
dismayed 10
unfolding 10
disturbances 10
unfinished 10
)) 10
Treat@@ 10
ranking 10
ots 10
hair 10
industrialisation 10
Oettinger 10
ome 10
package' 10
136 10
ester 10
concern@@ 10
tribu@@ 10
tape@@ 10
domains 10
rol 10
oversee 10
informs 10
tly: 10
thick 10
contaminating 10
wrought 10
Seventy 10
weapon@@ 10
ential 10
enko 10
Neyts-Uyttebroeck 10
landmines 10
categor@@ 10
Biological 10
IAEA 10
pha@@ 10
Disarmament 10
radi@@ 10
radio@@ 10
classed 10
curricula 10
contemplating 10
ave 10
world; 10
Bauer 10
lesbians 10
Curi@@ 10
engineers 10
under-represented 10
wipe 10
mentioned: 10
Cathy 10
upheavals 10
time-limited 10
board@@ 10
gain@@ 10
incub@@ 10
Vit@@ 10
centenary 10
interrupt 10
cared 10
dwel@@ 10
tized 10
Think 10
fiel@@ 10
vating 10
PE@@ 10
ries 10
Hed@@ 10
vist 10
especial 10
directory 10
da@@ 10
/2009) 10
2009-2010 10
security' 10
1325 10
moon 10
communitarisation 10
objectionable 10
enshrine 10
woman's 10
assa@@ 10
video 10
refu@@ 10
Mus@@ 10
Wednesday: 10
obstructed 10
prosecutor's 10
ideo@@ 10
Jur@@ 10
prescribing 10
Organised 10
pes 10
Less 10
asserts 10
tonight's 10
Corruption 10
138@@ 10
reopened 10
wan@@ 10
expulsions 10
intellectually 10
aggressors 10
boldly 10
performs 10
inhi@@ 10
fuss 10
'no 10
pleases 10
legislation; 10
Mur@@ 10
sorrow 10
141@@ 10
108@@ 10
Gentlemen 10
Str@@ 10
rosy 10
retri@@ 10
78/@@ 10
graphically 10
for-@@ 10
writes 10
1915 10
extremes 10
missi@@ 10
lav 10
sim@@ 10
merchant 10
abundant 10
wide@@ 10
dialogu@@ 10
2000/@@ 10
ethanol 10
Believe 10
knees 10
Critical 10
industrialists 10
leather 10
Hai@@ 10
case: 10
electr@@ 10
appreciative 10
fertilisers 10
vanguard 10
apparel 10
Sud@@ 10
bush 10
hostilities 10
known@@ 10
loaded 10
Union/@@ 10
sometime 10
assassination 10
wreck 10
rs 10
Thirty 10
provincial 10
mates 10
ods 10
ly' 10
inhabit@@ 10
authorises 10
Swiebel's 10
Item 10
idio@@ 10
gri@@ 10
turing 10
coordin@@ 10
land-@@ 10
110@@ 10
topicality 10
bury 10
regionalisation 10
interlocutors 10
Pandora's 10
paint 10
1/2002) 10
exper@@ 10
Lyon 10
Op@@ 10
high-profile 10
congratulates 10
'Towards 10
ino@@ 10
Community-@@ 10
pouring 10
(L@@ 10
age-old 10
Group) 10
Gh@@ 10
Provan 10
ammonia 10
65% 10
shipwreck 10
precedents 10
builders 10
pollute 10
5/2001 10
Pronk 10
lags 10
abatement 10
ounded 10
Roo 10
Stric@@ 10
quieter 10
averaging 10
bank@@ 10
holes 10
wood@@ 10
Out 10
sails 10
AT 10
zy 10
O' 10
reassured 10
utopia 10
trauma 10
parameter 10
(A5-028@@ 10
particulate 10
embraces 10
funeral 10
conserv@@ 10
10th 10
latter's 10
usur@@ 10
stifle 10
sanitary 10
steered 10
ed) 10
EEAS 10
wolf 10
hint 10
Eritrea 10
assembled 10
res: 10
126 10
democrac@@ 10
bad@@ 10
Nearly 10
dense 10
countries: 10
world: 10
ert 10
Greenpeace 10
Extre@@ 10
mely 10
evidenced 10
contemplated 10
Aud@@ 10
mess@@ 10
2006) 10
anomalies 10
Supervisor 10
neatly 10
Cla@@ 10
rd 10
exam@@ 10
corro@@ 10
whole@@ 10
accountants 10
idity 10
Previous 10
culminate 10
Fellow 10
Ur@@ 10
Ign@@ 10
inescapable 10
refocusing 10
centric 10
owner@@ 10
bonuses 10
pable 10
hasten 10
phenomen@@ 10
reviving 10
toughest 10
aug@@ 10
happen@@ 10
itted 10
credited 10
casino 10
vers@@ 10
s's 10
itors' 10
'A 10
stringency 10
inflexibility 10
wheat 10
tos 10
owski 10
futile 10
Free@@ 10
fined 10
hard-working 10
secretive 10
Focus 10
scrutinising 10
dim 10
tising 10
spec@@ 10
cep@@ 10
manage@@ 10
TES 10
group@@ 10
inge 10
XX@@ 10
Worse 10
elling 10
Campos 10
Matikainen-Kallström 10
ransom 10
billion@@ 10
MAP 10
comment: 10
moul@@ 10
straits 10
pleasing 10
lets 10
Brittan 10
Clinton 10
arre@@ 10
resurgence 10
instruc@@ 10
narrowing 10
rown 10
Calais 10
auto@@ 10
emo@@ 10
Partner@@ 10
observatories 10
103a 10
say@@ 10
euro's 10
1973 10
blinkered 10
computerised 10
plain@@ 10
74@@ 10
Salamanca 10
needy 10
offing 10
refute 10
afternoon's 10
reintroducing 10
repaid 10
rant 10
pec@@ 10
Deputies 10
109@@ 10
out' 10
Harmon@@ 10
federations 10
Gene@@ 10
Mechanism 10
President: 10
minimis 10
essions 10
Reconstruction 10
Palestin@@ 10
lofty 10
sectarian 10
Iraq@@ 10
Knesset 10
hair@@ 10
ettlement 10
q@@ 10
ity's 10
diametrically 10
'good 10
meteor@@ 10
DS 10
downright 10
feat@@ 10
migr@@ 10
numbering 10
taining 10
Ir@@ 10
countryman 10
Russia; 10
Republics 10
158 10
ts’ 10
prosecuting 10
ritual 10
Å@@ 10
zh@@ 10
arians 10
solves 10
trailers 10
pollu@@ 10
mur@@ 10
stipulating 10
Subsequently 10
morn@@ 10
Sam@@ 10
fon@@ 10
Georgi@@ 10
Tal@@ 10
vie@@ 10
je 10
aster 10
rup@@ 10
matter: 10
strata 10
lessen 10
Attempts 10
whichever 10
ket@@ 10
conceded 10
riot 10
equate 10
Geoghegan-Quinn 10
sty 10
clean-up 10
ree@@ 10
cargoes 10
travels 10
enlighten 10
interruption 10
position; 10
breaching 10
dity 10
Damascus 10
Helmut 10
pers 10
Charter's 10
modalities 10
citizen's 10
Z 10
ostensibly 10
legitimation 10
attainment 10
lef@@ 10
deprivation 10
illegitimate 10
non-State 10
2002/0@@ 10
cry@@ 10
where@@ 10
draw@@ 10
ic-@@ 10
federalists 10
Economy 10
electronically 10
circus 10
portal 10
grace 10
judici@@ 10
2000/20@@ 10
echoed 10
Big 10
cries 10
manifests 10
applic@@ 10
worlds 10
forfe@@ 10
Wat@@ 10
son' 10
Marques 10
mentary 10
ÅU 10
asymmetries 10
derisory 10
Adjournment 10
cares 10
serv@@ 10
relinqu@@ 10
unwelcome 10
commissions 10
SPD 10
prevalence 10
remoteness 10
hallmark 10
suffoc@@ 10
orthodox 10
Program@@ 10
flow@@ 10
Urgent 10
Thurs@@ 10
'You 10
confiscated 10
mut@@ 10
EU-Korea 10
Sturdy 10
outweigh 10
Tomorrow@@ 10
leg 10
logist 10
(2)(@@ 10
verifying 10
ae 10
aj@@ 10
biometric 10
ACP-EU 10
eighth 10
slicks 10
Horizon 10
COP 10
1970 10
predominant 10
reconsideration 10
dy@@ 10
hyper@@ 10
instru@@ 10
uneven 10
hangs 10
Operational 10
estim@@ 10
508 10
stained 10
'an 10
execu@@ 10
ş@@ 10
Mexic@@ 10
Excell@@ 10
statistic 10
stimulates 10
licensed 10
PPP 10
lid 10
torpe@@ 10
pretexts 10
Schi@@ 10
critici@@ 10
realization 10
corollary 10
Mafia 10
organizational 10
masters 10
seo 10
Positive 10
entrants 10
ín 10
jeopardize 10
supremacy 10
peti@@ 10
activit@@ 10
basics 10
nearer 10
Lithuan@@ 10
jacket 10
exer@@ 10
spade 10
resol@@ 10
ved: 10
sures 10
140@@ 10
palaces 10
es's 10
self-defence 10
superb 10
matured 10
two@@ 10
reticence 10
Bastos 10
Econom@@ 10
enterpris@@ 10
JE@@ 10
Feira 10
dress 10
Geo@@ 10
anachronistic 10
predicated 10
sub-regional 10
parties' 10
paramilitary 10
ound@@ 10
malaise 10
peer 10
contex@@ 10
satellites 10
publicise 10
complexities 10
Hal@@ 10
Villiers 10
policies; 10
Eigh@@ 10
aspec@@ 10
centralising 10
High-Level 10
reas@@ 10
Nicole 10
maturing 10
shelves 10
sible 10
ism' 10
deal@@ 10
treasures 10
Šemeta 10
firearms 10
AS 10
Ama@@ 10
dares 10
Turin 10
Roman@@ 10
Setting 10
oks 10
zy@@ 10
alleviation 10
pel 10
employment' 10
Alternative 10
injections 10
conglomerates 10
eke 10
(Laughter) 10
finality 10
religi@@ 10
flown 10
options: 10
continent@@ 10
sla@@ 10
Freitas 10
consider@@ 10
Vis@@ 10
other; 10
pardon 10
Bow@@ 10
Visa 10
Arabs 10
Cru@@ 10
histories 10
sav@@ 10
rigged 10
manipul@@ 10
ICCAT 10
tion’s 10
Isler 10
in: 10
electromagnetic 10
Ayala 10
unjustifiably 10
counterweight 10
age-@@ 10
Normally 10
crosses 10
kno@@ 10
world-@@ 10
shirk 10
mobilizing 10
swallow 10
veto@@ 10
furious 10
me' 10
industrialized 10
dum 10
euphoria 10
aggres@@ 10
deploying 10
competitivity 10
transEuropean 10
swell 10
ked: 10
clearly: 10
development; 10
perv@@ 10
fronti@@ 10
ultra-@@ 10
policy-@@ 10
distinctions 10
mechanically 10
reliably 10
husbandry 10
whi@@ 10
Tour@@ 10
shortfalls 10
e-Europe 10
Bay@@ 10
stro@@ 10
Authorities 10
Mobilisation 10
caste 10
Organ 10
potato 10
ia) 10
138 10
slope 10
enriched 10
Heinisch 10
ally; 10
intelligible 10
Escudero 10
textbook 10
triggering 10
hauliers 10
Schaffner's 10
unaccountable 10
Nazionale 10
prosecutions 10
servant 10
Starting 10
users' 10
Novemb@@ 10
persuasive 10
chocolate 10
dict 10
Alzheimer's 10
nuclear-free 10
apprehension 10
bothered 10
189 10
bribes 10
gged 10
founders 10
neutrals 10
privatization 10
brid@@ 10
Lage 10
mother@@ 10
questioner 10
fairy 10
Rev@@ 10
Gay 10
kilo 10
lean@@ 10
ou's 10
compile 10
commercially 10
1968 10
tran@@ 10
surroundings 10
construc@@ 10
administering 10
aiding 10
labour-intensive 10
650 10
Financing 10
ds: 10
Macau@@ 10
ABB 10
innov@@ 10
Presevo 10
Lannoye 10
107@@ 10
Buddhist 10
curtailed 10
Pes@@ 10
har 10
ayev 10
Ireland' 10
heav@@ 10
capitalists 10
intergroup 10
flexicurity 10
°C 10
Fac@@ 10
banana 10
sugar-@@ 10
nation-states 10
Hrant 10
Dink 10
Turke@@ 10
miracles 10
commit@@ 10
Liechtenstein 10
technologically 10
laissez-faire 10
Kabul 10
Per 10
enlarge@@ 10
1963 10
deg@@ 10
homogenous 10
dumps 10
itated 10
recess 10
tell@@ 10
unimpeded 10
sor 10
Havel 10
sixteen 10
(rapporteur: 10
nutri@@ 10
Eisma 10
approvals 10
proposed: 10
'public 10
motor@@ 10
te' 10
disrepute 10
call@@ 10
imperialists 10
2002) 10
superse@@ 10
ascri@@ 10
Cur@@ 10
model@@ 10
corrup@@ 10
alcohol-related 10
antibiotic 10
chal@@ 10
44% 10
GNI 10
anti-Semitic 10
chippings 10
oenological 10
grow@@ 10
halved 10
California 10
normalisation 10
archa@@ 10
President-elect 10
nominee 10
transparenc@@ 10
unannounced 10
ecology 10
akin 10
onom@@ 10
championed 10
Steinmeier 10
biofuel 10
years; 10
practicality 10
118 10
Daems 10
layers 10
carry' 10
Brit@@ 10
chorus 10
predictions 10
fact: 10
rebalancing 10
urb@@ 10
cushion 10
descriptions 10
PKK 10
Start 10
diversifying 10
reins 10
validation 10
2-@@ 10
GATS 10
brief@@ 10
90/@@ 10
Blokland's 10
summit@@ 10
Monterrey 10
atom 10
emulate 10
Dal@@ 10
aux 10
victimisation 10
sellers 10
trail 10
Blair@@ 10
Diedres 10
Kjer 10
rez 10
fishermen's 10
landings 10
dried 10
en' 10
jun@@ 10
148 10
280 10
trafficked 10
sten@@ 10
Teverson 10
China’s 10
Yushchenko 10
worn 10
Coordinator 10
natur@@ 10
onus 10
venues 10
C7-018@@ 10
Andreasen 10
lum@@ 10
sector-specific 10
Upper 10
Biotechnology 10
153 10
Cologne 10
Secretary-General’s 10
polycyclic 10
depositors 10
UNGASS 10
shipyard 10
Reynders 10
arro@@ 10
packets 10
/96@@ 10
rabies 10
790 10
Aragón 10
-by 10
‘Everything 10
EQUAL 10
non-hazardous 10
kilns 10
Saxony 10
Wögerbauer 10
(para 10
TEAM 10
WFP 10
Burtone 10
138a 10
Barros 10
generics 10
ddling 9
weighting 9
footsteps 9
locomotives 9
packaged 9
pt 9
amendments: 9
142 9
Real 9
suburban 9
Infrastructure 9
proper@@ 9
Inclu@@ 9
reck@@ 9
so; 9
Τhe 9
overlaps 9
Including 9
astounding 9
repayments 9
place; 9
siege 9
sinister 9
mathematics 9
economy's 9
harnessing 9
forwar@@ 9
demol@@ 9
fringes 9
avalanche 9
posturing 9
exploits 9
Őry’s 9
advocacy 9
Half 9
influxes 9
pris@@ 9
2003/@@ 9
Alternatively 9
monopoli@@ 9
opposite: 9
Ombudsman's 9
disguised 9
t’ 9
reaffirmation 9
Taxation 9
nose 9
1/EEC 9
intra-@@ 9
Matters 9
scored 9
upside 9
ence@@ 9
orph@@ 9
pray 9
shelf 9
horri@@ 9
Tou@@ 9
packed 9
deliberation 9
Law@@ 9
‘’ 9
sis@@ 9
Give 9
order; 9
speedier 9
uneasy 9
interventionist 9
Out@@ 9
ices 9
bearer 9
radicalism 9
ous: 9
sharper 9
labour-@@ 9
additionality 9
reputable 9
ST@@ 9
driftnet 9
habitat 9
k’s 9
euroz@@ 9
2007–2013 9
101@@ 9
41@@ 9
ão 9
eves 9
Active 9
Citizen@@ 9
mix@@ 9
Exclu@@ 9
kic@@ 9
earmarking 9
descen@@ 9
flat@@ 9
renoun@@ 9
you@@ 9
divorced 9
tov@@ 9
Hit@@ 9
neighbourliness 9
tyran@@ 9
subjug@@ 9
dictator@@ 9
Lin@@ 9
stormy 9
action; 9
156@@ 9
nineties 9
hex@@ 9
leakage 9
baton 9
vexed 9
10) 9
mentation 9
substitution 9
refrigerators 9
pronoun@@ 9
refrained 9
polit@@ 9
disquiet 9
gloomy 9
plumber 9
sway 9
accompl@@ 9
Changes 9
payable 9
hypo@@ 9
imperi@@ 9
Sweden@@ 9
befits 9
decidedly 9
reformist 9
shrink 9
urit@@ 9
ved; 9
businessman 9
watchword 9
notifications 9
ans’ 9
great@@ 9
agenci@@ 9
Dé@@ 9
fisheri@@ 9
lla 9
2009@@ 9
Treaty: 9
patchwork 9
scales 9
Lifelong 9
Finns 9
hurry 9
refrigeration 9
uously 9
further@@ 9
chlor@@ 9
Watson's 9
dispatch 9
instinc@@ 9
plunder 9
10-@@ 9
Reports 9
tram@@ 9
Elec@@ 9
ID 9
crackdown 9
regaining 9
scaremongering 9
concert 9
winding 9
esp@@ 9
ranked 9
Government' 9
lent 9
troub@@ 9
employment; 9
collusion 9
presided 9
unelected 9
listen@@ 9
crusade 9
Agen@@ 9
Chemicals 9
desirability 9
fine-tune 9
impenetrable 9
censored 9
theatres 9
Surve@@ 9
silly 9
arsenals 9
lun@@ 9
veter@@ 9
ops 9
wear 9
st; 9
children@@ 9
Ann@@ 9
penetr@@ 9
reassert 9
heu@@ 9
Eighth 9
Pay 9
ap 9
numer@@ 9
Providing 9
hundredth 9
desi@@ 9
honouring 9
women: 9
mind: 9
identifiable 9
work-life 9
connotations 9
inviolable 9
consigned 9
stly 9
tive: 9
chair@@ 9
mayors 9
thrives 9
praising 9
atypical 9
ives 9
concerned; 9
tori@@ 9
boast@@ 9
carers 9
market-oriented 9
make-up 9
visitors' 9
literacy 9
addres@@ 9
entic@@ 9
nationalists 9
Help 9
magazine 9
116): 9
B7-02@@ 9
sufferings 9
empowerment 9
-risk 9
relativism 9
fertilisation 9
Talking 9
Matera 9
poured 9
equal@@ 9
submits 9
Concer@@ 9
Thursday: 9
goodness 9
arresting 9
encroach 9
huber 9
is) 9
underlie 9
wayside 9
arian 9
heightened 9
outraged 9
reduc@@ 9
precursors 9
appropriated 9
dac@@ 9
spectacle 9
encro@@ 9
begg@@ 9
hand-@@ 9
Bosnian 9
elements: 9
refuge@@ 9
border@@ 9
Cusí 9
Harrison 9
(COM(97)0@@ 9
Pat@@ 9
heaters 9
groups; 9
2000-@@ 9
addictive 9
incidences 9
evolves 9
till 9
STOP 9
U-turn 9
displacement 9
disagrees 9
thering 9
re-read 9
fitted 9
uprooted 9
pump 9
Empire 9
hijacked 9
Occu@@ 9
thick@@ 9
Al-@@ 9
Qaeda 9
kes@@ 9
bac@@ 9
Pir@@ 9
titude 9
Justic@@ 9
ström 9
enjoyment 9
(ECDC) 9
hem 9
insurmountable 9
stor@@ 9
eastwards 9
Valenci@@ 9
(EUR 9
heart@@ 9
dings 9
Preferences 9
head-on 9
everybody's 9
geo-@@ 9
an: 9
recruiting 9
Des@@ 9
mond 9
thwart 9
Haskanita 9
survivors 9
incurring 9
ace@@ 9
keeper 9
grim 9
Ram@@ 9
dal 9
Kon@@ 9
abhor@@ 9
Da@@ 9
geometry 9
203 9
pit 9
up-@@ 9
Self-@@ 9
embracing 9
folk 9
ky 9
abound 9
levels: 9
region' 9
ske@@ 9
Pu@@ 9
trick 9
foolish 9
2001) 9
executives 9
Cornillet 9
dilemmas 9
desperation 9
ticking 9
kick 9
Kr@@ 9
hand-in-hand 9
sex@@ 9
Denmark's 9
hosting 9
equates 9
misappropriation 9
shoul@@ 9
law' 9
reaffirming 9
selves; 9
fting 9
diver@@ 9
distr@@ 9
unconditionally 9
lament 9
5/2002 9
Mediterrane@@ 9
contagious 9
methodological 9
formers 9
One@@ 9
i' 9
enligh@@ 9
ne' 9
well-prepared 9
Osama 9
or' 9
het 9
Sabena 9
Acci@@ 9
fertiliser 9
a/@@ 9
Elf 9
mapping 9
repairing 9
repudiate 9
antiqu@@ 9
Chemical 9
FR@@ 9
Unit 9
nois@@ 9
ascertained 9
homogen@@ 9
ambi@@ 9
spr@@ 9
tter 9
Exemp@@ 9
3/2001 9
2001/00@@ 9
ceasing 9
senseless 9
lic 9
prophec@@ 9
subscribed 9
group' 9
pel@@ 9
molec@@ 9
troublesome 9
zoning 9
7/2001) 9
boundary 9
Approximately 9
appli@@ 9
up; 9
resources' 9
13% 9
Bali 9
sensibilities 9
hearted 9
gradu@@ 9
shell 9
Gold@@ 9
Andrikienė 9
bureaucra@@ 9
action' 9
machinations 9
quotation 9
transgender 9
trampled 9
dissenting 9
after@@ 9
repugn@@ 9
2008-@@ 9
dium 9
spurious 9
fin 9
replying 9
informally 9
validated 9
Procedu@@ 9
disproportionately 9
Lim@@ 9
tiger 9
Different 9
unplanned 9
contracted 9
services; 9
05% 9
ship' 9
DAS 9
soundness 9
dissuade 9
pa 9
finest 9
blacklist 9
classify 9
hotels 9
Men@@ 9
Insurance 9
resource@@ 9
insurers 9
es-@@ 9
review@@ 9
impeded 9
Brown 9
intrusive 9
penalises 9
relied 9
wings 9
Fir@@ 9
creditors 9
episodes 9
embarrassed 9
191@@ 9
releg@@ 9
meddling 9
Anglo-@@ 9
astounded 9
issuers 9
farm@@ 9
lighter 9
'health 9
mass@@ 9
harassed 9
renders 9
particul@@ 9
necess@@ 9
-making 9
mode@@ 9
incenti@@ 9
numbered 9
contested 9
exposes 9
unparalleled 9
Ev@@ 9
pered 9
d'être 9
Ref@@ 9
ge; 9
directorates-general 9
advertisements 9
appreciable 9
tem@@ 9
nul@@ 9
VO@@ 9
possible' 9
Lindqvist 9
Sandbæk 9
rying 9
Cast@@ 9
Tannert 9
level' 9
activity-based 9
hec@@ 9
all-embracing 9
dreamed 9
Desama 9
inaugural 9
confidence-building 9
hil@@ 9
Metten's 9
hardware 9
os's 9
Waddington 9
ament 9
£@@ 9
125@@ 9
103@@ 9
offsetting 9
Medic@@ 9
archy 9
shorten 9
empirical 9
Trading 9
collec@@ 9
agri-@@ 9
transport@@ 9
crept 9
allowable 9
Emergency 9
pork 9
construed 9
Dut@@ 9
Proposals 9
wasteful 9
du 9
unanim@@ 9
obvious: 9
help@@ 9
ethos 9
blu@@ 9
3-@@ 9
Fischler's 9
best@@ 9
advertise 9
GR@@ 9
repudi@@ 9
pac@@ 9
occurrences 9
ulated 9
sparing 9
-day 9
quickest 9
mammals 9
Understanding 9
O's 9
ila 9
commun@@ 9
REG@@ 9
uta 9
Hübner 9
insensitive 9
Bahrain 9
tentative 9
Industri@@ 9
stationed 9
reprieve 9
carrier 9
vious 9
Lambsdorff 9
divert 9
confuses 9
importance: 9
uprisings 9
sie@@ 9
anyone's 9
Diversity 9
resorted 9
assimilation 9
rees 9
minorities' 9
fig@@ 9
Scots 9
signify 9
sown 9
146 9
jeopardises 9
Basques 9
de' 9
ories 9
broached 9
Kremlin 9
vy 9
journalis@@ 9
refined 9
rage 9
democra@@ 9
Medzamor 9
catalytic 9
aki 9
salutary 9
industry: 9
stifling 9
seizing 9
wounds 9
ICTY 9
lav@@ 9
eloquently 9
trivi@@ 9
ever@@ 9
ola 9
deplores 9
hot@@ 9
spots 9
tec@@ 9
opt-outs 9
Tradi@@ 9
enum@@ 9
[...]
