#version: 0.2
t h
th e</w>
i n
r e
a n
t i
e n
o n</w>
o n
e r
o f</w>
t o</w>
o u
a r
o r
an d</w>
r o
i s</w>
in g</w>
i n</w>
i s
e d</w>
a t</w>
i t
e s</w>
a l
o m
e r</w>
a t
s i
ti on</w>
a l</w>
e c
th at</w>
i c
a n</w>
m en
s t
o r</w>
v e</w>
l y</w>
h a
a c
l i
w h
p ro
s u
e s
e n</w>
i l
p o
n o
f or</w>
l e
p e
c on
T h
u s
d e
a tion</w>
a s</w>
l e</w>
t s</w>
men t</w>
r i
b e</w>
b e
a s
ti on
th is</w>
l d</w>
u r
w e</w>
u ro
om m
E uro
r a
c i
u n
o p
ar e</w>
p or
i t</w>
e l
a b
re s
no t</w>
ou ld</w>
a d
e m
ha ve</w>
ou n
a g
e x
u l
c e</w>
it h</w>
Euro pe
w ith</w>
l o
d i
en t</w>
C omm
ic h</w>
f or
Europe an</w>
wh ich</w>
it y</w>
th e
i m
v er
s h
n e
er e</w>
c om
Th e</w>
il l</w>
b y</w>
t a
tion s</w>
w ill</w>
g h
is si
at e</w>
si d
s o</w>
t er
o l
v i
ou r</w>
k e</w>
q u
Comm issi
a y</w>
b u
ha s</w>
f f
m e
al l</w>
t e
t r
s e</w>
w or
m e</w>
d u
p ar
t ed</w>
i on</w>
us t</w>
th er</w>
m o
M r</w>
por t</w>
a r</w>
re sid
em b
m a
ti c
a p
er s</w>
f i
ti ve</w>
s e
ou t</w>
d s</w>
e v
s t</w>
p l
c h
P resid
po s
re n
t o
al so</w>
U n
st r
w ould</w>
re g
sh ould</w>
Commissi on</w>
c oun
c h</w>
re c
an t</w>
al ly</w>
g e
ro m</w>
m ust</w>
g o
a i
f rom</w>
p ec
W e</w>
on e</w>
at es</w>
ab le</w>
li a
Presid ent</w>
d is
P ar
t ing</w>
S t
emb er</w>
bu t</w>
es s</w>
o w
o u</w>
c o
t ur
be en</w>
or e</w>
a m
s o
p er
v e
t ri
men ts</w>
it s</w>
' s</w>
Par lia
t h</w>
por t
ou r
g r
a tions</w>
y ou</w>
t u
m an
d ing</w>
l ic
us e</w>
ver y</w>
m ore</w>
I t</w>
u s</w>
p res
c an</w>
es e</w>
f in
k e
Un ion</w>
tion al</w>
w as</w>
k ing</w>
ec on
f e
C oun
t er</w>
M ember</w>
c e
ti es</w>
Parlia ment</w>
ar y</w>
u m
c omm
l u
on s</w>
gh t</w>
g i
in c
es s
re port</w>
ci al</w>
t w
in g
un d
an ce</w>
i r</w>
ci l</w>
Coun cil</w>
e ar
St ates</w>
d o</w>
c er
s a
p e</w>
m in
du c
th ere</w>
t en
s ti
li ke</w>
n a
g en
po lic
d o
p u
the ir</w>
l a
men t
p re
no w</w>
h i
g e</w>
o ther</w>
a m</w>
t e</w>
i es</w>
si b
p r
b ec
im port
v o
d e</w>
f ac
i c</w>
Euro pe</w>
Th is</w>
th ese</w>
t y</w>
pro pos
ou s</w>
con t
f u
m s</w>
m ar
at ed</w>
I n</w>
j ec
su r
at e
re d</w>
wor k</w>
su p
the y</w>
h e
o b
or d
for e</w>
g h</w>
v es</w>
wh at</w>
si on</w>
s om
re e
d ed</w>
le g
w i
2 0
v el
coun tri
d ec
p le
re s</w>
countri es</w>
econ om
g u
t ly</w>
ab out</w>
ne ed</w>
ff ic
c r
a use</w>
E U</w>
m y</w>
ti me</w>
m on
wh o</w>
pe op
s er
in ter
re as
t ra
i r
ne w</w>
an s
tur e</w>
Commissi on
a in
is e</w>
re at
polic y</w>
ev er</w>
o d</w>
import ant</w>
en c
s ec
is su
on ly</w>
r ou
o se</w>
as t</w>
po in
de vel
na tional</w>
em p
tic al</w>
il ity</w>
w el
st e
en ce</w>
a re
p ri
t ec
c le
bec ause</w>
peop le</w>
k s</w>
i f</w>
u p</w>
e ve</w>
p en
wi th
ar d</w>
n o</w>
g n
fi r
ai d</w>
b o
gh ts</w>
re e</w>
po li
is h</w>
s el
te e</w>
a y
devel op
pro b
p on
su ch</w>
ta ke</w>
is h
s pec
pro g
tic ul
20 0
w ay</w>
d ay</w>
e en</w>
sur e</w>
v er</w>
qu es
an y</w>
ow ever</w>
par ticul
sti tu
sib le</w>
ol u
tw een</w>
ma ke</w>
op er
a u
re fore</w>
be tween</w>
al s</w>
g y</w>
un ity</w>
ag e</w>
con cer
an s</w>
mar ke
v ing</w>
str u
h o
th ose</w>
sup port</w>
su b
y e
v en
prob le
en ti
on g</w>
men d
in to</w>
c es</w>
r s</w>
ff ec
th ing</w>
l ar
res pon
al l
tr ans
at ing</w>
be li
in te
for m
de b
v is
econom ic</w>
c ess</w>
wh en</w>
ap pro
ad e</w>
ow n</w>
or i
it tee</w>
pu b
l in
a d</w>
be ing</w>
som e</w>
s y
com e</w>
v ed</w>
poli tical</w>
ra p
re l
ver n
man y</w>
po si
f ic
p le</w>
m ade</w>
f o
ti c</w>
ri ghts</w>
li c</w>
the refore</w>
the m</w>
ar ds</w>
st an
di rec
vi e
es t</w>
re ad
ge t</w>
ac e</w>
t or
s it
beli eve</w>
c an
ren t</w>
c re
u e</w>
ar ly</w>
r on
p a
ti z
ex t</w>
w ere</w>
v ic
su l
pro duc
so cial</w>
mo st</w>
ord er</w>
th an</w>
i ons</w>
c ri
tr y</w>
ce p
e f
W h
ur e</w>
ag ree
um an</w>
th in
fin an
Commission er</w>
me a
e st
al is
ci tiz
ing s</w>
ain st</w>
concer n
s ay</w>
lo w
ar i
m at
C on
pub lic</w>
ag ainst</w>
a v
ra m
fac t</w>
ac h</w>
ch an
m i
en s</w>
fir st</w>
ta k
b as
marke t</w>
cle ar</w>
p s</w>
dec is
m u
y ear
it e</w>
inc lu
w e
c us
reg ul
ment al</w>
propos al</w>
I n
l l</w>
j ust</w>
e ffec
h ere</w>
ab l
c ur
poin t</w>
Th at</w>
deb ate</w>
c as
com pe
issu e</w>
as s
f ul
su res</w>
n ec
u ation</w>
h uman</w>
lo y
cer ta
fu ture</w>
pos sible</w>
ad op
und er
m en</w>
wh ere</w>
re qu
stru c
inc reas
in v
su m
ti ves</w>
year s</w>
Comm ittee</w>
pro tec
ou gh</w>
spec i
thin k</w>
f ra
vie w</w>
d ic
pro vi
enc y</w>
op e</w>
mea sures</w>
o ver</w>
prog ram
develop ment</w>
ri ght</w>
ex am
read y</w>
an k</w>
a st
y ing</w>
c our
tw o</w>
bu d
cont in
oper ation</w>
leg is
b er</w>
d ra
ac t</w>
ques tion</w>
do es</w>
u r</w>
A s</w>
vi ron
ve l</w>
wel l</w>
f un
ff e
res s</w>
re sul
citiz ens</w>
sa me</w>
c ould</w>
v en</w>
can not</w>
par t</w>
de mo
sh i
ha d</w>
or ity</w>
er al</w>
go vern
ev en</w>
olu tion</w>
finan cial</w>
pec t</w>
w ant</w>
s aid</w>
pres en
sit uation</w>
al ity</w>
th rou
ac hi
p ly</w>
emp loy
M rs</w>
m il
in stitu
s ed</w>
to o</w>
im ple
s pe
r u
lo w</w>
coun try</w>
si gn
a in</w>
al ready</w>
comm on</w>
i a</w>
mu ch</w>
en d</w>
for m</w>
i on
i ti
c lu
th en</w>
gr ou
ac c
con sid
re at</w>
with in</w>
dis cus
tak en</w>
ho w</w>
in form
Th ere</w>
it ed</w>
n um
particul ar</w>
le vel</w>
ye ar</w>
in ci
agree ment</w>
a mend
go od</w>
sti ll</w>
ne e
fu l</w>
se e</w>
en viron
d ly</w>
ay s</w>
y our</w>
1 9
ou se</w>
jec t</w>
por te
ac tion</w>
emb ers</w>
ac k</w>
di ffe
B u
t le
ste m</w>
so ci
st s</w>
j o
ic al</w>
an is
c u
vo te</w>
rap porte
cour se</w>
al th</w>
k now</w>
H owever</w>
Comm unity</w>
to day</w>
bo th</w>
on g
co operation</w>
leg al</w>
ac cep
pl ace</w>
oun d</w>
au th
n al</w>
som e
a f
ou s
ti m
h ope</w>
b le</w>
com p
posi tion</w>
en sure</w>
R e
nec ess
tur al</w>
re f
t al
om e</w>
e y</w>
ori ties</w>
ma j
c lo
e qu
compe ti
ffic i
h el
h al
tri bu
t en</w>
wh e
im pro
t or</w>
sy stem</w>
s en
ab ility</w>
reat y</w>
per i
und er</w>
are a</w>
h is</w>
ser vic
i de
ac ti
pr inci
cas e</w>
pro cess</w>
k ed</w>
w om
pro ce
gen tle
employ ment</w>
e t</w>
H ouse</w>
in ce</w>
is t</w>
pu t</w>
l ast</w>
in e</w>
ro w
inform ation</w>
c ar
wh y</w>
h ar
ad ies</w>
wor ld</w>
gentle men</w>
fe ren
proble m</w>
ob jec
num ber</w>
h owever</w>
el ec
l ation</w>
throu gh</w>
exam ple</w>
as k</w>
a tive</w>
h e</w>
ur ity</w>
is m</w>
e ver
g reat</w>
lo c
me ans</w>
th er
proble ms</w>
c ol
m ay</w>
ul es</w>
li m
s p
with out</w>
in iti
e i
E U
inter national</w>
hal f</w>
c y</w>
str ate
o c
r it
I f</w>
necess ary</w>
issu es</w>
fi c</w>
inv ol
r is
pres ent</w>
or g
lo o
se t</w>
or y</w>
a il
gi ve</w>
he alth</w>
ter s</w>
’ s</w>
f ol
M ad
th ough</w>
sel f</w>
n ing</w>
in du
ou ra
gr ation</w>
is ed</w>
f av
particul arly</w>
us ed</w>
in t
bud get</w>
il l
b r
g es</w>
cr is
b i
er gy</w>
si m
ate ly</w>
me work</w>
ear ch</w>
T reaty</w>
e d
wh o
t ter</w>
ti s
shi p</w>
est abl
r ic
hi gh
cont ro
il e</w>
c en
un i
e l</w>
rapporte ur</w>
op port
wom en</w>
ac k
reg ard</w>
be fore</w>
res pect</w>
ha p
su c
v al
propos als</w>
ma in
comm it
gi ven</w>
f ur
c a
requ i
protec tion</w>
19 9
program me</w>
go ti
l adies</w>
mat ter</w>
are as</w>
in de
chan ge</w>
whe ther</w>
legis lation</w>
ne goti
Mad am</w>
ffic ul
f ar</w>
di fficul
si ons</w>
a k
sib ility</w>
ke y</w>
li on</w>
t re
f t</w>
c ra
or s</w>
ac y</w>
tec h
w ays</w>
pl ic
pro mo
l an
ex pres
ac coun
sec urity</w>
ag ain</w>
com ple
th ank</w>
ter ms</w>
con clu
g n</w>
P ro
c all
la w</w>
ef for
el l
o f
lo b
si ve</w>
certa in</w>
ou t
r an
sa fe
ro le</w>
t ary</w>
s ince</w>
por ts</w>
per s
in ten
d one</w>
po w
C h
d er</w>
A n
no w
f ree
ag ree</w>
fur ther</w>
l ess</w>
ac h
c ap
fra mework</w>
n ext</w>
c ul
M embers</w>
g reat
cris is</w>
adop ted</w>
G rou
p li
en ergy</w>
st ri
op in
res olution</w>
is t
amend ments</w>
res t</w>
r ules</w>
f ish
be half</w>
fav our</w>
en ts</w>
u es</w>
ta in
decis ion</w>
ven tion</w>
w ards</w>
con tribu
con di
go ing</w>
diffe rent</w>
s econ
w ard</w>
our ces</w>
Wh at</w>
sec tor</w>
ma in</w>
con sum
be tter</w>
hel p</w>
servic es</w>
ful ly</w>
wor k
Bu t</w>
ma king</w>
me ly</w>
res earch</w>
me di
at t
th ir
Grou p</w>
bas is</w>
do m</w>
g row
direc tive</w>
ever y
c or
a w
em s</w>
ser i
o ver
fi ed</w>
fol low
it er
inte re
t able</w>
w ish</w>
l ong</w>
pen d
T ur
nee ds</w>
u m</w>
stan d
ous ly</w>
gu ar
institu tions</w>
re presen
prog ress</w>
g o</w>
b en
und a
u p
i d
ur ing</w>
en tly</w>
feren ce</w>
sel ves</w>
resul t</w>
us ti
i fic
ti ci
contin ue</w>
par t
some thing</w>
en d
wor king</w>
rec o
ge ther</w>
an n
F or</w>
af ter</w>
pro m
A l
t es</w>
speci fic</w>
d es
m it</w>
concern ed</w>
Un ited</w>
for ward</w>
at ten
A r
c ed</w>
s ing</w>
achi ev
st ar
s '</w>
tra de</w>
vo ted</w>
soci e
regul ation</w>
M in
p ur
u d
to wards</w>
fe w</w>
sh all</w>
who le</w>
N o
grou p</w>
F in
to gether</w>
str y</w>
ve st
g ed</w>
St ate</w>
s m
es sion</w>
opin ion</w>
in d</w>
ve ly</w>
vis ion</w>
sub ject</w>
g lob
l ong
th ree</w>
po se</w>
polic ies</w>
man ag
enti al</w>
reg ions</w>
i li
wel come</w>
du ce</w>
auth orities</w>
int ro
d er
v ari
d own</w>
cri min
appro ach</w>
an ts</w>
unda mental</w>
import ance</w>
ff ai
lin e</w>
di d</w>
demo cra
consid er
guar an
b on</w>
strate gy</w>
p ul
str ic
gen eral</w>
ro s
org anis
ar ity</w>
d ure</w>
O n</w>
sid e</w>
ren g
ord in
li d
0 0</w>
st ate</w>
res ources</w>
l ed</w>
establ ish
di vi
re i
l es</w>
st reng
G o
inclu ding</w>
pec i
e very</w>
cr acy</w>
re ally</w>
lar ge
cur rent</w>
b us
appro pri
en t
certa in
condi tions</w>
ch il
qu ite</w>
tor s</w>
opport unity</w>
inter nal</w>
re ly</w>
n at
safe ty</w>
min is
reco gn
secon d</w>
bec ome</w>
ric ul
f e</w>
it al</w>
bas ed</w>
se e
al i
accoun t</w>
ffai rs</w>
cur ren
propos ed</w>
en g
p resid
econom y</w>
de fin
provi de</w>
fin d</w>
b er
ag ricul
increas e</w>
ch ar
mil lion</w>
l ec
ex c
d uring</w>
ve ment</w>
princi ple</w>
cle arly</w>
ic e</w>
ta king</w>
thir d</w>
t un
L is
m er
ment ation</w>
ad di
ra ther</w>
socie ty</w>
it self</w>
maj or</w>
com b
an other</w>
Commission 's</w>
un ic
e ment</w>
i l</w>
ac tu
vi ol
lin es</w>
us si
respon sibility</w>
f ree</w>
atten tion</w>
es peci
ex is
In ter
b al
d ate</w>
ad d
st ain
k now
indu stry</w>
ess ential</w>
especi ally</w>
achi eve</w>
re duc
se qu
ai r</w>
bus in
ar m
Lis bon</w>
al ways</w>
de al</w>
great er</w>
environ mental</w>
comp an
trans port</w>
ter m</w>
effec tive</w>
h ear
Parlia ment
me e
democra tic</w>
R ussi
s olu
st and</w>
so lid
f undamental</w>
competi tion</w>
ben ef
in vest
t ting</w>
m es</w>
c all</w>
l at
le ast</w>
free dom</w>
Th ese</w>
difficul t</w>
Th ey</w>
ing le</w>
ffic e</w>
vari ous</w>
on ce</w>
produc ts</w>
effor ts</w>
l ab
jo in
ch o
bu il
op en
d es</w>
a si
e p
re al</w>
grow th</w>
o ff
im mi
le ad
l ing</w>
ac cess</w>
d re
wh ile</w>
wor ds</w>
part n
i d</w>
trans pa
Presid ency</w>
imple mentation</w>
reas on</w>
contro l</w>
in f
seri ous</w>
de m
ta in</w>
ex tre
N o</w>
negoti ations</w>
is es</w>
Go vern
th ings</w>
A t</w>
c ess
in stru
gu e</w>
i an</w>
loo k</w>
h u
sign ific
for ce</w>
- 0
e ach</w>
ye t</w>
st ate
D i
col le
gr at
g g
demo cracy</w>
S o
s c
w s</w>
environ ment</w>
spe a
b ro
b il
er ship</w>
ch all
Min is
min d</w>
posi tive</w>
ap plic
divi du
g in
work ers</w>
ou b
Un ion
ha ving</w>
lo g
in dividu
b ack</w>
an g
poin ts</w>
intere sts</w>
ap pe
emp ha
m is
rei gn</w>
ec h
con f
ste p</w>
O n
A f
p act</w>
re form</w>
colle ag
b ility</w>
s ingle</w>
o p</w>
ad v
jec ts</w>
consid er</w>
t ation</w>
lar ge</w>
a ffec
tion ed</w>
proce dure</w>
for ms</w>
th s</w>
p rec
pl es</w>
sm all</w>
j usti
dec i
w rit
decis ions</w>
concern s</w>
te ly</w>
comm ittee</w>
S o</w>
tici p
qu ality</w>
ex ten
chall en
EU R</w>
po pul
al o
grou ps</w>
stand ards</w>
sh or
mon ey</w>
we e
t om
n ess</w>
sy st
r or
su stain
alis ation</w>
h and</w>
cen tr
ab ly</w>
f y</w>
large ment</w>
inte rest</w>
certain ly</w>
th em
intro duc
tech no
fun ds</w>
al low</w>
P ol
objec tives</w>
ti al</w>
aw are</w>
reg ion
h er</w>
r e</w>
grat ul
A ffairs</w>
tim es</w>
is ing</w>
hi gh</w>
co he
maj ority</w>
rec ei
for tun
an d
glob al</w>
b est</w>
de f
of ten</w>
ter ror
con gratul
sim ply</w>
men tioned</w>
invol ved</w>
com ing</w>
ex peri
o w</w>
tic le</w>
co ordin
Govern ment</w>
p h
n on
reg ar
t ext</w>
imple men
st ly</w>
d y</w>
ag es</w>
gen er
com es</w>
ur al</w>
th ers</w>
m an</w>
par lia
g ing</w>
ag o</w>
reg ion</w>
s ha
en largement</w>
ver s
t le</w>
p er</w>
enc oura
compan ies</w>
br ing</w>
e duc
fic ation</w>
alo gue</w>
resul ts</w>
enc es</w>
t y
pro f
rec ent</w>
e ld</w>
re com
l and</w>
ffici ent</w>
rel ations</w>
o ds</w>
follow ing</w>
program mes</w>
ris k</w>
mi ght</w>
ful l</w>
empha s
inde ed</w>
ha ps</w>
con s
pri v
appropri ate</w>
av ail
tor y</w>
initi ative</w>
mon it
lab our</w>
l ack</w>
govern ment</w>
cont ext</w>
con stitu
S tr
li fe</w>
sup por
An d</w>
F ir
ai m</w>
G er
presid ency</w>
f le
d ence</w>
comm unic
an ks</w>
region al</w>
f am
com prom
h on
p an
cr u
A mend
respon sible</w>
extre mely</w>
u b
dre n</w>
accep t</w>
Tur key</w>
R i
ro w</w>
re ach
fi ght</w>
s olution</w>
concer n</w>
actu ally</w>
Y ou</w>
li ght</w>
is ation</w>
uni ties</w>
cre ate</w>
pr ac
a im
l it
s es</w>
d en</w>
pec ts</w>
peri od</w>
f el
chil dren</w>
al low
ti vely</w>
ple as
in -
L i
ou ght</w>
fo od</w>
fi eld</w>
par ticip
concern ing</w>
curren tly</w>
agree ments</w>
t ar
mo ve</w>
call ed</w>
j ob
la tive</w>
m om
1 0</w>
manag ement</w>
pos ed</w>
ai r
pro jects</w>
k ind</w>
objec tive</w>
bud ge
op en</w>
impro ve</w>
avail able</w>
E n
de al
ac tions</w>
star t</w>
an t
f ail
develop ing</w>
ab o
do cu
le d
im pact</w>
an im
el ess</w>
ques tions</w>
produc tion</w>
h is
pow er</w>
de ter
G re
le t</w>
nee ded</w>
fish er
con sequ
M ar
C our
B el
ili ties</w>
de mon
pre v
m ul
inte gration</w>
d om
O ffice</w>
reg ards</w>
vi l</w>
requi re
mon ths</w>
ans w
loc al</w>
g in</w>
job s</w>
in no
R om
ven ess</w>
mee ting</w>
pers on
L et</w>
pri ority</w>
hap pen
fe el</w>
ter nal</w>
di alogue</w>
amend ment</w>
agricul tural</w>
v ation</w>
T o</w>
se ver
x i
o thers</w>
ci es</w>
Di rec
pe ace</w>
en ing</w>
e as
li g
lim ate</w>
an y
ad minis
Ar ticle</w>
u al</w>
transpa ren
Fin ally</w>
i al</w>
tur n</w>
them selves</w>
j u
Cour t</w>
do ing</w>
d oub
tic s</w>
pl ac
at ory</w>
abl ed</w>
E C
vi ties</w>
on e
mat ters</w>
A u
di es</w>
it e
en ough</w>
vi ous</w>
ide a</w>
fortun ately</w>
tic ally</w>
marke ts</w>
log ical</w>
k es</w>
cas es</w>
Parliament 's</w>
mer ic
I s
A meric
h ol
diffe ren
acti vities</w>
solid arity</w>
legis lative</w>
el l</w>
g a
2 0</w>
du e</w>
Con vention</w>
ti veness</w>
join t</w>
r y</w>
st er
p ay
D ec
princi ples</w>
ag re
syst ems</w>
c limate</w>
ur o</w>
ne t
n u
fun ding</w>
immi gration</w>
lit tle</w>
ap pli
re a
transparen cy</w>
y s</w>
c ha
Presid ent
A c
achiev ed</w>
acc ession</w>
Th e
writ ing</w>
dra ft</w>
comprom ise</w>
w at
ri ed</w>
S ch
p ast</w>
non -
c ing</w>
ros s</w>
m embers</w>
individu al</w>
in dic
signific ant</w>
S econ
F un
inclu de</w>
s :</w>
hap p
st ates</w>
re le
under stand</w>
ec h</w>
am oun
in ing</w>
inde pend
con fi
reas ons</w>
tr ue</w>
li ber
vis ions</w>
th eless</w>
stan ces</w>
Russi a</w>
ex pl
re ports</w>
exc ell
al e</w>
accep table</w>
z ed</w>
ta x</w>
dra w
M y</w>
techno lo
demon str
chan ges</w>
ass ess
respon se</w>
promo te</w>
us ing</w>
ment ary</w>
dis crimin
v ity</w>
str ong</w>
sustain able</w>
B ar
g ra
I r
M E
to o
am ong</w>
/ 200
represen ta
per haps</w>
con tr
ag end
Ch in
tech n
co sts</w>
long er</w>
b our
pa red</w>
li gh
con struc
as y
y -
pl ay</w>
rel ation</w>
ne i
fish ing</w>
d ang
me th
er ing</w>
e p</w>
commit ment</w>
no thing</w>
mom ent</w>
re stric
or ing</w>
ex clu
effec t</w>
educ ation</w>
congratul ate</w>
govern ments</w>
cr iter
e uro</w>
m or
President -
tom or
st a
deter min
d at
Ri ghts</w>
po ver
al though</w>
up on</w>
con nec
O ur</w>
ing ly</w>
de ta
Union 's</w>
f arm
ta x
pr acti
me an</w>
or m
id enti
benef it</w>
I tal
fin al</w>
speci al</w>
i ly</w>
as pects</w>
C o
t ent</w>
provi ded</w>
le ad</w>
w ar
al y
discus sion</w>
( A
re la
dis ast
ap ply</w>
b ur
an ti
prev ent</w>
a ti
pl an</w>
conf lic
contin u
c l
s ci
ist ance</w>
inte gr
e le
con tain
se en</w>
excell ent</w>
in- Office</w>
i tion</w>
agend a</w>
suc cess</w>
at ors</w>
ten ce</w>
struc ture</w>
popul ation</w>
p ing</w>
an ted</w>
suc cess
b asi
b order</w>
invest ment</w>
abo ve</w>
st ed</w>
res ol
pro ject</w>
con sul
P e
wor ks</w>
u t
regar ding</w>
m ember</w>
o re
val ues</w>
le vel
W ith</w>
guaran tee</w>
c are</w>
pover ty</w>
p tion</w>
har mon
agre ed</w>
su per
contribu tion</w>
a tives</w>
President- in-Office</w>
our selves</w>
re main
mo vement</w>
lu m</w>
st ability</w>
dra w</w>
m it
ma kes</w>
us e
hi m</w>
ci r
H e
vic ti
p ay</w>
it ing</w>
st at
indu stri
consum ers</w>
pro visions</w>
po ten
viol ence</w>
par ties</w>
equ al</w>
sen se</w>
ord ers</w>
sever al</w>
cohe sion</w>
busin ess</w>
ab solu
to t
p i
cre ation</w>
ac tive</w>
S we
I rel
cul tural</w>
re pe
sa tis
ref lec
de si
Re g
y oun
er n</w>
car ried</w>
Secon dly</w>
ap er</w>
G en
gi c</w>
re main</w>
p ass
o s
Direc tive</w>
practi ce</w>
gi es</w>
sh are</w>
recom mend
Q u
Con stitu
m issi
e ly</w>
ci vil</w>
l s</w>
addi tion</w>
ti l</w>
p ite</w>
expres s</w>
tomor row</w>
exis ting</w>
Minis ter</w>
en tr
sa ying</w>
proce du
ess es</w>
institu tional</w>
communic ation</w>
state ment</w>
answ er</w>
he ld</w>
ex ternal</w>
dat a</w>
ari an</w>
guaran te
pleas ed</w>
de man
adv ant
se ems</w>
of f</w>
st ing</w>
le a
rel ating</w>
criter ia</w>
f air</w>
bal ance</w>
Wh en</w>
ex pec
asy lum</w>
On e</w>
0 00</w>
pri orities</w>
budge tary</w>
a vo
mo de
increas ing</w>
gu ide
applic ation</w>
n er</w>
streng th
colleag ues</w>
F r
spea k</w>
cru cial</w>
c il
ter rit
presen ted</w>
e -
- term</w>
y 's</w>
vi ously</w>
ei ther</w>
an aly
youn g</w>
ref er
ne ver</w>
fle xi
procedu res</w>
oura ble</w>
every thing</w>
st age</w>
im um</w>
d en
N e
Irel and</w>
st ance</w>
sign ed</w>
gh out</w>
terror ism</w>
nu clear</w>
re duce</w>
n ed</w>
b ri
b an</w>
t ask</w>
tra ining</w>
pur su
es '</w>
The refore</w>
level s</w>
de red</w>
priv ate</w>
ic k
clo se</w>
0 %</w>
ish ed</w>
er ous</w>
Amend ment</w>
z e</w>
T o
ste ad</w>
fo reign</w>
a tional</w>
1 2</w>
N or
a de
ir e</w>
guide lines</w>
fac e</w>
techn ical</w>
pre par
na mely</w>
il legal</w>
att emp
th us</w>
an ced</w>
si on
sh ow
bo dy</w>
require ments</w>
Ir ish</w>
every one</w>
e an</w>
vo ting</w>
regul ations</w>
ite m</w>
acc ord
ne w
l is
h en
b orders</w>
pl ay
ex p
ar ri
throu ghout</w>
challen ges</w>
consequ ences</w>
ther more</w>
stan ding</w>
reach ed</w>
gen cy</w>
ar ound</w>
s pen
D em
C O
ac ross</w>
sub si
ri gh
requi red</w>
re li
en ter
men tion</w>
fun c
adop t</w>
d am
t abled</w>
pro per
un til</w>
hu man
tr u
s or
reat ing</w>
ass istance</w>
am p
at h</w>
as ked</w>
us es</w>
elec tions</w>
victi ms</w>
c us</w>
c la
add ress</w>
Bu d
sh ow</w>
instru ments</w>
implemen ted</w>
ques t</w>
o ffici
initi atives</w>
1 1</w>
tak es</w>
re ach</w>
d ay
consum er</w>
F ren
poin ted</w>
m ech
increas ed</w>
establ ish</w>
c are
basi c</w>
em er
as s</w>
me et</w>
w a
ti g
monit oring</w>
discrimin ation</w>
ac ts</w>
Fr ance</w>
cir c
t ell</w>
confi dence</w>
L e
res pec
reg re
organis ations</w>
ra ised</w>
poten tial</w>
alis t</w>
Th ank</w>
M ed
ic es</w>
em issi
val ue</w>
F ur
fi ve</w>
too k</w>
na tion
fo cus</w>
a tion
Fren ch</w>
A g
en cies</w>
pow ers</w>
ul ation</w>
su g
g en</w>
c lar
devel op</w>
th anks</w>
effor t</w>
P al
rou ght</w>
servic e</w>
read ing</w>
ob lig
deci ded</w>
clo sed</w>
S ec
B al
so on</w>
at s</w>
str ong
sh e</w>
protec t</w>
po l
mech anis
gen u
ge ts</w>
expres sed</w>
ob ser
re forms</w>
b an
an u
A ll</w>
th y</w>
cap ac
L )</w>
s ol
led ge</w>
ho ld</w>
can di
sec tors</w>
direc t</w>
ro ad</w>
ou th</w>
out side</w>
con v
pre vious</w>
jo b</w>
Is ra
d ru
tal king</w>
mo der
rapporte ur
Europe 's</w>
lan ds</w>
fisher ies</w>
w ast
se ly</w>
sci enti
re fu
ra ti
Coun cil
doub t</w>
Fun d</w>
b rought</w>
v ital</w>
sur ing</w>
sum mit</w>
ke ep</w>
ade qu
bec om
alis ed</w>
un employment</w>
c reating</w>
it ary</w>
nat ure</w>
ex er
establish ed</w>
cor rec
char ge</w>
mul ti
experi ence</w>
coordin ation</w>
f our</w>
discus sed</w>
F o
re quest</w>
m ess
inclu ded</w>
spe ak
equ ality</w>
tu res</w>
tu al</w>
d ri
conclu sion</w>
re view</w>
pre pared</w>
ex tent</w>
competi tiveness</w>
W or
Med iter
add res
Mediter ran
tra di
s k
direc tion</w>
opport unities</w>
as soci
qu ick
el s</w>
amoun t</w>
adminis tra
tal k</w>
no te</w>
ec e</w>
e th
wee k</w>
su fficient</w>
streng then</w>
sib ilities</w>
al ong</w>
Mediterran ean</w>
s po
hear d</w>
g al</w>
d ent</w>
ch em
im medi
co st</w>
re ality</w>
li ving</w>
imple ment</w>
cri tic
rele v
con om
con fir
an c
E conom
p ack
ag rap
Fur thermore</w>
mode l</w>
circ um
Con ference</w>
o t
dem and</w>
le ar
rec ently</w>
farm ers</w>
wh ose</w>
v al</w>
sec u
appro ved</w>
Dec ember</w>
t ack
fin ally</w>
mo tion</w>
docu ment</w>
EU 's</w>
fel low</w>
connec tion</w>
suppor ted</w>
effec ts</w>
bil lion</w>
S um
cri me</w>
re jec
l ist</w>
justi ce</w>
e f</w>
inf lu
instru ment</w>
ic ally</w>
en able</w>
o ld</w>
nei gh
nat ural</w>
li ve</w>
a men
Re public</w>
absolu tely</w>
/ 9
s ;</w>
ru le</w>
n i
im e</w>
f ound</w>
comple tely</w>
capac ity</w>
Pal est
r ac
mar k</w>
gi ving</w>
enter pr
t reat
con cep
struc tural</w>
Bel ar
su s</w>
be gin
C entr
T O</w>
lan gu
exp lo
affec ted</w>
D E
p ed</w>
me dic
S u
Dem o
parlia mentary</w>
O f</w>
pre hen
ad d</w>
pre ven
he ad</w>
U N</w>
Econom ic</w>
quick ly</w>
pres sure</w>
technolo gy</w>
solu tions</w>
dec lar
d -
Sum mit</w>
Au stri
y on
representa tives</w>
w ise</w>
tr an
ther n</w>
on es</w>
en h
e ffici
al most</w>
s -
f ri
P or
Chin a</w>
refu ge
pro per</w>
ex cep
5 -0
su ff
con si
addi tional</w>
pa ti
ne g
E x
in fra
comb at</w>
t on
develop ed</w>
deta il
oc ca
in ed</w>
busin esses</w>
5 0</w>
emissi ons</w>
conclu sions</w>
con duc
Ger many</w>
1 5</w>
sim pli
lo t</w>
B r
prac tical</w>
consi dered</w>
mil itary</w>
discus s</w>
u tes</w>
org an
en suring</w>
e t
assess ment</w>
sh own</w>
pos sibility</w>
n or</w>
speci fic
cul ture</w>
su gg
par agrap
ev ents</w>
call s</w>
st ud
dis t
Par ty</w>
mit ted</w>
m y
is ely</w>
d ays</w>
be gin</w>
Por tu
off er</w>
li ance</w>
equ i
C ha
m p
j ud
o d
e li
discus sions</w>
a way</w>
t in
s is</w>
gr ound</w>
comm unity</w>
Fir stly</w>
1 3</w>
tran si
f oun
effec tively</w>
circum stances</w>
Inter national</w>
treat ment</w>
relev ant</w>
es tion</w>
c ause</w>
be h
an ds</w>
200 0</w>
crimin al</w>
ar s</w>
Fir st</w>
vers ity</w>
encoura ge</w>
( P
sc ope</w>
pa in</w>
c ros
bi o
appli ed</w>
un e</w>
re feren
il it
ex pect</w>
de leg
al ter
re ference</w>
inv es
w ar</w>
beh ind</w>
amp ai
car ry</w>
st ra
shor t</w>
remain s</w>
buil ding</w>
vi a</w>
pro pose</w>
com prehen
ci li
bro ad
conv inc
administra tive</w>
wast e</w>
f er
com ments</w>
accord ance</w>
w r
partn ers</w>
J usti
C y
T )</w>
Justi ce</w>
mess age</w>
des pite</w>
c ampai
vie ws</w>
pack age</w>
inves tig
disast er</w>
direc tly</w>
adop tion</w>
net works</w>
it arian</w>
hon ourable</w>
reduc tion</w>
bro ad</w>
ori gin
neigh bour
g rap
al loc
Str ate
hu ge</w>
finan cing</w>
difficul ties</w>
consider able</w>
cili ation</w>
competi tive</w>
auth ority</w>
ti tu
si x</w>
person al</w>
le ft</w>
ag ed</w>
recei ved</w>
his tory</w>
Af ric
stat us</w>
respon d</w>
c al</w>
begin ning</w>
U S</w>
ev al
ar gu
P act</w>
st ress</w>
Ag ree
yon d</w>
h ard</w>
gr ants</w>
e vi
tr ying</w>
ro o
rela tion
re mind</w>
consider ation</w>
S pan
sub stan
f -
conflic t</w>
con dem
avo id</w>
P ri
partn ership</w>
H uman</w>
pl an
know n</w>
contribu te</w>
aim ed</w>
rel ated</w>
he ad
cre ated</w>
t ro
g ent</w>
citiz en
ta tions</w>
e fficient</w>
am b
Demo cr
si mil
ligh ted</w>
is ts</w>
in stead</w>
acc or
M a
w anted</w>
missi on</w>
ac e
S er
No w</w>
reas on
1 0
wi de</w>
industri al</w>
exer c
B ri
prec isely</w>
for ces</w>
agricul ture</w>
DE )</w>
us sel
st ated</w>
ra ise</w>
Br ussel
n er
go es</w>
tis h</w>
provi ding</w>
om en
be yond</w>
particip ation</w>
go ods</w>
ann ual</w>
3 0</w>
independ ent</w>
w ill
ve red</w>
st om
g s</w>
ex per
cre d
R es
spe ech</w>
govern mental</w>
alter na
Pro g
M ay</w>
( DE)</w>
res olu
draw n</w>
col lec
success ful</w>
shor t
par ts</w>
medi um
fam ily</w>
B e
y n
promo ting</w>
for ced</w>
So cial</w>
un acceptable</w>
st op</w>
righ tly</w>
our s</w>
clo sely</w>
D ev
sp i
fo re
deal ing</w>
J une</w>
colleag ue</w>
St at
Constitu tion</w>
- si
requ est
pur pose</w>
S lo
Pe op
specific ally</w>
par ty</w>
deci de</w>
challen ge</w>
cap ital</w>
Span ish</w>
r ate</w>
l -
H e</w>
ne t</w>
ex ist</w>
S pain</w>
Pol ic
mat er
comb ating</w>
s al
refer red</w>
deman ds</w>
de st
d ers</w>
sen si
Palest in
pr ice</w>
el op
provi des</w>
ha gen</w>
fam ili
scienti fic</w>
res er
pro duce</w>
p aid</w>
he al
Gen eral</w>
Dev elop
spea king</w>
introduc tion</w>
in es</w>
cont ent</w>
allow ed</w>
comple te</w>
Brussel s</w>
min imum</w>
fac ilit
dis eas
de pend
alis m</w>
ag encies</w>
t op
ste ps</w>
o il</w>
my self</w>
enterpr ises</w>
pers ons</w>
subsi di
pro vision</w>
pl ans</w>
le gi
dis charge</w>
acti vity</w>
thin king</w>
over all</w>
seri ously</w>
fun d</w>
ex ac
th reat
satis fac
M on
2 5</w>
199 9</w>
se tting</w>
pr is
Strate gy</w>
sit ting</w>
inno vation</w>
his tor
So ci
C open
se t
candi date</w>
anti -
E ast</w>
re present</w>
re by</w>
am bi
st u
requi res</w>
Tur k
lo s
ju dic
impro ving</w>
adequ ate</w>
Centr al</w>
t :</w>
k en</w>
aim s</w>
Reg ulation</w>
Copen hagen</w>
wor d</w>
state ments</w>
inten ded</w>
direc tives</w>
aw a
ev ent</w>
con ference</w>
as e</w>
Polic y</w>
( E
pro cess
k ers</w>
iti ous</w>
ic s</w>
genu ine</w>
ear li
develop ments</w>
ac ks</w>
sc ale</w>
re in
strate gic</w>
pl en
medi a</w>
st o
D o
C z
Americ a</w>
long -term</w>
end or
emphas ise</w>
S ep
R u
s ession</w>
la ws</w>
di men
ref er</w>
re new
p t</w>
it ation</w>
commit ted</w>
( F
wr ong</w>
ra dic
high ly</w>
enti re</w>
du ty</w>
convinc ed</w>
bo o
H ow</w>
ty pe</w>
amb itious</w>
al ise</w>
Agree ment</w>
recogn ise</w>
li ves</w>
dis tribu
con sen
as pect</w>
Un fortunately</w>
R ules</w>
sy m
oper ate</w>
implemen ting</w>
f ying</w>
T ra
K o
Bri tish</w>
strength ening</w>
se par
mea sure</w>
legi tim
inter pre
happ en</w>
Bar ro
un fortunately</w>
ris ks</w>
ol s</w>
differen ces</w>
ur gent</w>
some times</w>
polic e</w>
dam age</w>
P aper</w>
Gre ece</w>
pr ices</w>
increas ingly</w>
des cri
analy sis</w>
an ia</w>
accor ding</w>
accep ted</w>
Belar us</w>
t on</w>
pend it
pen s
ack now
To day</w>
Develop ment</w>
sel f-
in s
simil ar</w>
alis ts</w>
tot al</w>
a vi
Sep t
Ch ris
pol lu
ex pendit
di versity</w>
ye ster
Europe ans</w>
discus sing</w>
ca used</w>
ad ap
regre t</w>
clo s
Sept ember</w>
O r
G e
po st
vo c
ul ture</w>
tain ed</w>
r ing</w>
pre ci
per spec
mon e
cre te</w>
P er
represen ts</w>
recei ve</w>
Al though</w>
ist ent</w>
impro ved</w>
cre di
any thing</w>
paragrap h</w>
lim ited</w>
achiev ing</w>
m ed</w>
ist an</w>
con crete</w>
know ledge</w>
infra structure</w>
comm er
an tly</w>
S e
re mo
man u
ear ly</w>
ad ded</w>
Ger man</w>
high er</w>
def ence</w>
ali ties</w>
P s</w>
te dly</w>
sta tis
o -
la un
expendit ure</w>
bo dies</w>
T r
tra ffic
respon sibilities</w>
recommend ations</w>
pres sion</w>
oun ds</w>
effici ency</w>
benef its</w>
un ion</w>
u te</w>
relation ship</w>
pre vention</w>
manu fac
main tain</w>
contr ary</w>
jo in</w>
char ac
becom ing</w>
wor l
titu de</w>
proper ly</w>
g re
commit ments</w>
bal anced</w>
ac ci
Th ir
produc t</w>
integr ated</w>
flexi bility</w>
b ack
plac ed</w>
loo king</w>
en ed</w>
N ations</w>
re turn</w>
consen sus</w>
suppor ting</w>
le 's</w>
produc ed</w>
lead ing</w>
ast ern</w>
v ol
tion ing</w>
prof es
l ay</w>
e asi
ann oun
-si zed</w>
introduc ed</w>
de li
day 's</w>
call ing</w>
w ish
op h
li ke
happen ed</w>
con centr
requ ire</w>
reg ime</w>
h ome</w>
f er</w>
en orm
deal t</w>
Rom a</w>
reduc ing</w>
/ 0
th ought</w>
earli er</w>
de fic
wat er</w>
suc ce
refuge es</w>
ow n
conclu de</w>
F ra
use ful</w>
un anim
l ess
we ap
st af
medium -sized</w>
establish ment</w>
establish ing</w>
wee ks</w>
ver s</w>
tr ation</w>
show s</w>
ri t</w>
pub lic
C har
A d
staf f</w>
ol er
ob viously</w>
inc or
contro ls</w>
t an
prac tic
buil d</w>
ar ing</w>
w it
sa ys</w>
des er
dang erous</w>
Mar ch</w>
ing ing</w>
intro duce</w>
er s'</w>
cri tical</w>
ch ec
centr al</w>
L u
En viron
me t</w>
ai l</w>
Cy pr
200 2</w>
spi rit</w>
k ra
In di
Cz ech</w>
B o
h ic
concep t</w>
con solid
U kra
u d</w>
op position</w>
happ y</w>
elec ted</w>
ar ran
S ome</w>
lea ve</w>
al one</w>
I s</w>
rapporteur s</w>
man ner</w>
f ron
enti rely</w>
cu t</w>
consul tation</w>
an ces</w>
a 's</w>
Prog ram
B ank</w>
w ants</w>
shi ps</w>
prob ably</w>
mar ks</w>
ex change</w>
auth or
200 3</w>
vo tes</w>
th ous
struc tures</w>
promo tion</w>
pos es</w>
neg ative</w>
m emb
form er</w>
for get</w>
clos er</w>
200 4</w>
( S
te red</w>
r ise</w>
fol low</w>
cros s-
ap preci
ve hic
un g
mone tary</w>
de pen
M ore
J anu
Ital y</w>
- up</w>
po or</w>
il st</w>
de ath</w>
No v
D ut
th reat</w>
out come</w>
in spec
human itarian</w>
Swe den</w>
lat er</w>
ever theless</w>
el se</w>
cu stom
N evertheless</w>
Barro so</w>
Minis ters</w>
sit u
pres s</w>
poli tici
comple x</w>
our ce</w>
l aid</w>
fo cus
w on
tr ust</w>
ti me
re member</w>
meth ods</w>
Wh y</w>
Cypr us</w>
worl d
who m</w>
ur ally</w>
eli min
d le</w>
Janu ary</w>
ele ments</w>
Tr ans
More over</w>
re ad</w>
pro por
lim it</w>
it able</w>
gi ves</w>
g or
d a</w>
construc tion</w>
R )</w>
B ul
con ciliation</w>
Wor ld</w>
N A
Af ter</w>
so -
o s</w>
ide as</w>
dom s</w>
b ru
me an
f lo
dra f
dis h</w>
ann ed</w>
we ak
s anc
i ve</w>
h er
fac ing</w>
be ar</w>
Ital ian</w>
in ation</w>
so- called</w>
ori al</w>
s cho
re -
gen ce</w>
fir stly</w>
ch ed</w>
ar ies</w>
O c
Dut ch</w>
ffe red</w>
com ment</w>
bi g</w>
ur ge</w>
ther wise</w>
subsidi arity</w>
h om
ap pl
ad s</w>
ve ments</w>
he ar</w>
advant age</w>
rejec ted</w>
recogn ition</w>
defin ition</w>
de g
alterna tive</w>
C i
r ying</w>
in s</w>
f a
V er
fri en
de ed</w>
W i
p pl
no ise</w>
Nov ember</w>
curren cy</w>
a head</w>
S ince</w>
Pri me</w>
y :</w>
h op
deb ates</w>
comprehen sive</w>
c oura
Fo reign</w>
stud y</w>
s en</w>
Ru le</w>
t -
b eral</w>
wel l-
s la
pen al
ke ep
i z
f all
decis ion
cred it</w>
ac qu
200 5</w>
resol ve</w>
govern ance</w>
exac tly</w>
eng en</w>
deg ree</w>
actu al</w>
Sch engen</w>
un able</w>
M one
In deed</w>
1 4
s mo
pu tting</w>
organis ation</w>
li es</w>
lar g
f all</w>
Mone tary</w>
B er
profes sion
f ec
Program me</w>
traffic king</w>
shi p
c at
attemp t</w>
V i
influ ence</w>
f l
transpa rent</w>
sug ge
st oc
se a</w>
dimen sion</w>
deleg ation</w>
com pl
co vered</w>
St ability</w>
open ing</w>
eas y</w>
Chris ti
sensi tive</w>
r un
posi tions</w>
f ar
enorm ous</w>
Council 's</w>
20 10</w>
tain ing</w>
regul atory</w>
organis ed</w>
com pens
E ven</w>
t reaty</w>
pro spec
elec tr
commit te
t ings</w>
re d
me rely</w>
grow ing</w>
fail ure</w>
K ing
Char ter</w>
l ling</w>
d i</w>
coun ter
chan ged</w>
Palestin ian</w>
t est</w>
dru gs</w>
as king</w>
L adies</w>
to ld</w>
practic es</w>
appe ar</w>
econom ies</w>
ce ment</w>
appli es</w>
Pro ce
per fec
meth od</w>
fin ance</w>
Oc to
Isra el</w>
wh at
langu age</w>
h y
exerc ise</w>
as h
Res earch</w>
strong ly</w>
incor por
bur den</w>
br inging</w>
I ra
institu tion</w>
(F R)</w>
j our
fe ar</w>
Octo ber</w>
pub l
ori gin</w>
f ish</w>
contain s</w>
S a
Qu estion</w>
ME Ps</w>
Environ ment</w>
Americ an</w>
Amend ments</w>
our ism</w>
lan tic</w>
g as</w>
fra ud</w>
declar ation</w>
ch ance</w>
Ge or
yester day</w>
independ ence</w>
ge ments</w>
g er
emp lo
c k
b ed</w>
t an</w>
plen ary</w>
inform ed</w>
es :</w>
M any</w>
ff ic</w>
desi re</w>
beli ev
(A ppl
sor t</w>
s ound</w>
manag ed</w>
co ver</w>
addres sed</w>
Sec urity</w>
peop les</w>
lo st</w>
ex pen
( The</w>
ver age</w>
liber alisation</w>
ge tting</w>
commer cial</w>
as ks</w>
Russi an</w>
ch e
Comm un
200 6</w>
wish es</w>
v ative</w>
territ ory</w>
la be
e y
decision -
5 %</w>
tu ally</w>
sa fe</w>
o logical</w>
i ght</w>
construc tive</w>
clar i
I I</w>
o ffice</w>
chil d</w>
G i
A ra
ren ce</w>
r ural</w>
gen der</w>
elec tion</w>
defin ed</w>
a z
a tic</w>
weap ons</w>
t ex
sub mitted</w>
s ent</w>
resol ved</w>
referen du
net work</w>
na me</w>
c al
S E</w>
recom men
memb ership</w>
in ding</w>
immi grants</w>
great est</w>
ati n</w>
under standing</w>
tra ffic</w>
speak ers</w>
re au
n orm
bo ard</w>
L atin</w>
Af gh
wor ked</w>
pres er
impro vement</w>
He alth</w>
ser ve</w>
reduc ed</w>
inclu des</w>
docu ments</w>
Portu gal</w>
repe at</w>
l ate</w>
Bel gi
grap h
cons istent</w>
com par
so ve
mi d
fac ed</w>
King dom</w>
ty p
recommend ation</w>
inten tion</w>
im possible</w>
a use
P o
situ ations</w>
s ources</w>
perspec tive</w>
Turk ish</w>
Ne ther
z one</w>
substan tial</w>
poin t
gr ate
con ver
ca me</w>
Min utes</w>
Geor gi
fail ed</w>
exten d</w>
4 -0
- European</w>
sp ent</w>
reason able</w>
expres sion</w>
est ern</w>
ause )</w>
adop ting</w>
Gre en</w>
Bul g
v an</w>
s chem
lead ers</w>
immedi ately</w>
comp any</w>
politici ans</w>
p at
oblig ations</w>
mechanis ms</w>
mar i
Pol and</w>
P ub
A m
qu e</w>
per man
la w
l in</w>
fi f
sec ure</w>
in stance</w>
grate ful</w>
en jo
employ ed</w>
de p
b rea
Nether lands</w>
J u
see m</w>
main ly</w>
invol ving</w>
fi gu
b inding</w>
ac ting</w>
1 )</w>
tar gets</w>
por ted</w>
di gn
Proce dure</w>
sid es</w>
si vely</w>
rac ism</w>
high light</w>
bu reau
d ents</w>
b loc
ari ly</w>
Thir dly</w>
super vision</w>
re ply</w>
ran ge</w>
e ing</w>
b arri
Tra de</w>
Swe dish</w>
Pub lic</w>
A s
y ed</w>
sur pr
s end</w>
ob st
lin ked</w>
for th
exclu sion</w>
es ;</w>
te le
mari time</w>
inten d</w>
follow ed</w>
de signed</w>
d r
c k</w>
am ic</w>
ul tim
m ber</w>
detail ed</w>
No s</w>
mee tings</w>
ma tic</w>
keep ing</w>
happen ing</w>
charac ter
Slo v
200 1</w>
sur ance</w>
mon th</w>
exis tence</w>
sanc tions</w>
b it
a ffairs</w>
S ub
H a
( H
sha red</w>
mor ning</w>
F e
B y</w>
see k</w>
figu res</w>
dang er</w>
cla im
at titude</w>
ari a</w>
technolo gies</w>
reli gi
emphas is</w>
con ven
campai gn</w>
at eral</w>
H ung
pers on</w>
guarante es</w>
ge o
ge ment</w>
care fully</w>
ast ly</w>
a k</w>
tack le</w>
si gn</w>
high -
P ak
M o
D an
1 4</w>
n e</w>
min ority</w>
man date</w>
ill ed</w>
flo or</w>
Afric a</w>
s on</w>
ou l
op posed</w>
glob alisation</w>
critic ism</w>
co -
200 9</w>
2 7</w>
sup ply</w>
se ts</w>
n ations</w>
like ly</w>
inclu sion</w>
in come</w>
determin ation</w>
Se a</w>
O b
t led</w>
gr anted</w>
correc t</w>
appro val</w>
vi r
st res
s ’</w>
n a</w>
compe tence</w>
anim al</w>
V ic
Bal tic</w>
tot ally</w>
qu ot
obst ac
mechanis m</w>
lim its</w>
h ous
dis ap
consum ption</w>
W TO</w>
U K</w>
ver si
oc cu
ju st
har m
gr ounds</w>
forth coming</w>
decision- making</w>
J o
C A
tru ly</w>
sequ ently</w>
r ates</w>
origin al</w>
mo bility</w>
low er</w>
inter vention</w>
expec ted</w>
exc es
d :</w>
U S
P P
L astly</w>
199 6</w>
vic e</w>
sign al</w>
b ad</w>
L A
E C</w>
recogn ised</w>
re alis
p ha
offici al</w>
hear t</w>
appropri ations</w>
A gen
20 20</w>
z er
under min
tu re
th u
go al</w>
d ings</w>
ad voc
sup ports</w>
ong st</w>
n ation</w>
leg ally</w>
harmon isation</w>
dis pu
am ongst</w>
G u
Commission ers</w>
(Appl ause)</w>
y ;</w>
propos ing</w>
mu tual</w>
ex emp
continu ing</w>
conduc t</w>
cap able</w>
b or
Ukra ine</w>
s per
li ons</w>
invol vement</w>
e ded</w>
N G
200 8</w>
t em
es tic</w>
custom s</w>
u c
tar get</w>
sup ple
or d</w>
ob vious</w>
expl an
emplo ye
coun tr
adminis tration</w>
Cha mber</w>
re ject</w>
produc ers</w>
invol ve</w>
ma x
loy ment</w>
ke t</w>
cho ice</w>
Ko so
( I
s ex
pre ad</w>
p ic
it ors</w>
h and
acc o</w>
rap id</w>
mi gration</w>
ele ment</w>
disast ers</w>
com ply</w>
any one</w>
C om
reg is
pa ren
equi p
cross- border</w>
credi bility</w>
cen tur
Bal k
ten ces</w>
gr ant</w>
famili es</w>
cons is
affec t</w>
Indi a</w>
the reby</w>
restric tions</w>
go als</w>
ga ve</w>
A n</w>
to co
thous ands</w>
sim ple</w>
offici als</w>
experi enc
Democr ats</w>
toco l</w>
to b
tal ks</w>
ser ies</w>
resolu tions</w>
pro sper
pass eng
ir man</w>
fisher men</w>
comm unities</w>
b ar
Austri an</w>
y '</w>
o l</w>
evi dence</w>
d yn
ac king</w>
whe re
tur ing</w>
re st
Wh ite</w>
G ree
y c
vo ice</w>
poli tics</w>
parlia ments</w>
n s</w>
f ru
deta il</w>
certain ty</w>
ca uses</w>
wh ilst</w>
th or
moder n</w>
expl ain</w>
committe es</w>
cen t
sto od</w>
see king</w>
safe gu
oper ating</w>
justi fied</w>
is tic</w>
h und
free doms</w>
c ate
M id
spe ed</w>
s ource</w>
l led</w>
d on
b anks</w>
Rom ania</w>
Fra mework</w>
tax ation</w>
spen ding</w>
over come</w>
mo bil
lo gy</w>
dom estic</w>
comp liance</w>
centur y</w>
att acks</w>
Ju ly</w>
ta tive</w>
ru ption</w>
ish ing</w>
intere sting</w>
Vic e-
( CO
nat urally</w>
judic ial</w>
im pose</w>
O s</w>
Christi an</w>
t asks</w>
fi gh
demonstr ate</w>
de e
tra vel</w>
pri l</w>
heal th
dic t
Y et</w>
Afgh anis
A pril</w>
Th ose</w>
Or g
Fe bru
E mp
D e
vie w
tob acco</w>
sol ve</w>
referendu m</w>
pl anned</w>
oph ob
ob tain</w>
monit or</w>
fac tors</w>
v ations</w>
u su
star ting</w>
row th</w>
nei ther</w>
lin k</w>
ing u
differen ce</w>
de ad
contin ues</w>
On ly</w>
D E</w>
1 8</w>
1 7</w>
val u
terror ist</w>
ru n</w>
in e
Mid dle</w>
G rowth</w>
vehic les</w>
statis tics</w>
de lighted</w>
T rea
Febru ary</w>
sub stances</w>
o t</w>
suff ering</w>
stand ard</w>
inter ven
eval uation</w>
constitu tional</w>
Koso v
EU -
t al</w>
sug ar</w>
on ing</w>
fac tor</w>
dest ro
conflic ts</w>
be ings</w>
at or</w>
appe al</w>
v ul
syst em
sib ly</w>
o therwise</w>
flexi ble</w>
d am</w>
as bour
Su ch</w>
Str asbour
200 7</w>
vol un
tra ge
sm all
s )</w>
min orities</w>
Str uc
Pro tec
wor th</w>
perman ent</w>
le tter</w>
ful f
ec u
S ME
F rom</w>
vis ed</w>
ti vity</w>
t ari
require ment</w>
protec ting</w>
pro te
no on</w>
mo ving</w>
l er</w>
demonstr ated</w>
ar ms</w>
Nor thern</w>
H i
to day's</w>
reflec t</w>
ev en
contin ent</w>
awa ren
S outh</w>
K ore
Gree k</w>
Afghanis tan</w>
1 3
ri es</w>
religi ous</w>
n or
m oun
impro vements</w>
immedi ate</w>
arran gements</w>
Struc tural</w>
Ira q</w>
t ou
star ted</w>
im posed</w>
exam ine</w>
Strasbour g</w>
E astern</w>
Chin ese</w>
A ud
1 6</w>
so le
ordin ary</w>
func tioning</w>
fir m
emer gency</w>
de lay</w>
A si
(P L)</w>
vul ner
vers al</w>
reach ing</w>
num erous</w>
equ ally</w>
encoura ging</w>
co ast
Trea ties</w>
Gi ven</w>
w in
propos es</w>
initi al</w>
di o
co t
appe ars</w>
will ing</w>
ver se</w>
representa tive</w>
intere sted</w>
exis ts</w>
Stat es'</w>
Fin an
Ac cor
tradi tional</w>
territ orial</w>
qu ali
prec ed
pe ace
associ ated</w>
Wi th
Wh ile</w>
Inter net</w>
sp ace</w>
re marks</w>
occa sions</w>
hol ding</w>
guarante ed</w>
expec tations</w>
ef ly</w>
determin ed</w>
ain ed</w>
NA TO</w>
Isra el
Agen da</w>
( C
writ ten</w>
m ing</w>
ex port</w>
effec tiveness</w>
def end</w>
D es
Ac tion</w>
su red</w>
play ed</w>
oblig ation</w>
al le
a red</w>
Pro di</w>
p il
h or
af ter
No t</w>
2 )</w>
u res</w>
opin ions</w>
man age</w>
hel ping</w>
distribu tion</w>
dign ity</w>
continu ed</w>
barri ers</w>
Soci alist</w>
stric t</w>
strate gies</w>
r ating</w>
is cal</w>
f requ
coura ge</w>
citiz en</w>
c ar</w>
pollu tion</w>
ment ally</w>
los s</w>
fe el
e ar</w>
con c
Constitu tional</w>
identi ty</w>
figh ting</w>
facilit ate</w>
conclu ded</w>
ul t</w>
particip ate</w>
im pression</w>
g one</w>
SME s</w>
Nor th</w>
L a
Fun ds</w>
Finan cial</w>
individu als</w>
ev ening</w>
d ro
Pak istan</w>
Accor ding</w>
su me</w>
pur poses</w>
person ally</w>
ill s</w>
i gn
gra du
gener ally</w>
f iscal</w>
depend ent</w>
(A 5-0
lin ed</w>
jec t:</w>
invest ments</w>
foun d
er ies</w>
emb r
draw ing</w>
decis ive</w>
ben e
awaren ess</w>
Bulg aria</w>
t oler
qu o
mo di
cla use</w>
T i
D en
tro l</w>
tra ding</w>
ti ally</w>
st re
plac es</w>
ph en
k a</w>
fin e</w>
ex tr
en ter</w>
easi er</w>
def en
J ap
F ish
v ess
re iter
pr ing</w>
phen omen
inno vative</w>
in form</w>
g la
g l
en try</w>
au tom
Emp loyment</w>
A L
sum m
plan ning</w>
oper ators</w>
op pos
fel t</w>
appl ying</w>
amen ding</w>
ag ing</w>
satisfac tory</w>
qu al
profession al</w>
o ffic
no ther</w>
gla d</w>
consis ten
chan ging</w>
Protec tion</w>
Le gal</w>
H ere</w>
A nother</w>
tur ned</w>
represen ted</w>
re alise</w>
pres ence</w>
por ting</w>
pay ments</w>
oper ations</w>
max imum</w>
gr ic
employe es</w>
com pati
anim als</w>
Kosov o</w>
En ergy</w>
Am ster
A gric
renew able</w>
or ation</w>
oc c
f ail</w>
en na</w>
an ting</w>
R O
Bud gets</w>
typ es</w>
pro hi
ne l</w>
lis ten
fir m</w>
do w</w>
d ates</w>
car s</w>
c ent</w>
alloc ated</w>
vis a</w>
techno logical</w>
sugg est</w>
qu anti
p un
no ti
ing :</w>
form ul
endor se</w>
de struc
b it</w>
S )</w>
ultim ately</w>
s in
request ed</w>
p ill
en abl
contain ed</w>
cont radic
compe tences</w>
Vice- President</w>
Sub ject:</w>
1 7
rei gn
realis tic</w>
oc cur
nation als</w>
e uro
199 7</w>
vess els</w>
te en</w>
sh oc
proper ty</w>
ob li
mon o
f are</w>
exam ples</w>
com plic
as sure</w>
appro ach
acknow led
Li ber
Georgi a</w>
E -
Commission ’s</w>
w arm
to p</w>
su spen
pursu e</w>
pow er
po l</w>
ou ble</w>
exper ts</w>
Austri a</w>
sur ve
process es</w>
f f</w>
el ds</w>
allow ing</w>
a verage</w>
Re port</w>
Des pite</w>
Amster dam</w>
vis ory</w>
tax pay
or al</w>
mater ial</w>
confir m</w>
att ack</w>
amoun ts</w>
LA F</w>
He ads</w>
what ever</w>
tre ated</w>
sel ec
pass ed</w>
legitim ate</w>
histor ic</w>
go t</w>
gen tly</w>
fi l</w>
c ro
appro ve</w>
am es</w>
M e
Dan ish</w>
separ ate</w>
secon dly</w>
re v
prosper ity</w>
im plic
exces sive</w>
er y</w>
defic it</w>
c ity</w>
al co
L am
Con sum
wel com
minis ters</w>
inf r
es tions</w>
diseas e</w>
cor ruption</w>
com men
ab use</w>
Fish eries</w>
know s</w>
ac ted</w>
ab ilities</w>
ab il
1 00</w>
preven ting</w>
moder n
is :</w>
bene fic
B as
spo ke</w>
pill ar</w>
p ath</w>
occa sion</w>
invol ves</w>
in t</w>
fe at
announ ced</w>
Ti be
4 0</w>
1 2
tem por
t elec
i ed</w>
func tion</w>
co decision</w>
vulner able</w>
strength ened</w>
sex ual</w>
happen s</w>
eth n
consider ing</w>
c au
Y ear</w>
H er
C ol
sub stance</w>
stan ds</w>
s ou
produc tive</w>
just ment</w>
firm ly</w>
exten ded</w>
er ation</w>
du ties</w>
collec tive</w>
ch es</w>
Th en</w>
welcom ed</w>
prepar ation</w>
or ies</w>
on ic</w>
mar ily</w>
inten ds</w>
gu i
ful fil</w>
ex ecu
believ es</w>
ab ol
In du
EC U</w>
A C
us h
tri c</w>
transi tional</w>
ra il</w>
ra ble</w>
pris on
lear n</w>
Commission '</w>
th an
respec ted</w>
eval u
es tim
vis it</w>
un less</w>
red und
pro ve</w>
perfec tly</w>
pe ti
W estern</w>
Euro pol</w>
(P T)</w>
tri ed</w>
spo ken</w>
resul ting</w>
il lu
i ans</w>
geo graph
contribu tions</w>
R o
Ara b</w>
strong er</w>
compens ation</w>
ar d
ab s
Vi enna</w>
Per haps</w>
M ac
stan tly</w>
fu el</w>
condi tion</w>
ch ing</w>
bri efly</w>
allow s</w>
S om
un ited</w>
pri marily</w>
im ports</w>
explo itation</w>
diseas es</w>
deb t</w>
b ia</w>
S y
M ol
Den mark</w>
succe ed</w>
r ound</w>
hous ing</w>
g ain</w>
ex ic
en for
descri bed</w>
de la
confir med</w>
be ha
M exic
M (
Aud itors</w>
x emb
won der</w>
tru th</w>
t ourism</w>
su ffici
roo m</w>
ou d</w>
high est</w>
equip ment</w>
c el
Lu xemb
B ec
und oub
tax es</w>
ne ver
mil lions</w>
ill ing</w>
ga p</w>
er 's</w>
defin e</w>
com pared</w>
cap it
appreci ate</w>
wor se</w>
sti mul
publ ished</w>
mor al</w>
manufac ture
ho od</w>
con stantly</w>
bi gg
199 8</w>
1 5
t ren
subsi dies</w>
op tion</w>
me at</w>
lo se</w>
fi elds</w>
enti tled</w>
bil ateral</w>
ad ly</w>
On ce</w>
pre -
ell ec
detail s</w>
coordin ated</w>
bas e</w>
b ers</w>
ar dis
Re gi
Org anis
I m
y a</w>
obstac les</w>
im ag
as sive</w>
vi g
under stood</w>
stu dies</w>
rel ates</w>
quali fied</w>
norm al</w>
neighbour s</w>
jour n
exten sion</w>
ethn ic</w>
dis tor
at tr
Ex ternal</w>
viol ations</w>
refer ring</w>
ophob ia</w>
fin ding</w>
en de
wom en
rec ord</w>
poli tically</w>
pli es</w>
int ellec
Peop le's</w>
Luxemb our
Balk ans</w>
B SE</w>
wa iting</w>
top ic</w>
sec re
satis fied</w>
la red</w>
high lighted</w>
ende av
cra ft</w>
att le</w>
Fin land</w>
20 13</w>
undoub tedly</w>
st able</w>
r ich</w>
ques tion
pri m
in a</w>
health care</w>
dru g</w>
co operate</w>
beha vi
wi de
si ze</w>
pre p
on going</w>
introduc ing</w>
industri es</w>
budge ts</w>
Pol ish</w>
Agric ulture</w>
19 8
quot as</w>
lin ks</w>
ific ation</w>
f air
cour t</w>
ac compan
T E
Con trol</w>
Bec ause</w>
us h</w>
safegu ard</w>
ri d</w>
reco very</w>
af for
advant ages</w>
Sec re
M c
z ation</w>
con ce
ce le
c ou
br ings</w>
alco ho
D o</w>
C ro
ur gency</w>
suff er</w>
stru gg
sa w</w>
rati fication</w>
pro ved</w>
peace ful</w>
p ass</w>
never theless</w>
bri ef</w>
Slov ak
In stead</w>
avi ation</w>
acc es
Sa fe
M or
F undamental</w>
Do es</w>
simpli fication</w>
pos al</w>
pleas e</w>
pl ant</w>
omm unic
mar ked</w>
difficul ty</w>
ci vi
ag ue</w>
abs ence</w>
A t
2 1</w>
wel fare</w>
tor al</w>
time table</w>
stoc ks</w>
some what</w>
play ing</w>
par tly</w>
negoti ating</w>
identi fy</w>
h an
clari fy</w>
buil t</w>
ass ess</w>
acci dents</w>
Hi gh</w>
199 5</w>
trans fer</w>
open ness</w>
i zed</w>
form ing</w>
behavi our</w>
S ol
speak er</w>
lat ter</w>
large ly</w>
is on</w>
farm ing</w>
care ful</w>
Luxembour g</w>
Consum er</w>
under taken</w>
pha se</w>
larg est</w>
is lands</w>
ha z
h ands</w>
form ation</w>
x im
ur gently</w>
trans -European</w>
se ven</w>
rati fied</w>
labe lling</w>
ins ist</w>
destruc tion</w>
ac cus
ab and
F or
A gency</w>
volun tary</w>
mater i
m ur
li ghts</w>
lat est</w>
il e
fi g
at lantic</w>
Inter governmental</w>
D anu
v ings</w>
suffici ently</w>
signific ance</w>
si l
oper ational</w>
main taining</w>
lead ership</w>
ex pan
co de</w>
campai gn
au d
P l
CO 2</w>
l ap
g y
form ed</w>
f our
en lar
cons ci
spec ies</w>
re ve
o ffered</w>
li beral</w>
langu ages</w>
ke pt</w>
interpre tation</w>
ed ings</w>
respec tive</w>
no ted</w>
m ass</w>
indic ated</w>
h ours</w>
gi ble</w>
gen e
dyn amic</w>
compe tent</w>
citizen s'</w>
acknow ledge</w>
absolu te</w>
Bud get</w>
z e
ur s
spe ech
sha dow</w>
point ment</w>
penal ty</w>
eth ical</w>
cri mes</w>
att ach
a stric
CA P</w>
B ur
tra gic</w>
telec ommunic
prec ise</w>
pl ants</w>
centr e</w>
argu ments</w>
B os
5 00</w>
vis i
th ly</w>
sugge sted</w>
sen sible</w>
re struc
re move</w>
pl om
per secu
mo re
hi c</w>
di ff
comp ul
car rying</w>
M al
F i
Danu be</w>
x ed</w>
wat ers</w>
st or
ra ising</w>
proce edings</w>
partn er</w>
negoti ation</w>
necess arily</w>
me ant</w>
man i
k in
dom in
Parliament ’s</w>
D P</w>
Cro ati
Ci tiz
Au th
1 9</w>
valu able</w>
v il
s ory</w>
ro r</w>
prepar ing</w>
phenomen on</w>
pay ment</w>
part -
jud g
is ion</w>
fig ure</w>
feel ing</w>
constitu tion</w>
concentr ate</w>
cl aim</w>
becom es</w>
as si
Inter nal</w>
- based</w>
ver sion</w>
su m</w>
st er</w>
prep are</w>
ir y</w>
in surance</w>
dist inc
Bud ge
(I T)</w>
wa it</w>
schem e</w>
ro -
regar ded</w>
lead s</w>
emb ly</w>
emb ar
de liber
consid ers</w>
comp li
cohe rent</w>
air craft</w>
Organis ation</w>
tele vision</w>
see ing</w>
run ning</w>
re ven
r ul
protec ted</w>
im pe
hon our</w>
h im
frien dly</w>
f und
can d
adv ance</w>
accoun ts</w>
Kore a</w>
Jap an</w>
1 6
set tle
on ia</w>
l eng
intellec tual</w>
et c</w>
di plom
affec ts</w>
Safe ty</w>
C ar
2 4</w>
regre t
oppos ite</w>
lis ten</w>
a po
T a
sustain ability</w>
supple mentary</w>
su rely</w>
sp ite</w>
p aper</w>
m em
ing ness</w>
electr onic</w>
deb ating</w>
compul sory</w>
compati ble</w>
cele br
associ ation</w>
G lob
F lo
pre viously</w>
peop le's</w>
min utes</w>
form al</w>
el se
civi li
Trans port</w>
L ast</w>
will ingness</w>
speech es</w>
pro secu
inv est</w>
h t</w>
great ly</w>
deb ated</w>
d ol
cris es</w>
c ally</w>
back ground</w>
S im
M us
E M
x en
tex ts</w>
regul ated</w>
il s</w>
de sign
c yc
NG Os</w>
Mar ket</w>
200 0
y er</w>
t a</w>
occu p
is ol
investig ation</w>
i ties</w>
fi es</w>
fac ts</w>
en vis
citizen ship</w>
amen ded</w>
US A</w>
R ec
M ore</w>
Al liance</w>
1 8
uni versal</w>
socie ties</w>
re vision</w>
re min
indic ators</w>
Ma astric
Co operation</w>
Auth ority</w>
2 2</w>
(H -0
ver y
success fully</w>
sp here</w>
sove reign
proce ed</w>
prim ary</w>
in ely</w>
implic ations</w>
i dly</w>
ex plic
cont act</w>
ag ency</w>
Union ’s</w>
Be fore</w>
( N
telecommunic ations</w>
signific antly</w>
regul ar</w>
ph y
oun d
m a</w>
her it
genu inely</w>
ad es</w>
a part</w>
W omen
Th urs
PP E-
Maastric ht</w>
D uring</w>
ur ban</w>
uni form</w>
scho ols</w>
conf ron
conduc ted</w>
c ore</w>
answ ers</w>
ai ly</w>
E very
Commun it
Ar e</w>
tion ally</w>
tar ge
t ably</w>
s ligh
respon ding</w>
produc ing</w>
ne ar</w>
lig ion</w>
him self</w>
frien ds</w>
conver gence</w>
con vention</w>
b l
ac tors</w>
O LAF</w>
Con sequently</w>
we alth</w>
tre a
thir d-
pos sibly</w>
parlia ment</w>
en ted</w>
de v
ap p
S i
Budge tary</w>
tur ning</w>
tu s</w>
trage dy</w>
tion ary</w>
sur vi
ra il
medic ines</w>
medic al</w>
laun ched</w>
heal thy</w>
head ing</w>
f em
ex tra
ex ports</w>
en er
ei ght</w>
deser ves</w>
d aily</w>
argu ment</w>
Slovak ia</w>
Portu gu
PPE- DE</w>
D ub
su ffered</w>
satisfac tion</w>
in equ
herit age</w>
gr anting</w>
gener ation</w>
fra g
enjo y</w>
b ir
addres sing</w>
C ulture</w>
B rit
than king</w>
t i</w>
restruc turing</w>
rap idly</w>
pos ing</w>
organ iz
more over</w>
ite ly</w>
int el
dis posal</w>
d ge</w>
compl ain
communic ations</w>
avo i
attemp ts</w>
E st
sum ed</w>
sk ills</w>
ne ws</w>
multi lat
low ing</w>
lear ning</w>
i ze</w>
he av
ff s</w>
enlar ged</w>
desi rable</w>
demo cr
constitu te</w>
b ra
Portugu ese</w>
Ha ving</w>
G DP</w>
C 5-0
2 3</w>
ver ing</w>
ter ri
tempor ary</w>
re ligion</w>
propor tion</w>
prog res
k er</w>
hel ped</w>
foun ded</w>
enti ally</w>
else where</w>
dec lared</w>
de als</w>
Wh ere</w>
V )</w>
Re presen
Mexic o</w>
Fo od</w>
C an</w>
w ine</w>
tribu te</w>
tradi tion</w>
some one</w>
s em
qu i
prepar ations</w>
manufacture rs</w>
main tained</w>
laun ch</w>
geograph ical</w>
deli ver</w>
condem n</w>
ar ticle</w>
adap t</w>
acci dent</w>
Asi a</w>
) )</w>
to w
re ci
ra di
open ed</w>
inter institutional</w>
h a</w>
con vic
a tically</w>
Israel i</w>
un fair</w>
tis ation</w>
ti se</w>
sym pa
sovereign ty</w>
qu ar
prospec ts</w>
op tim
in adequate</w>
fron ti
f unda
enfor cement</w>
emphas ised</w>
e ty</w>
d own
ar ch
Presid ents</w>
Ar men
v a</w>
too l</w>
rest ore</w>
off ers</w>
o g
j e
transi tion</w>
pa rent</w>
materi als</w>
legis lat
inequ alities</w>
fortun ate</w>
fav ourable</w>
embr y
alcoho l</w>
In vest
) :</w>
( Parliament</w>
wor rying</w>
wi der</w>
tu red</w>
streng th</w>
ser v
sa ke</w>
rela tively</w>
re loc
re ds</w>
ific ations</w>
identi fied</w>
i g
hop es</w>
du m
W est</w>
N at
Afric an</w>
si ght</w>
re ment</w>
determin e</w>
brea k</w>
b ly</w>
as sume</w>
an a</w>
Ne w</w>
C F
(N L)</w>
ut most</w>
us ers</w>
unanim ously</w>
st ant</w>
num bers</w>
n ia</w>
es ’</w>
es sions</w>
clar ity</w>
as es</w>
T w
focus ed</w>
consider ations</w>
cha irman</w>
Dub lin</w>
s pread</w>
phy si
obli ged</w>
o logy</w>
neighbour ing</w>
histor ical</w>
govern ing</w>
g ory</w>
enh ance</w>
deman ding</w>
With out</w>
S an
Al ban
sal es</w>
on al</w>
guarante eing</w>
ff ir
Thurs day</w>
Mol do
As s
y es</w>
reli able</w>
regul ate</w>
reflec ted</w>
re di
op tions</w>
mar ine</w>
k o
i m</w>
f loo
exten sive</w>
er r
di g
con tain</w>
ci ties</w>
char ges</w>
ad ver
acti vely</w>
sole ly</w>
request s</w>
rele ase</w>
pos sibilities</w>
penal ties</w>
m assive</w>
encoura ged</w>
do c
di ed</w>
declar ations</w>
d t</w>
comple ted</w>
all ing</w>
Th us</w>
w er</w>
sh r
s wi
s si
remain ing</w>
is land</w>
in ev
do or</w>
depen d</w>
d '
cho ose</w>
an ticip
ac cur
F ree
world wide</w>
t abl
s ch
remo ved</w>
n ess
mis take</w>
inf lation</w>
exten ding</w>
enabl ing</w>
d ;</w>
cru tin
Tur ke
E S
un il
ton n
st -
is tics</w>
i gh
c ell
ai j
K y
G al
Europe ’s</w>
Bo th</w>
wor thy</w>
s crutin
restric ted</w>
rapporteur 's</w>
pur cha
pro of</w>
ou gh
mar gin
infr in
il ing</w>
evi dent</w>
ev a</w>
cro ps</w>
ate dly</w>
arm ed</w>
applic ations</w>
achiev ement</w>
Y u
E I
C or
C le
Belgi an</w>
threat s</w>
see ks</w>
presen ting</w>
ne u
fron t</w>
d ouble</w>
cu ts</w>
complic ated</w>
are r</w>
ar ise</w>
Women 's</w>
W ill</w>
Peop le</w>
I ts</w>
Croati a</w>
2 8</w>
- scale</w>
to ols</w>
sub jects</w>
su itable</w>
power ful</w>
ne ts</w>
increas es</w>
in al</w>
exclu ded</w>
em ed</w>
b ing</w>
appro xim
affec ting</w>
Li beral</w>
F ed
Comm on</w>
3 %</w>
2 6</w>
wor st</w>
w ent</w>
ton om
scho ol</w>
sa vings</w>
re action</w>
propor tion
pati ents</w>
im m
cour ts</w>
con stant</w>
col lab
S to
3 1</w>
ti v
show ing</w>
sci ence</w>
r oun
poin ting</w>
play ers</w>
li e</w>
correc tly</w>
com pon
cho sen</w>
car bon</w>
applic able</w>
L at
Euro -
20 %</w>
women 's</w>
sup posed</w>
succe eded</w>
pr oud</w>
one -
fe wer</w>
coast al</w>
cle ar
ass ist</w>
U N
K ar
war ning</w>
vic es</w>
third- country</w>
sha pe</w>
rou te</w>
reiter ate</w>
ref ers</w>
qu iry</w>
op pose</w>
lan d
hund reds</w>
harm ful</w>
go sla
ec ological</w>
e ding</w>
depen ds</w>
dep th</w>
acces sible</w>
Yu gosla
Slo ven
H ome</w>
Flo rence</w>
Belgi um</w>
Al ger
A zer
6 0</w>
where as</w>
ti n</w>
t ance</w>
sub mit</w>
prof its</w>
pi ece</w>
ori z
larg er</w>
l en
issu ed</w>
fem ale</w>
experienc ed</w>
ci pl
c hap
air ports</w>
Soci alists</w>
N ice</w>
Indu stry</w>
usu al</w>
s ac
res pects</w>
pu rely</w>
ple a
n one</w>
extr a</w>
educ ational</w>
bureau cracy</w>
b on
Bos nia</w>
2 9</w>
repe atedly</w>
reflec tion</w>
post -
je op
in ary</w>
i ous</w>
fund ed</w>
fle et</w>
f low
easi ly</w>
dispu te</w>
cra tic</w>
at or
ambi tion</w>
Li thu
A sh
whe reby</w>
tis ing</w>
priv ile
pri or</w>
mo d
l ying</w>
inc enti
illu str
grap hic</w>
free ly</w>
finan ced</w>
fall s</w>
e 's</w>
dis cipl
con ser
chec ks</w>
T ime</w>
Par t
M er
Invest ment</w>
s cand
prom ised</w>
m ach
i k
dis abled</w>
comm un
buil dings</w>
Do ha</w>
Ch ech
ti l
sym bo
stres sed</w>
s cep
non e
lead er</w>
it or
im p
h ence</w>
famili ar</w>
contro lled</w>
ci vil
ann i
ad ing</w>
D ay</w>
wee k
under tak
tic les</w>
sugg estions</w>
stri ke</w>
short com
re vised</w>
none theless</w>
ni ght</w>
in st
he u
finan ces</w>
fe ed</w>
f al
econom ically</w>
e astern</w>
contribu ted</w>
consider ably</w>
alis ing</w>
a side</w>
D is
v ast</w>
tack ling</w>
t 's</w>
surve ill
see kers</w>
plea sure</w>
negoti ated</w>
g a</w>
fir e</w>
fac ilities</w>
en ta
de ep</w>
countr y's</w>
coun ter</w>
constitu tes</w>
boo st</w>
Sto ck
O l
H ar
Ci vil</w>
Ac c
wel comes</w>
vo te
tonn es</w>
terri ble</w>
targe ted</w>
roo ts</w>
p in
hol m</w>
hol ds</w>
extre me</w>
ess entially</w>
elimin ate</w>
be low</w>
b aij
ap parent</w>
an cing</w>
V an</w>
So vie
Represen tative</w>
Pro tocol</w>
Is l
Azer baij
0 s</w>
xen ophobia</w>
undertak ings</w>
un employed</w>
tra vel
t ell
surveill ance</w>
shortcom ings</w>
se l</w>
per su
pay ing</w>
ong side</w>
mean ing</w>
ins is
ho pe
gener ations</w>
excep tional</w>
d less</w>
chem ical</w>
c op
b ank</w>
at er
a -
x th</w>
view ed</w>
vers ary</w>
thor ough</w>
th -
sove reign</w>
s tic
rec all</w>
p ain
negoti ate</w>
indic ate</w>
hear ing</w>
fore most</w>
dri ving</w>
draf ted</w>
de tri
de ep
consequ ence</w>
Rom an
super visory</w>
prote in</w>
ol der</w>
inter governmental</w>
deser ve</w>
cl assi
be aring</w>
b ound</w>
ag g
G az
EU ’s</w>
trans actions</w>
strugg le</w>
st abil
res ear
re tain</w>
post pon
ou red</w>
man n</w>
int oler
incenti ves</w>
hol ders</w>
enh anced</w>
doub ts</w>
consisten cy</w>
b re
ad mit</w>
At lantic</w>
viol ation</w>
smo king</w>
s ought</w>
s cen
plac ing</w>
n ership</w>
multilat eral</w>
ign ore</w>
hon est</w>
fu sion</w>
for man
fer red</w>
de le
cate gor
Un der</w>
Glob alisation</w>
z ing</w>
undermin e</w>
thu si
sou thern</w>
small er</w>
s /
prom ises</w>
ob tained</w>
n esses</w>
import antly</w>
ic ity</w>
fair ly</w>
expl ained</w>
environ mentally</w>
depend ence</w>
defin itely</w>
c ast
ac ked</w>
Sovie t</w>
Part nership</w>
E qu
w age</w>
ti gh
sor ry</w>
settle ment</w>
pursu ed</w>
protec tion
en tered</w>
en shr
dis par
campaign s</w>
ad vice</w>
Ver heu
N ational</w>
J ust</w>
Democr at
20 0</w>
we ak</w>
sugg estion</w>
sh ore</w>
prom ise</w>
loo ked</w>
legitim acy</w>
lea ving</w>
join tly</w>
in sufficient</w>
har dly</w>
ha bit
gre en</w>
fir ms</w>
excep tion</w>
eng aged</w>
e :</w>
der ly</w>
character istics</w>
as ed</w>
ar ding</w>
after noon</w>
O ver</w>
Brit ain</w>
(S V)</w>
warm ly</w>
s pring</w>
respec ting</w>
recommen d</w>
ra ises</w>
per forman
harmon ised</w>
dela ys</w>
cle arer</w>
claim s</w>
candi dates</w>
b om
and a</w>
accompan ied</w>
ab or
S cot
Regi onal</w>
Li ke</w>
y ’s</w>
wat er
trans atlantic</w>
spen d</w>
represen tation</w>
regret table</w>
op s</w>
moun tain</w>
h oriz
h it</w>
el derly</w>
dist ingu
dig ital</w>
dec ades</w>
bigg est</w>
anni versary</w>
F ran
F ol
Cle arly</w>
t emp
sti pul
los ses</w>
inten tions</w>
inten sive</w>
g er</w>
g an</w>
fo res
ey es</w>
draf ting</w>
dec l
de a
cor por
cent res</w>
a fra
Hung arian</w>
E G
world 's</w>
statis tical</w>
res h</w>
rein force</w>
pro tocol</w>
peop le
out set</w>
off ering</w>
modi fied</w>
ic k</w>
heav y</w>
disap pointed</w>
dic tion</w>
coun t</w>
contr acts</w>
co vers</w>
bio diversity</w>
au tonom
as ser
afra id</w>
Stock holm</w>
C au
w ages</w>
v it
tren d</w>
trea ties</w>
simpli fy</w>
safe guar
resear ch
quo te</w>
organ ise</w>
hy po
en thusi
cre ates</w>
ambi gu
Som e
Democrat s)</w>
C an
( Christian</w>
sta ke</w>
re port
pu ts</w>
out standing</w>
on ed</w>
ne arly</w>
la me</w>
join ed</w>
gre enh
gradu ally</w>
fif th</w>
every body</w>
decl are</w>
d ent
cul tures</w>
broad er</w>
be long</w>
Pl an</w>
Dec lar
Ber lin</w>
wit ness
who le
un fortunate</w>
s low
p es
en tre
de pri
col lap
M an
In stitu
C er
) ]</w>
(A 4-0
we red</w>
tr ack</w>
sur roun
stre am
rel ate</w>
prospec t</w>
over -
inspec tions</w>
impe tus</w>
imag ine</w>
greenh ouse</w>
frequ ently</w>
expres sing</w>
dee ply</w>
consolid ation</w>
c am
b our</w>
a me</w>
R ome</w>
un necessary</w>
to -
te am</w>
t ;</w>
pursu ant</w>
peri ods</w>
l a</w>
in o</w>
h ouse</w>
grou p
enthusi as
cl ass</w>
chec k</w>
ban king</w>
approach es</w>
ab stain
Secre tar
N or</w>
Hung ary</w>
19 7
uni fication</w>
ref use</w>
re place</w>
pris on</w>
performan ce</w>
per pe
passeng ers</w>
ou se
m ag
m ac
li ability</w>
l acking</w>
g ain
found ations</w>
feren ces</w>
defin ing</w>
ali zation</w>
Ser bia</w>
L ef
Declar ation</w>
(E L)</w>
wide ly</w>
under stand
surpr ised</w>
ste el</w>
s port</w>
resolu tion
reser ve</w>
o red</w>
gor ous</w>
follow s</w>
experi ences</w>
ex ce
e ments</w>
dum ping</w>
demonstr ates</w>
comm it</w>
assess ments</w>
applic ant</w>
al in
Y es</w>
I L
under taking</w>
sligh tly</w>
prof it</w>
one theless</w>
n om
li min
judg ment</w>
hel p
gu n</w>
g are
explan ation</w>
experienc ing</w>
dev ast
credi ble</w>
connec ted</w>
chil d
accord ingly</w>
Secretar y-
S he</w>
N onetheless</w>
Gen eva</w>
Gaz a</w>
EM U</w>
6 )</w>
(CO M(
uni que</w>
redund an
re construction</w>
preven ted</w>
presid ent</w>
preser ve</w>
pic ture</w>
passeng er</w>
part- session</w>
less ons</w>
kin ds</w>
j ur
ir a</w>
incorpor ated</w>
exam ined</w>
es day</w>
distinc tion</w>
dis advant
b s</w>
ard ous</w>
an ge</w>
Y our</w>
W ar</w>
Verheu gen</w>
Mad rid</w>
Fol lowing</w>
C ub
visi ble</w>
vi able</w>
stoc k</w>
sign ing</w>
sever e</w>
sec tion</w>
reven ue</w>
requ is
reflec ts</w>
occur red</w>
mo b
la sting</w>
j un
it ems</w>
im es</w>
entre pre
dis cre
der og
M emb
Azerbaij an</w>
z a</w>
val ent</w>
th is:</w>
suspen ded</w>
st ree
reser vations</w>
rejec tion</w>
regar dless</w>
occ ur</w>
inc in
ig no
gener ate</w>
fu els</w>
di vision</w>
ch i
cal cul
ca using</w>
bureau cratic</w>
bo t
beli ef</w>
an -
al ongside</w>
al ed</w>
S w
Ash ton</w>
/200 1</w>
under line</w>
process ing</w>
mob ile</w>
haz ardous</w>
go v
flow s</w>
er t</w>
elec tric</w>
di ver
de dic
counter fe
con ten
cate gory</w>
be gan</w>
ar ti
Tibe t</w>
C E</w>
3 5</w>
whole hear
sp ir
schem es</w>
repe ated</w>
qual ifications</w>
ne x</w>
mul tin
min ute</w>
men ted</w>
im ported</w>
follow -up</w>
f resh</w>
expen sive</w>
eng age</w>
der ing</w>
cou ple</w>
contain ing</w>
consul ted</w>
basi cally</w>
b lame</w>
ar ising</w>
appe ared</w>
F our
sh oul
restric tive</w>
refuge e</w>
pre dic
new sp
mis sing</w>
marke ting</w>
jud ge</w>
a ther</w>
a p</w>
Ser vices</w>
San ter</w>
RO )</w>
F er
E very</w>
Dec ision</w>
( RO)</w>
ze gov
u gh
toler ance</w>
sh e
sa ve</w>
po o
poo rest</w>
pl at
medi um</w>
li tion</w>
le y</w>
k o</w>
ing ent</w>
i ved</w>
g ri
fl ag
f it</w>
exper t</w>
dict ator
con stra
bec ame</w>
ab sur
Tw o</w>
Ob viously</w>
Jo int</w>
Her zegov
(E S)</w>
wi des
se ar
radic al</w>
pres sing</w>
p al</w>
i um</w>
gare t
contro versi
cons ent</w>
confi dent</w>
cohe rence</w>
benefic ial</w>
be long
author isation</w>
W ell</w>
The ir</w>
An y</w>
Ad justment</w>
t '</w>
sympa thy</w>
p ra
on a</w>
help ful</w>
coordin ate</w>
condem ned</w>
comb ined</w>
cha in</w>
T A</w>
Ir an</w>
Fi f
Al so</w>
A p
y our
wides pread</w>
vir tually</w>
un certainty</w>
tw o-
st ay</w>
shor tly</w>
se x</w>
resul ted</w>
physi cal</w>
p ped</w>
o ting</w>
min im
lar s</w>
interven e</w>
exclu sively</w>
even tually</w>
congratul ations</w>
bor ne</w>
al ia</w>
T ourism</w>
S ingle</w>
D ef
Citiz en
w o
un ions</w>
te ach
pri ori
loo ks</w>
for um</w>
achiev ements</w>
ab uses</w>
I G
EI B</w>
EC )</w>
E duc
Al low</w>
wor ding</w>
soci ally</w>
re act</w>
promo ted</w>
pres sive</w>
per mit</w>
investig ations</w>
integr ate</w>
hop ed</w>
h our</w>
g row</w>
far -
expen se</w>
disadvant aged</w>
d ated</w>
con ve
ci garet
al -
Secon d</w>
Sch ul
I D
En gl
Ass embly</w>
with draw</w>
unanim ous</w>
un de
tradi tions</w>
tain s</w>
t reat</w>
sugge sts</w>
stat ute</w>
sign s</w>
sh aring</w>
ri fic
recei ving</w>
popul ar</w>
par alle
neu tr
m n</w>
k y</w>
k illed</w>
jeop ardis
in quiry</w>
im age</w>
employ ers</w>
embry os</w>
elec toral</w>
compe te</w>
clo sure</w>
ar re
accoun ting</w>
accep tance</w>
ac i
Sim il
P at
Lithu ania</w>
EG F</w>
sol ved</w>
sac rific
regis ter</w>
m ic
lo ans</w>
journ alists</w>
ing -
in ts</w>
four th</w>
electr icity</w>
do ssi
destro yed</w>
controversi al</w>
alloc ation</w>
ac ies</w>
U E
1 %</w>
/200 1)</w>
ter ing</w>
s low</w>
rec ru
per mitted</w>
particip ating</w>
organ ic</w>
listen ed</w>
li f
in i</w>
im posing</w>
ic als</w>
i or</w>
fu r</w>
defin i
deb ate
conser vation</w>
consequ ently</w>
cer ti
N S
E gy
your self</w>
val id</w>
to x
scrutin y</w>
presen tation</w>
persecu tion</w>
per cent
necess ity</w>
nation ally</w>
multi -
li d</w>
is ch
inten si
hund red</w>
fa ith</w>
enshr ined</w>
congratul ating</w>
co ins</w>
bu y</w>
b y
b attle</w>
agre es</w>
W at
Turke y's</w>
R en
Moldo va</w>
Herzegov ina</w>
Co he
/200 2</w>
vis as</w>
under take</w>
tan gible</w>
sy n
st ages</w>
res tim
mo ved</w>
minis ter</w>
justi fy</w>
ide al</w>
id ity</w>
i e
high lights</w>
fri end</w>
extra ordinary</w>
conven tions</w>
c ast</w>
ap pointed</w>
affor d</w>
M i
Isl amic</w>
H am
F ron
F isch
Cha irman</w>
8 0</w>
trans position</w>
t ten</w>
struc k</w>
sha res</w>
pl us</w>
person nel</w>
m ere</w>
listen ing</w>
il os
emer ging</w>
e ;</w>
cle an</w>
acqu is</w>
S te
M u
Europe '</w>
Educ ation</w>
C a
7 )</w>
we ight</w>
tion ;</w>
th res
so ever</w>
res istance</w>
pursu ing</w>
prohi b
prison ers</w>
pre fer</w>
pl ays</w>
paren ts</w>
h s</w>
for cing</w>
fail ing</w>
dang ers</w>
compar ison</w>
adv anced</w>
Sy ri
So lid
Ser vice</w>
P SE</w>
I M
Citizen s'</w>
B ra
wom an</w>
s inc
ru p
restric t</w>
redundan cies</w>
rea u</w>
produc tivity</w>
obser ved</w>
l ingu
ir ing</w>
inspec tion</w>
h es
focus ing</w>
f ast
ey e</w>
ex ha
ent y-
enc y's</w>
demo graphic</w>
dead line</w>
conven i
compar able</w>
claim ed</w>
bre ak
Solid arity</w>
S h
Mor occ
Con ciliation</w>
Cohe sion</w>
C ri
what soever</w>
ti tions</w>
sup pli
sub jec
re placed</w>
pre limin
ph ilos
p harm
l y-
imm unity</w>
har m</w>
fif teen</w>
feat ures</w>
f in</w>
f ast</w>
exemp tion</w>
e '</w>
dea ths</w>
contribu ting</w>
cont acts</w>
chan n
b ul
b es</w>
adequ ately</w>
acknowled ged</w>
Lef t</w>
F ree</w>
E ri
Def ence</w>
C am
Bar ni
As soci
terror ists</w>
t ac
t ability</w>
stu ffs</w>
short -term</w>
sen ding</w>
ro ads</w>
preven tive</w>
prelimin ary</w>
lig ent</w>
invest ors</w>
in ess</w>
be gun</w>
b lin
associ ations</w>
arri ve</w>
ambi tions</w>
H el
9 )</w>
6 -0
3 0%</w>
vehic le</w>
territ ories</w>
tal ked</w>
sub sequently</w>
st op
soci o-
sin ce
scienti sts</w>
ref used</w>
lu c
integr ity</w>
im port</w>
ess ence</w>
distribu ted</w>
defic its</w>
collab oration</w>
co w</w>
clar ification</w>
b ab
as sum
P ap
Morocc o</w>
L ab
Ky o
IG C</w>
199 4</w>
/9 8
- year</w>
( 1)</w>
w ing</w>
vari ety</w>
sit e</w>
sa d</w>
s at
ran ging</w>
pri me</w>
p ush</w>
ni um</w>
jun c
f la
f il
dis abilities</w>
commen d</w>
co vering</w>
and -
abo lition</w>
Union '</w>
Mo st</w>
Direc tor
3 0
- to-
y mp
unanim ity</w>
trans l
str ingent</w>
show ed</w>
re sumed</w>
re ported</w>
pi pe
oc ra
nor thern</w>
no body</w>
monit ored</w>
li fer
k i</w>
ep tion</w>
effici ently</w>
bur g</w>
attach ed</w>
Schul z</w>
R ural</w>
Ol ymp
Ac t</w>
2 1
transi t</w>
stud ents</w>
so lid</w>
recogn ises</w>
re p
noti ce</w>
n ers</w>
medic inal</w>
mar k
ga me</w>
found ation</w>
f ai
e u
dr in
d den</w>
comm issi
civili an</w>
ap pointment</w>
amen d</w>
ag eing</w>
absur d</w>
Secretary- General</w>
Kyo to</w>
I F
H ence</w>
Dem ocra
A bo
7 -
5 0
summ er</w>
stric tly</w>
sec tions</w>
se as</w>
reg imes</w>
referen ces</w>
re ver
rati fy</w>
p ush
mobil isation</w>
join ing</w>
it es</w>
incorpor ate</w>
harmon ise</w>
for go
fe d
fed eral</w>
dra matic</w>
divi ded</w>
cho ices</w>
chem icals</w>
cell s</w>
cel ona</w>
be ef</w>
acc el
Wh ilst</w>
M il
Engl ish</w>
Cy pri
Commun ist</w>
Centr e</w>
Bar celona</w>
' the</w>
wh el
vo ters</w>
ul ous</w>
sub sid
pen sions</w>
paragrap hs</w>
obser ve</w>
la ying</w>
func tions</w>
fronti ers</w>
f ran
ec o
dec entr
de ad</w>
cu tting</w>
co oper
benefic i
bas es</w>
ans wered</w>
S ta
Ob jec
ME P</w>
In formation</w>
E P
Col le
Associ ation</w>
Ar gen
- related</w>
( L
wholehear tedly</w>
where ver</w>
vig il
tack led</w>
sym b
re pu
re porting</w>
over whel
on -
mo tor</w>
manag ing</w>
long -
lifer ation</w>
jur is
horiz on
g ol
every where</w>
envis aged</w>
emissi on</w>
al leg
agg res
Pe titions</w>
O therwise</w>
Mac ed
Lab our</w>
Jo h
Communit y's</w>
Bu reau</w>
5 0%</w>
/0 2
z o
w in</w>
under lying</w>
unde restim
surpr ise</w>
su spec
sta ke
st ain</w>
s mu
re conciliation</w>
rac ist</w>
out lined</w>
no tic
mit ting</w>
low -
li ked</w>
k il
i red</w>
forgo tten</w>
far- reaching</w>
excep t</w>
dro p</w>
dec ent</w>
de voted</w>
de ple
conv ince</w>
chap ter</w>
ce iling</w>
arri ved</w>
Simil arly</w>
S pring</w>
O S
Nat urally</w>
Lat via</w>
E l
Democra tic</w>
B ro
Abo ve</w>
9 8
20 12</w>
/ EC</w>
z en</w>
un preced
tri es</w>
ti ous</w>
threat ened</w>
since rely</w>
res ource</w>
priv a
pre requis
paralle l</w>
omm issi
modern isation</w>
ke en</w>
im per
direc ted</w>
com pu
bloc k</w>
b anned</w>
atten d</w>
as h</w>
approxim ately</w>
accep ting</w>
Si xth</w>
Reg arding</w>
K ur
Every one</w>
(C NS
with draw
victi m</w>
usu ally</w>
smu gg
s outh</w>
ra tion
proportion ate</w>
off ence</w>
mis takes</w>
inst all
f ers</w>
ex changes</w>
emer ged</w>
dis tur
des per
dem ic</w>
bor n</w>
bal ances</w>
anc ell
advoc ate</w>
a ult</w>
Palestin ians</w>
Ch ancell
y outh</w>
work ers'</w>
ul f</w>
tor ture</w>
top ics</w>
ti ve
sm an</w>
sinc ere</w>
sch ed
s ale</w>
respon ses</w>
renew ed</w>
pro test</w>
poten tially</w>
perpe tr
paren tly</w>
one 's</w>
o m</w>
mo vements</w>
mean time</w>
ma p</w>
ish ment</w>
infra structures</w>
h in
f ought</w>
en abled</w>
desi red</w>
cyc le</w>
consolid ate</w>
as sets</w>
ad justment</w>
W ould</w>
Turk men
Chech n
C ap
Barni er</w>
A T</w>
y le</w>
ter inary</w>
tari ff</w>
recommen ded</w>
philos oph
perfec t</w>
pen sion</w>
off ences</w>
non- governmental</w>
mode ls</w>
mo tions</w>
ma y
li fe
lear ned</w>
it ably</w>
inter im</w>
initi ated</w>
exper tise</w>
eth ics</w>
estim ated</w>
e ts</w>
crimin als</w>
convic tion</w>
categor ies</w>
Yugosla via</w>
T ech
S peci
Mus li
Lu k
F ri
Cau ca
200 1
tun a</w>
resid ence</w>
ra d</w>
partn er
offic es</w>
n ine</w>
ment 's</w>
hand ling</w>
ha m
fulf illed</w>
den y</w>
defen ding</w>
dec ommissi
dam aging</w>
comprehen sible</w>
ap s</w>
ap ers</w>
an i</w>
accur ate</w>
a ;</w>
Mon ti</w>
4 5</w>
to day
taxpay ers</w>
st ory</w>
st at</w>
represen ting</w>
p ping</w>
ous ness</w>
it ly</w>
in habit
fe a
fail s</w>
evalu ate</w>
endeav our</w>
diplom atic</w>
broad cast
auth or</w>
ari ties</w>
abstain ed</w>
Th rou
Liber als</w>
B i
withdraw al</w>
w estern</w>
vis ing</w>
unpreced ented</w>
thous and</w>
surroun ding</w>
socio- economic</w>
sit es</w>
si an</w>
secre t</w>
sear ch</w>
research ers</w>
re a</w>
rail way</w>
org an</w>
led ge
ing '</w>
in sul
ho sp
g ross</w>
for war
fall ing</w>
exc ise</w>
equi valent</w>
e ds</w>
dri ve</w>
desi gn</w>
con fusion</w>
charac ter</w>
assess ed</w>
adver tising</w>
Th anks</w>
Sloven ia</w>
Palest ine</w>
M ari
Chancell or</w>
199 2</w>
(CO D
w on</w>
suc c
stric ter</w>
smo o
sched ul
safeguar ding</w>
s car
provi ders</w>
prec au
peti tion</w>
p sy
om en</w>
mi grants</w>
le ase</w>
in appropriate</w>
gu il
g ress</w>
exc use</w>
ed n
di e</w>
che ap</w>
c ope</w>
boo k</w>
ass es</w>
a str
W edn
Olymp ic</w>
C ould</w>
w ished</w>
tou ch</w>
s on
reduc tions</w>
po ly</w>
percent age</w>
occup ation</w>
mi grat
mean ing
investig ate</w>
inc en
fe ars</w>
exam ination</w>
elimin ation</w>
dis agree</w>
deleg ations</w>
debate )</w>
d on</w>
b a
author ised</w>
at ure</w>
al arm
ag ement</w>
Wh o</w>
P re
I S</w>
Armen ia</w>
- free</w>
tion :</w>
ta min
si t</w>
se at</w>
reci pro
poli es</w>
n ar
migrat ory</w>
m al
en e</w>
em pl
dispar ities</w>
democra tically</w>
cor responding</w>
constra ints</w>
compli ed</w>
co ast</w>
can c
b reach</w>
amp ere</w>
ad ic
V al
T ampere</w>
R el
Parliament ary</w>
Luk as
Chechn ya</w>
Alger ia</w>
4 8</w>
viol ent</w>
sub -
rit ten</w>
rele ased</w>
r ace</w>
pro cu
pr an
perspec tives</w>
offic ers</w>
n am
m its</w>
loc ation</w>
know ledge
justi fication</w>
inc redi
head s</w>
feat ure</w>
every day</w>
err ors</w>
cus sions</w>
coordin ating</w>
ast ro
ass is
alterna tives</w>
accus ed</w>
W ritten</w>
V itor
S ev
H ong</w>
Eri ka</w>
- General</w>
' no
tw enty-
tri al</w>
te sts</w>
sub sequ
stimul ate</w>
st ations</w>
st ation</w>
st ating</w>
prepar atory</w>
obser vers</w>
k ly</w>
horizon tal</w>
ho st</w>
h r
fo ot
f low</w>
excep tions</w>
es cap
er ror</w>
er adic
ell i</w>
divi de</w>
demon stra
consolid ated</w>
con tamin
complain ts</w>
collap se</w>
be l</w>
W omen</w>
Slov ak</w>
Mon day</w>
Gre en
G M
G 20</w>
Alban ia</w>
( debate)</w>
work force</w>
war m</w>
tre mend
ti mely</w>
sustain ed</w>
sen tence</w>
righ t
own -
ori ent
on ess</w>
o v</w>
o ts</w>
no tably</w>
n ic
min al</w>
g ases</w>
fi xed</w>
execu tive</w>
ei gh
dec reas
de part
conc essions</w>
cir cul
character ised</w>
ari ans</w>
air port</w>
V AT</w>
Ren ault</w>
H is</w>
G F
E co
Bar oness</w>
B on
( 2)</w>
tra in</w>
ter most</w>
ten s</w>
subsequ ent</w>
su pran
stic k</w>
sk i</w>
ship ping</w>
rein forced</w>
redund ant</w>
rea ffir
prom p
lin ing</w>
le -
inv ite</w>
in struc
human ity</w>
ex posed</w>
er a</w>
dent ally</w>
de regulation</w>
d atory</w>
contr ast</w>
concep ts</w>
be it</w>
b lo
attemp ting</w>
ar m</w>
am s</w>
al beit</w>
U z
Turkmen istan</w>
Parliament '</w>
M s</w>
s y</w>
s qu
reach es</w>
presen ts</w>
ou termost</w>
ob od
no tion</w>
mor t
li gence</w>
inter ference</w>
infrin gement</w>
incen tive</w>
in di
i de</w>
g ained</w>
cot ton</w>
b ill</w>
b acks</w>
ar ma
air lines</w>
adap ted</w>
Uz be
Sw obod
P lease</w>
Lukas hen
Free doms</w>
EC H
C 4-0
z z
w ai
vis ion
stand ardis
regul arly</w>
re r</w>
re alised</w>
presid ential</w>
pres cri
o do
o ci
neg lec
is ms</w>
inhabit ants</w>
igno red</w>
ide ological</w>
fur thermore</w>
facilit ating</w>
fac es</w>
explic it</w>
en tu
en ding</w>
differen tly</w>
diff er</w>
criter ion</w>
cl oning</w>
cat astro
be e
assess ing</w>
ace u
accoun tability</w>
L o
An y
A )</w>
7 0</w>
199 3</w>
/9 7)</w>
/ E
vo ca
versi ties</w>
v acc
ter ial</w>
str ö
st y</w>
spec tr
ris ing</w>
recogn ising</w>
r ant</w>
quot a</w>
procu rement</w>
po st</w>
pil lars</w>
pharm aceu
os ex
ne ur
min or</w>
mid -term</w>
leng th</w>
ke l</w>
it ment</w>
in side</w>
he avi
explo it</w>
es )</w>
doc tors</w>
dis astr
deli vered</w>
comprom ises</w>
b adly</w>
as pi
ali zed</w>
accel er
ac ce
W e
Un i
U )</w>
St ate
Peop le
K alin
Bas el</w>
B 5-0
199 0</w>
1 0%</w>
'no '</w>
year 's</w>
xi de</w>
tox ic</w>
tion '</w>
ta pe</w>
substan tially</w>
su ms</w>
stres ses</w>
stake holders</w>
sp ic
rec ession</w>
pres sed</w>
pre text</w>
pra g
p raise</w>
own- initiative</w>
our ing</w>
n ings</w>
n ames</w>
mono poly</w>
mea su
form ally</w>
er b
dre am</w>
disastr ous</w>
di c</w>
dead lines</w>
consul tations</w>
conclu des</w>
an xi
ac comm
W al
Po li
Eco fin</w>
( Rule</w>
with drawn</w>
us al</w>
tur ns</w>
tra de
ten ance</w>
ste in</w>
schedul ed</w>
ri gi
re viewed</w>
prof ound</w>
prev ail
pipe line</w>
mono polies</w>
mo tor
missi ons</w>
m me
l ers</w>
iz ation</w>
it ations</w>
ir responsible</w>
inter oper
inter -
initi ally</w>
fo rec
ev ol
emphas ises</w>
ear th
dispu tes</w>
decommissi oning</w>
deci ding</w>
dec line</w>
de pl
contro lling</w>
co inci
bur d
bio logical</w>
autom atically</w>
ation :</w>
asy mme
Objec tive</w>
O EC
Maced onia</w>
M ill
Kalin ing
CO M(
B ö
è s</w>
tex ti
ten d</w>
t less</w>
sup plies</w>
strö m</w>
simpli fied</w>
si x
shi ft</w>
sa ving</w>
ric h
ri gorous</w>
regul ating</w>
re per
r at
pass ing</w>
parlia ment
m ir
lea ves</w>
l iter
ke ts</w>
institu tion
inci dent</w>
imper ative</w>
hope fully</w>
hon est
gra titude</w>
funda mentally</w>
fe der
enterpr ise</w>
enter ing</w>
endor sed</w>
bir th</w>
as surance</w>
O ther</w>
G ra
Cauca sus</w>
Bas que</w>
9 0</w>
) 0
wh ol
unil ateral</w>
tele ph
st one</w>
sp are</w>
po sts</w>
p ace</w>
ob ject</w>
n it
intel ligent</w>
inci dents</w>
in- depth</w>
floo ds</w>
fall en</w>
expan sion</w>
di es
deter i
d ness</w>
contin uation</w>
c ard</w>
b ound
ar bit
Sh ould</w>
Pro secu
M ic
K )</w>
Fisch ler</w>
Euro stat</w>
Americ ans</w>
3 3</w>
(H U)</w>
vir tu
vic tory</w>
un it</w>
thres hold</w>
tan e
sub s
shoc ks</w>
self- employed</w>
read mission</w>
radi o</w>
ra w</w>
ra tional</w>
popul ations</w>
peri ph
on er</w>
o eu
man oeu
lis ts</w>
juris diction</w>
inter nationally</w>
indic ation</w>
gra de</w>
fel ong</w>
f ate</w>
entrepre neur
eas e</w>
e m</w>
dyn am
dis man
critic isms</w>
ch -
cat ch</w>
canc er</w>
br an
aud it</w>
att ach</w>
as tic</w>
Z im
With in</w>
W he
Pat ten</w>
J e
Ch ile</w>
Argen tin
AL DE</w>
ul ar</w>
u til
u stom
tor ate</w>
the re
tell ing</w>
tabl es</w>
sil ence</w>
res or
re mark
psy cho
pro ven</w>
preced ent</w>
pre judic
pr ud
p ir
org ans</w>
neighbour hood</w>
manoeu v
inv ited</w>
inform al</w>
inev itably</w>
fru it</w>
dri vers</w>
demonstr ation</w>
dec ade</w>
boo ks</w>
ban ning</w>
ar gue</w>
appreci ation</w>
ap parently</w>
analy se</w>
air space</w>
Vitor ino</w>
S P</w>
Re ding</w>
Liber ties</w>
I cel
D el
C ur
B us
Ag ainst</w>
3 4</w>
(S K)</w>
voca tional</w>
ti tle</w>
th ou
techn i
shoul der</w>
ship building</w>
sem in
resol ving</w>
re yer</w>
prohi bi
obstac le</w>
obser vation</w>
li qu
ir regul
incin eration</w>
in equality</w>
id es</w>
i v
hom osex
hel ps</w>
hal t</w>
gen oci
fulf illing</w>
fal se</w>
en sured</w>
disap pointment</w>
deman ded</w>
de lic
d '</w>
countri es'</w>
clear :</w>
ci ally</w>
appe ar
Sol ana</w>
Ira q
Fin ance</w>
4 0%</w>
tu mn</w>
tremend ous</w>
ten tion</w>
ser ved</w>
s ly</w>
ro b
re ti
ph r
open ly</w>
norm ally</w>
main tenance</w>
lis ted</w>
it ec
in land</w>
im prison
gui ded</w>
g ar
f r
expen ses</w>
dies el</w>
di a</w>
compon ent</w>
cau ght</w>
b lack</w>
b acking</w>
at mo
arch itec
ambigu ous</w>
abor tion</w>
Wedn esday</w>
Qu ite</w>
P a
L e</w>
Ham as</w>
E ach</w>
D e</w>
Cri minal</w>
Can ad
- and-
ó n</w>
y ers</w>
work place</w>
vote )</w>
ur an
tomor row
sim pl
reper cussions</w>
recru itment</w>
re pression</w>
public ly</w>
pro liferation</w>
prac tically</w>
pl ur
oper ates</w>
olu me</w>
mit tedly</w>
missi ble</w>
ma d</w>
fin ish</w>
explan ations</w>
ess or</w>
ell a</w>
ef ul
discipl ine</w>
differen ti
destro y</w>
den ied</w>
demonstra tions</w>
condem nation</w>
benefici aries</w>
avoi ding</w>
ash ion</w>
any where</w>
abol ished</w>
Sa har
Mal ta</w>
M S</w>
K ong</w>
I C
Gre ens</w>
G ulf</w>
Egy pt</w>
Cub a</w>
Con ser
Co de</w>
A b
A ID
4 00</w>
21 st</w>
/ 2
t ough</w>
supran ational</w>
so ld</w>
simpli fying</w>
scen ari
rul ing</w>
ref usal</w>
rec ord
re turned</w>
ra tions</w>
qu es</w>
princi pal</w>
partner ships</w>
p as
n ur
mer it</w>
mat ure</w>
man datory</w>
lingu istic</w>
less on</w>
leng thy</w>
govern ed</w>
gene tic</w>
gen ous</w>
funda ment
euro s</w>
estim ates</w>
consisten tly</w>
consci ence</w>
concentr ation</w>
centr alised</w>
ad verse</w>
T S</w>
Syri a</w>
Speci al</w>
Scot land</w>
Reg ul
K inno
Bra z
( EC)</w>
unic i
th row
success es</w>
so le</w>
s cre
resolution )</w>
postpon ed</w>
per ce
orient ation</w>
organiz ations</w>
mur der</w>
min ent</w>
min ds</w>
l or
in comes</w>
high- quality</w>
high- level</w>
h un
exam ining</w>
exac erb
ex pe
euro zone</w>
est er
earth qu
condi tional</w>
con ferences</w>
burd ens</w>
b be
au tumn</w>
ad vis
a ffai
S pin
Qu estions</w>
OEC D</w>
L on
Kalining rad</w>
I )</w>
Con gress</w>
An nex</w>
Acc ession</w>
( vote)</w>
won der
v olume</w>
un equi
stra ight</w>
se es</w>
ri g
prerequis ite</w>
om e
li t</w>
large -scale</w>
junc tion</w>
influ en
inf ec
indic ates</w>
il ed</w>
id ance</w>
i j
gradu al</w>
fe els</w>
explic itly</w>
en ded</w>
e di
dri ven</w>
dis advantage</w>
di versi
b y-
avoi ded</w>
autonom y</w>
ar rest</w>
accoun table</w>
T im
La e
I N
Colle ge</w>
Bur ma</w>
4 %</w>
20 11</w>
2 8
2 5
‘ no
witness ed</w>
t es
sh ar
s par
protection ism</w>
program ming</w>
pharmaceu tical</w>
on to</w>
obser vations</w>
objec tions</w>
n ally</w>
loc ated</w>
lo sing</w>
inspec tors</w>
in d
h um
gene tically</w>
expl ain
exemp tions</w>
encoura gement</w>
dossi er</w>
do ors</w>
dictator ship</w>
de tec
counterfe iting</w>
concentr ated</w>
comb ine</w>
collec tion</w>
clo sing</w>
brea king</w>
attr active</w>
ati vity</w>
ac compl
S ou
R ap
Lon don</w>
Lae ken</w>
B lo
A mon
/E EC</w>
thor ough
t ling</w>
system atic</w>
stri kes</w>
spec ulation</w>
sla ugh
sal aries</w>
s ai
requ iring</w>
remo ving</w>
remain ed</w>
pro p
preser vation</w>
pen ing</w>
origin ally</w>
ore r</w>
n t</w>
mom entu
mat ch</w>
manufac turing</w>
manufac ture</w>
ma kers</w>
li felong</w>
isol ation</w>
ing ;</w>
im plies</w>
hous es</w>
gr ass
genoci de</w>
fle ets</w>
far m</w>
f as
exclu sive</w>
ear marked</w>
du ly</w>
draf t
den oun
democr acies</w>
d ency</w>
coura ge
comple tion</w>
care er</w>
at ori
app alling</w>
an ce
Tech no
Stat ute</w>
Reg ion</w>
ME D
H ol
Fed eration</w>
E s
An n
A rea</w>
7 %</w>
4 )</w>
3 00</w>
2 %</w>
‘no ’</w>
uran ium</w>
um s</w>
tw ice</w>
trans fers</w>
trans action</w>
ta il</w>
t our
swi ft</w>
sp lit</w>
profession als</w>
po orer</w>
pil ot</w>
pes tici
na vig
n ish</w>
momentu m</w>
know ing</w>
it ative</w>
interpre ted</w>
inter f
integr ating</w>
influen za</w>
hom es</w>
hes it
han ded</w>
grow n</w>
gener ated</w>
g all
fra me</w>
follow s:</w>
emp ty</w>
dre w</w>
dist ance</w>
d il
critic ised</w>
com position</w>
c ell</w>
blin d</w>
b and</w>
alarm ing</w>
[ COM(
Y outh</w>
Thir d</w>
R ather</w>
Mac a
Gu ine
Gal ic
Council ’s</w>
0 8
vis ited</w>
uni versities</w>
un ch</w>
um b
tro ops</w>
trans ferred</w>
tow n</w>
thir dly</w>
system atically</w>
sec toral</w>
remin ded</w>
re mark</w>
progres sive</w>
organ ized</w>
ob taining</w>
notic ed</w>
mess ages</w>
mar gin</w>
mani fe
manag ers</w>
mach in
ligh ting</w>
knowledge -based</w>
ir respective</w>
in ju
in direct</w>
har dt</w>
fru str
focus es</w>
fi able</w>
explo ited</w>
explan atory</w>
expec ting</w>
enabl es</w>
elimin ating</w>
e able</w>
delic ate</w>
dedic ated</w>
b lu
arbit r
ar my</w>
a er
N ic
Four thly</w>
E ur
/200 0</w>
' t</w>
un like</w>
travel ling</w>
ther to</w>
th r
tain ly</w>
swi f
subs cri
subjec ted</w>
su spic
sel l</w>
run s</w>
re lative</w>
pr ic
pe ac
mer its</w>
mar king</w>
m unici
lo gic</w>
la ys</w>
interoper ability</w>
in directly</w>
f lu
enthusias m</w>
en ever</w>
emer ge</w>
ei j
di an</w>
cons ists</w>
confi d
com it
co ali
bigg er</w>
believ ed</w>
aspi rations</w>
as sured</w>
al ing</w>
To gether</w>
Par is</w>
PP E</w>
Cer tainly</w>
C re
19 6
/200 2)</w>
top ical</w>
ten dency</w>
sol ving</w>
si de
sh o
sa fer</w>
remo val</w>
re alities</w>
pos s
persu ade</w>
per cep
overwhel ming</w>
no tes</w>
mor atori
mod est</w>
mis sed</w>
m un
low est</w>
initi ate</w>
ill -
hy gi
human e</w>
heavi ly</w>
gor ously</w>
fa ult</w>
f ill</w>
di verse</w>
descri be</w>
corpor ate</w>
con junction</w>
char ged</w>
catastro p
ben ch
ban k
ation ;</w>
advoc ated</w>
ab road</w>
V el
Swobod a</w>
S up
S ak
S A
Re form</w>
Kinno ck</w>
Euro- Mediterranean</w>
Est onia</w>
E R
D u
3 2</w>
y r
y i
wit ness</w>
v on</w>
up date</w>
trans national</w>
ton ight</w>
ten sion</w>
te sting</w>
sen ds</w>
secon d
reve aled</w>
re mit</w>
pi ed</w>
peti tions</w>
par ad
p p
may be</w>
jud ges</w>
inno cent</w>
fo rest</w>
fin dings</w>
exis ted</w>
ex act</w>
dis gr
de par
d ar
cor ner
broad ly</w>
awa iting</w>
as sa
arma ment</w>
appl au
announ cement</w>
T er
Su stain
OS CE</w>
O p
Lukashen ko</w>
GM Os</w>
Fri day</w>
Con cer
Ch il
(C S)</w>
thin ks</w>
te x</w>
tari at</w>
t s/
symb ols</w>
str ange</w>
sign als</w>
serv atives</w>
sat ell
re luc
promo tes</w>
priva tisation</w>
pre- accession</w>
p oul
n -
mo ther</w>
m as</w>
lim iting</w>
judic i
jour ne
invest ing</w>
im peri
im men
for th</w>
fo od
f ashion</w>
don ors</w>
depri ved</w>
constitu ency</w>
col on
cha ir
be ars</w>
atmo sphere</w>
anis m</w>
alle vi
addres ses</w>
accep ts</w>
abol ish</w>
a me
Ver ts/
Ukra in
N i
N az
M ay
Li b
L D
Di men
Con go</w>
Asi an</w>
19 5
ver i
v es
un ite</w>
ultim ate</w>
u t</w>
symbo lic</w>
symbo l</w>
struc tured</w>
st up
smugg ling</w>
short age</w>
s ing
s hap
respon ded</w>
quar ters</w>
prof ile</w>
produc er</w>
plat form</w>
per form</w>
mo tiv
mem ory</w>
interven tions</w>
in spi
i a's</w>
i -
hygi ene</w>
graph y</w>
go od
fran kly</w>
fin ds</w>
fe ed
exer t</w>
detri ment</w>
continu ity</w>
com pr
cla uses</w>
cigaret tes</w>
chann els</w>
cam ps</w>
bro ken</w>
ar ticles</w>
adv ances</w>
Verts/ AL
V il
Sch reyer</w>
P i
P en
L an
I II</w>
G reat</w>
Dimen sion</w>
CF SP</w>
C hi
Ar ticles</w>
A R
200 7-
thou ghts</w>
ten ing</w>
tabl ing</w>
t ant</w>
swif tly</w>
spectr um</w>
s h</w>
remo te</w>
record ed</w>
rec eption</w>
re unification</w>
re productive</w>
re fra
quanti ties</w>
pre fer
nor th</w>
newsp aper</w>
mobil ise</w>
mee ts</w>
le t
it als</w>
irregul arities</w>
inv itation</w>
inev itable</w>
high lighting</w>
fla g</w>
fast er</w>
en ds</w>
detri mental</w>
cre ativity</w>
conveni ence</w>
contradic tion</w>
compens ate</w>
coali tion</w>
bri d
b one</w>
am ing</w>
all ed</w>
affai r</w>
Y ester
W all
Sy stem</w>
S port</w>
Roman ian</w>
G ar
Fron tex</w>
Fed eral</w>
A part</w>
/98 )</w>
/9 6)</w>
w ind</w>
v an
t ful</w>
survi ve</w>
sub stitu
safegu ards</w>
ri dic
res c
ra dio
proce d
prag matic</w>
posi tively</w>
plan et</w>
philosoph y</w>
own ers</w>
nation ality</w>
multi ple</w>
invest ed</w>
in k
in dis
hop ing</w>
gi r
gg ing</w>
g ers</w>
g aps</w>
er -
er '</w>
en sures</w>
demonstr ating</w>
defin ite</w>
de fe
c o</w>
be l
arre sted</w>
al ous</w>
aband on</w>
a ffir
Verts/AL E</w>
Throu gh</w>
T om
Per spec
N ext</w>
M os
Indu stri
4 0
3 )</w>
2 5%</w>
10 0%</w>
- ranging</w>
( B
z y</w>
wonder ful</w>
w is
to tal
st yle</w>
sec tor
ro les</w>
rev ise</w>
remark able</w>
re vi
pun ished</w>
proced ural</w>
per forming</w>
pen ding</w>
par tial</w>
obser v
me al</w>
m outh</w>
like wise</w>
integr al</w>
frag ile</w>
fo oting</w>
fic ial</w>
f t
f lights</w>
exclu de</w>
enh ancing</w>
en force</w>
de vote</w>
condem ning</w>
clari fied</w>
civil isation</w>
celebr ate</w>
busin ess
b acked</w>
arran gement</w>
ar ises</w>
ar is
administra tions</w>
ad he
Rel ations</w>
J er
H ague</w>
Ap pro
y ards</w>
x ity</w>
w ay
vit ally</w>
tow ns</w>
to m</w>
th ree
stor age</w>
spec ul
ser ves</w>
second ary</w>
rev olution</w>
referen da</w>
re conc
reconc ile</w>
question :</w>
purcha se</w>
pre dec
poul try</w>
por no
occu pied</w>
moratori um</w>
indic ations</w>
il le</w>
hi de</w>
he tor
h ne</w>
guil ty</w>
gener ous</w>
gain ing</w>
for ce
fin es</w>
du al</w>
dio xide</w>
di visions</w>
di min
comp are</w>
cha ir</w>
bon ds</w>
b ol
ass embly</w>
appropri ately</w>
addi tives</w>
ad just
ab sor
a ’s</w>
US D</w>
Spin elli</w>
S ud
S au
R ob
Ne t
C as
AC P</w>
6 %</w>
wor th
weak en</w>
v ague</w>
un its</w>
tren ds</w>
titu des</w>
threat ening</w>
ter ly</w>
t ori
survi val</w>
sur plus</w>
slow ly</w>
selec tion</w>
sal mon
s wit
s li
s l
s cr
ru pt</w>
ri d
ref using</w>
re verse</w>
r hetor
preser ving</w>
precau tionary</w>
popul ated</w>
poin t:</w>
ment :</w>
medic ine</w>
mac ro-
lim itations</w>
legislat ors</w>
install ations</w>
ing ton</w>
har d
fic ations</w>
f light</w>
encoura ges</w>
en ty</w>
em o
discrimin atory</w>
discre pan
comit ology</w>
c ross</w>
bi an</w>
awa it</w>
au c
ation '</w>
ar t</w>
ad ed</w>
ad ding</w>
P res
La w</w>
Icel and</w>
Fin nish</w>
Comm unities</w>
Citiz ens</w>
B ol
B l
8 0%</w>
ven ture</w>
uni vers
u ally</w>
stra igh
sto red</w>
st an</w>
sai d:</w>
ro g
pun ishment</w>
pat ri
particip ants</w>
p ays</w>
or ds</w>
o ther
no -
minis terial</w>
mil it
m ation</w>
liber ty</w>
k -
it ting</w>
issu ing</w>
ing -up</w>
in stability</w>
in shore</w>
h ur
gr as
far ms</w>
en nium</w>
e ast</w>
coun ting</w>
contribu tes</w>
connec tions</w>
compon ents</w>
com for
co verage</w>
bri dge</w>
be es</w>
apo log
an ese</w>
aband oned</w>
ab duc
a ke</w>
V en
UE /
UE/ NG
T O
T AC
S ar
Mill ennium</w>
G UE/NG
E quality</w>
Council s</w>
B an
4 2</w>
2 9
(A5-0 0
weak nesses</w>
understand able</w>
transl ated</w>
ter ror</w>
ter min
taxpay ers'</w>
surpr ising</w>
si a</w>
set tled</w>
sensi tivity</w>
sal ary</w>
rein forcing</w>
pro ves</w>
privile ged</w>
prev ail</w>
periph eral</w>
pen sion
op ens</w>
o x
mo ves</w>
manoeuv re</w>
log ically</w>
intoler able</w>
ing redi
infrin gements</w>
indi genous</w>
inc ap
hi therto</w>
foun ding</w>
fore stry</w>
fo ster</w>
fam ous</w>
f ts</w>
expres sly</w>
den ly</w>
d )</w>
contr act</w>
cle an
c attle</w>
blo od</w>
b at
al u
ag ger
Zim bab
Un til</w>
Regi ons</w>
N u
Mos cow</w>
Institu te</w>
Commission er's</w>
Braz il</w>
Balk an</w>
we b
v ary</w>
uni fied</w>
un satisfactory</w>
tis m</w>
ta r</w>
t ty</w>
summ its</w>
sub mitting</w>
su r</w>
spea ks</w>
so oner</w>
sim ul
separ ation</w>
sec uring</w>
salmon ella</w>
rou tes</w>
roo t</w>
respon ds</w>
regis tration</w>
rat ings</w>
rail ways</w>
qu ick</w>
pon ents</w>
par ti
out line</w>
om in
ment ;</w>
machin ery</w>
in stances</w>
h ouse
h n</w>
gui de</w>
gu es</w>
gra ve</w>
formul ated</w>
fores een</w>
fac ility</w>
ex agger
er o
dis tr
design ate</w>
depen ding</w>
deliber ately</w>
dat ab
d ating</w>
cre ative</w>
conve y</w>
c in
be t
appro ving</w>
appear ance</w>
aim ing</w>
agree ing</w>
adjust ments</w>
adap tation</w>
a '</w>
Yester day</w>
Tibe tan</w>
T un
R ev
Po et
P h
Le ban
Kore an</w>
3 9</w>
3 6</w>
ve terinary</w>
up hold</w>
stri ve</w>
stree ts</w>
stop ped</w>
sen ior</w>
se ment</w>
s ch</w>
prohib ited</w>
priv acy</w>
pre ferred</w>
oun ded</w>
ord ingly</w>
neigh bour</w>
mis leading</w>
meth odo
lo gies</w>
lear nt</w>
judici ary</w>
enjo yed</w>
ener gies</w>
ener g
defini tive</w>
convinc ing</w>
confir ms</w>
comple xity</w>
comple ment</w>
classi fication</w>
at titudes</w>
analy ses</w>
a i</w>
Su rely</w>
S ci
Perspec tive</w>
P u
Nor dic</w>
Mar tin</w>
L IF
Indi an</w>
Comm unic
An gol
Acc ordingly</w>
AID S</w>
4 4</w>
yester day's</w>
x ing</w>
wr ite</w>
wide -ranging</w>
wat ch</w>
w anting</w>
thorough ly</w>
t ants</w>
sin ki</w>
scand alous</w>
s essions</w>
restric tion</w>
relation ships</w>
recogn ize</w>
re formed</w>
presid encies</w>
pi ec
pens able</w>
nu tri
multi annual</w>
it or</w>
isol ated</w>
har ass
gu ard</w>
fo li
fin ed</w>
exha us
er s’</w>
enta ils</w>
devast ating</w>
deli very</w>
comple mentary</w>
bound aries</w>
bil lions</w>
b all</w>
at tribu
asymme tric</w>
anticip ated</w>
accompan ying</w>
Wat son</w>
Tur ning</w>
Sustain able</w>
Sau di</w>
S al
S C</w>
Prosecu tor</w>
P O
N either</w>
Hel sinki</w>
Guine a</w>
Euro control</w>
Equ al</w>
En largement</w>
Con servatives</w>
4 9</w>
200 2
) ;</w>
wh enever</w>
well- known</w>
vis ual</w>
ves sel</w>
ustom s</w>
ul ts</w>
tig li
them e</w>
the tic</w>
t s:</w>
t one</w>
ste ad
simul tane
se emed</w>
satis fy</w>
s son</w>
resid ents</w>
reser ves</w>
resc ue</w>
reloc ation</w>
re me
prop ag
port foli
p ity</w>
over coming</w>
ori ented</w>
oc k</w>
multin ational</w>
li ved</w>
laun ching</w>
intoler ance</w>
inten se</w>
inspi red</w>
indis pensable</w>
forec ast
elec torate</w>
ear n</w>
ear ing</w>
deple ted</w>
democra tisation</w>
cris y</w>
continu ous</w>
cont ra
comm em
co financing</w>
cen tu
ce as
bot tom</w>
b in</w>
avail ability</w>
at om</w>
al liance</w>
ad mi
Sev ille</w>
S add
Mon net</w>
Industri al</w>
H o
G ames</w>
E uro</w>
E A
Conser vative</w>
B lack</w>
4 7</w>
2 6
' The</w>
wor ried</w>
warm ing</w>
vest ock</w>
us al
unil ater
un clear</w>
tw el
th ro
ta il
st ag
speci fied</w>
resid ent</w>
radio active</w>
pic k</w>
pati ent</w>
o tive</w>
o dy</w>
l end</w>
l ag
jud ged</w>
journ alist</w>
identi fication</w>
hypo crisy</w>
har ov</w>
glob alised</w>
g ust</w>
flag s</w>
fac tor
exces sively</w>
enta il</w>
earthqu ake</w>
e z</w>
dis regard</w>
de ar</w>
courage ous</w>
confron t</w>
communic ate</w>
c yn
c ensure</w>
be au
ali ze</w>
ab le
Pe ace</w>
P ir
Mer co
Jer usal
Iraq i</w>
Green s/
Ger man
GUE/NG L</w>
EC O
Demo cracy</w>
C ustoms</w>
(F I)</w>
whol ly</w>
vo ices</w>
ti vation</w>
su d
sud denly</w>
stor m</w>
st a</w>
satell ite</w>
rejec ting</w>
regis tered</w>
recipro city</w>
re actions</w>
pro vo
parliament arians</w>
offici ally</w>
multin ation
ma il</w>
jeopardis e</w>
im balances</w>
identi fying</w>
harmon ising</w>
fai rer</w>
facilit ation</w>
fac tory</w>
execu tion</w>
du plic
distingu ish</w>
determin ing</w>
de emed</w>
d ur
cro p</w>
comb ination</w>
chec ked</w>
ch ose</w>
advoc ates</w>
acc ess
a ff
Th ree</w>
Some times</w>
S ky</w>
RO N
M ul
K ash
In iti
IL O</w>
D urban</w>
Canad a</w>
Bu t
Blo k
5 )</w>
3 3
199 1</w>
á n
vigil ant</w>
ve to</w>
under lined</w>
typ ical</w>
trans fer
tra -
tic ism</w>
ten ed</w>
te en
scenari o</w>
s enti
s ad
refra in</w>
re forming</w>
psycho logical</w>
prosecu tion</w>
proble matic</w>
pro v
pre mi
pestici des</w>
o zone</w>
mid dle</w>
mic ro-
mi xed</w>
meaning ful</w>
l ar</w>
ho sti
hand led</w>
ge ared</w>
fru it
fores e
fore sts</w>
f at
exp and</w>
excell ence</w>
escap e</w>
do g
dis covered</w>
dimen sions</w>
descri ption</w>
d or
cho o
cha mp
ari ous</w>
ari bbe
all s</w>
al ter</w>
U C
T V</w>
Sak harov</w>
RON TE
R ac
Poli tical</w>
Poet tering</w>
Merco sur</w>
Jerusal em</w>
J os
Fur ther</w>
Free dom</w>
D al
Concer ning</w>
Cha ir</w>
C aribbe
But tigli
Belar u
1 50</w>
/ 7
- wide</w>
war s</w>
w ro
ur ged</w>
tion s:</w>
stree t</w>
st ers</w>
sol di
shoc k</w>
sel ling</w>
se ats</w>
s adly</w>
rigi d</w>
ridic ulous</w>
resor t</w>
relev ance</w>
rec ital</w>
pursu it</w>
public ation</w>
pro vision
post p
postp one</w>
optim istic</w>
ob struc
no vation</w>
navig ation</w>
mani pul
li vestock</w>
k id
interpre t</w>
inform ing</w>
hi li
establish es</w>
ed :</w>
domin ant</w>
derog ations</w>
contradic tory</w>
constitu ents</w>
co ld</w>
child ren
chall eng
ch ur
c li
au l</w>
attr act</w>
attemp ted</w>
architec ture</w>
an ci
a sion</w>
Uzbe k
Ukrain ian</w>
Trans atlantic</w>
Greens/ European</w>
F RONTE
F I
EC SC</w>
EC B</w>
Caribbe an</w>
Ad minis
A id</w>
/0 0
x es</w>
work er</w>
wit zer
war nings</w>
wa ve</w>
undermin ing</w>
under stands</w>
trans formation</w>
tr ace
stup id</w>
st en
sha me</w>
s co
restric ting</w>
ren ation
recommen ds</w>
re rs</w>
re con
re :</w>
question able</w>
quanti tative</w>
qual itative</w>
propos al
prohibi tion</w>
proble m
pro active</w>
port ation</w>
po se
ow s</w>
optim ism</w>
o we</w>
mur dered</w>
multination als</w>
ment '</w>
mea sured</w>
lob b
legislat or</w>
l y:</w>
l ad
in security</w>
in ated</w>
in ability</w>
food stuffs</w>
extre m
es sive</w>
enti re
enc ed</w>
emphas ising</w>
diff ering</w>
deliber ate</w>
defen ded</w>
civili ans</w>
che aper</w>
celebr ating</w>
b reaches</w>
argu ed</w>
ar ded</w>
all -
acqu ire</w>
T u
T it
S witzer
S ever
No thing</w>
LD R</w>
H ouse
E v
E O</w>
E LDR</w>
C res
Argentin a</w>
Any one</w>
9 5</w>
zer o</w>
un resolved</w>
ul tural</w>
tun ately</w>
threat ens</w>
th row</w>
techni ques</w>
te sted</w>
soci alist</w>
seri ousness</w>
se ve
ri c</w>
repu tation</w>
rep air</w>
regul ators</w>
re integration</w>
publ ish</w>
prom ising</w>
prof itable</w>
pro -
pre me</w>
pli ed</w>
phr ase</w>
os is</w>
neutr al</w>
mi x</w>
mi tig
is ations</w>
incap able</w>
inc ur
h at
gu idance</w>
ex empl
entire ty</w>
en forced</w>
en comp
dom ain</w>
distor tion</w>
depart ments</w>
coun ts</w>
contro l
competi tors</w>
char ging</w>
c tic</w>
broadcast ing</w>
an o</w>
an en</w>
all y-
a ma
a be
Vi ol
Sadd am</w>
S m
R E
Pri ze</w>
Musli m</w>
Mari time</w>
Kur dish</w>
Gen er
G au
For tunately</w>
Bol ke
3 7</w>
/ 20
ä n
wro te</w>
us se
tra ined</w>
to ys</w>
ti ge</w>
th at
teleph one</w>
t- wing</w>
substan tive</w>
sil ent</w>
sha me
seve rely</w>
sc rap
s cour
rec ti
reas sure</w>
re ac
purcha sing</w>
pre m
ple :</w>
plan tation</w>
pan -European</w>
mo stly</w>
loc k</w>
law yers</w>
labe l</w>
l us
in compatible</w>
ide ology</w>
group 's</w>
formul a</w>
fel l</w>
er )</w>
end ers</w>
ear th</w>
depar ture</w>
contain ers</w>
ch e</w>
certi fication</w>
centu ries</w>
cal end
bo ld</w>
bio technology</w>
autom atic</w>
anti bio
alis tic</w>
ad visory</w>
Y or
W ash
W a
Vel zen</w>
S even
S an</w>
Gen der</w>
G 7</w>
Cypri ot</w>
Bulg arian</w>
7 -0
3 8</w>
3 5
2 7
year s'</w>
water way</w>
under -
um ul
thr ust</w>
thir ds</w>
ter 's</w>
summ ary</w>
subsidi ary</w>
stre am</w>
sla very</w>
ro l
ri ver</w>
recogn ized</w>
re t
re placing</w>
re plac
pre condition</w>
pers istent</w>
per mission</w>
people ’s</w>
pat ent</w>
organiz ation</w>
men ting</w>
mac ro
lic ences</w>
judg ments</w>
ingredi ents</w>
immen se</w>
g al
fra ud
formul ate</w>
feel ings</w>
fav oured</w>
f ab
exempl ary</w>
eli gible</w>
e k</w>
dra ma
distur bing</w>
dis armament</w>
dis ability</w>
derog ation</w>
defic i
d ged</w>
cu sto
cros sing</w>
co stly</w>
co st-
c at</w>
bu s</w>
bloc k
bl ack
belong ing</w>
aw arded</w>
attach es</w>
as set</w>
aris en</w>
ali ke</w>
ad ju
ac a
abol ishing</w>
Un less</w>
TE N
Sever al</w>
Pak ist
Lib ya</w>
I vo
H usse
G od</w>
F ac
F TA</w>
E lec
9 %</w>
4 3</w>
(COD ))</w>
ur it
under lines</w>
un justified</w>
tou gh
tou ched</w>
threat en</w>
suspen sion</w>
small -scale</w>
s log
rig our</w>
renew al</w>
reme dy</w>
reli ef</w>
rec our
re pressive</w>
public -
pris ons</w>
pres sures</w>
prejudic e</w>
pre ference</w>
porno graphy</w>
pl ed</w>
perce ived</w>
pain ful</w>
lin king</w>
l er
k new</w>
it ability</w>
in put</w>
in comprehensible</w>
il legally</w>
hy dro
homosex u
fronti er</w>
fl ying</w>
expres ses</w>
exerc ising</w>
er red</w>
er ly</w>
energ y-
dis advantages</w>
critic ise</w>
countr y
consul t</w>
conclu ding</w>
circul ation</w>
as m
am a</w>
alloc ating</w>
adap ting</w>
ad ays</w>
accomm od
Wor king</w>
Uzbek istan</w>
U g
T ri
Pro duc
Mc Cre
McCre ev
Li ik
I A</w>
Comm it
Col om
Ar ctic</w>
9 6
6 0%</w>
3 7
2007- 2013</w>
200 1)</w>
/02 ):</w>
z ones</w>
wel l
weak ness</w>
wa ke</w>
w al
vote :</w>
virtu e</w>
tw enty</w>
ten sions</w>
strate g
soldi ers</w>
so il</w>
ris en</w>
ri ties</w>
reti rement</w>
recour se</w>
quar ter</w>
pr on
pron oun
par ame
ophob ic</w>
op ponents</w>
op lan
occa sion
lia ison</w>
k m</w>
is m
ill nesses</w>
guar dian</w>
fea sible</w>
eng agement</w>
emp t</w>
em i
ed y</w>
e z
e vil</w>
draft sman</w>
d able</w>
cor rid
cooper ative</w>
conten ts</w>
chan ge
car ri
calend ar</w>
b ans</w>
auth ori
apolog ise</w>
any body</w>
al '</w>
aer oplan
Wash ington</w>
UC LAF</w>
Switzer land</w>
M ade
L in
Fer re
Every thing</w>
Eur atom</w>
D ru
CF P</w>
Buttigli one</w>
Bul l
wish ing</w>
well- being</w>
w ron
w il
ven s</w>
v ency</w>
trans mission</w>
trace ability</w>
tr oub
straigh t
smoo th</w>
sen ten
rhetor ic</w>
re ha
re consider</w>
produc es</w>
pro ving</w>
privile ge</w>
pr in
own ership</w>
ou lo
occur s</w>
n an
mort ality</w>
mo thers</w>
men tioning</w>
leg acy</w>
law making</w>
inno vations</w>
inju red</w>
in vo
i er</w>
gra ding</w>
for ma
fo ld</w>
equip ped</w>
elimin ated</w>
eful ly</w>
dol ph
do g</w>
deteri or
consolid ating</w>
compu ter</w>
capit alist</w>
Whe ther</w>
W o
Uni versal</w>
T oul
People ’s</w>
P lat
Memb ers'</w>
Lam ass
Ivo ire</w>
G AL
GAL IL
Di alogue</w>
Democr at</w>
Communic ation</w>
Commit te
Christi ans</w>
Chris t
6 6</w>
5 5</w>
(S L)</w>
yn n</w>
worth while</w>
witness ing</w>
wast ed</w>
v is</w>
v ate</w>
up dated</w>
u ght</w>
tun e</w>
trans lation</w>
tomorrow 's</w>
tion ality</w>
ster ity</w>
secon d-
s pre
s pon
run -up</w>
referendu ms</w>
recon cil
rec yc
re tained</w>
re stra
r um
r are</w>
piec es</w>
pers is
per mits</w>
organis ing</w>
on y</w>
om s</w>
ne sty</w>
mu tually</w>
macro economic</w>
k es
is s</w>
intensi fy</w>
ing 's</w>
infr ing
im balance</w>
gener ic</w>
gain s</w>
fri end
fo ot</w>
fin ished</w>
fi res</w>
equ ity</w>
en em
en ce
du le</w>
dr astic</w>
don or</w>
dis proportionate</w>
dis appear</w>
depl ore</w>
deli vering</w>
d in
consul ting</w>
citizen s’</w>
cap abilities</w>
b un
avi an</w>
auth ors</w>
atten ded</w>
ass ist
announ ce</w>
acknowled ges</w>
accus ations</w>
S und
Prog ress</w>
Presid ency's</w>
Par agrap
Nu clear</w>
Nor way</w>
Mer kel</w>
McCreev y</w>
Liik anen</w>
K az
In novation</w>
IM F</w>
I V</w>
GALIL EO</w>
Bolke stein</w>
Belaru sian</w>
Au gust</w>
8 9</w>
0 0
ung er</w>
undermin ed</w>
tr ouble</w>
throw n</w>
th o
texti le</w>
t ress</w>
strength ens</w>
some where</w>
sk y</w>
sign at
si c</w>
sh el
s m</w>
s an
request ing</w>
re tail</w>
quanti ty</w>
pro jec
pri ze</w>
preced ence</w>
politici an</w>
play er</w>
particip ated</w>
occur ring</w>
main stream
lob by</w>
li ft</w>
la stly</w>
k illing</w>
journe y</w>
insis ted</w>
ind ul
h unger</w>
h ul
gras p</w>
gi bility</w>
ge ar</w>
f est</w>
ever -
evalu ated</w>
er :</w>
empha si
ef s</w>
dis play</w>
destro ying</w>
dest abil
dep loy
continu ally</w>
at en</w>
applau d</w>
ang er</w>
al lies</w>
ag no
ad mitted</w>
ad just</w>
ab stain</w>
a )</w>
Yor k</w>
Ver y</w>
N ord
Me an
Made ira</w>
Har bour</w>
Govern ment's</w>
GF )</w>
FRONTE X</w>
E r
Dal ai</w>
C ô
Blok land</w>
A S
9 5
(E GF)</w>
wo od</w>
wh ite</w>
w est</w>
visi bility</w>
un realistic</w>
un certain</w>
toler ate</w>
to col
ti lation</w>
the -
th en
suppli ers</w>
stri ving</w>
stre t
simpl er</w>
self- determination</w>
selec tive</w>
se ize</w>
reve als</w>
respon sibly</w>
reha bil
publ ishing</w>
prom pt</w>
pri de</w>
pat ter
p apers</w>
ob sole
n y</w>
mu ch-
m uni
lus con
liqu idity</w>
l ity</w>
inter nally</w>
incor rec
in ven
il li
harass ment</w>
gr ound
func tional</w>
fir st-
expan ding</w>
ex cess</w>
eng ine
ell ed</w>
ech o</w>
e ste
domin ated</w>
distor tions</w>
dis agreement</w>
d ying</w>
d a
cop y
conduc ting</w>
con fine</w>
cha ired</w>
capac ities</w>
break through</w>
bio fuels</w>
be red</w>
bal lot</w>
b loo
au sterity</w>
as sumed</w>
anticip ate</w>
and /
an e</w>
am p</w>
alloc ate</w>
ali ve</w>
ad missible</w>
acqu ired</w>
ab ide</w>
Zimbab we</w>
U l
R ad
Ph are</w>
Per son
Paragrap h</w>
N I
M at
M ag
Le ague</w>
Jos é</w>
G arri
For um</w>
F ord</w>
Cô te</w>
Ber luscon
A R</w>
9 7
4 8
(L T)</w>
( the</w>
( 200
y ou
work able</w>
wis dom</w>
wel coming</w>
week end</w>
weap on</w>
v y</w>
v ill
v ac
ut terly</w>
trans posed</w>
ti a</w>
the red</w>
the ory</w>
tem per
taxpay er</w>
tan cy</w>
suspec t</w>
straight forward</w>
stipul ates</w>
stabil isation</w>
ship yards</w>
sa y:</w>
rob ust</w>
repe ating</w>
reason ably</w>
push ed</w>
promp tly</w>
preven ts</w>
plen ty</w>
pleas ant</w>
pan demic</w>
oun ding</w>
om et
omet res</w>
noti fication</w>
mis s</w>
lo op
kil ometres</w>
intel ligence</w>
incredi ble</w>
inclu sive</w>
in spir
gui ding</w>
gir ls</w>
gall ery</w>
fruit ful</w>
frequ ent</w>
fail ures</w>
eng aging</w>
endeav ours</w>
en ci
drama tically</w>
deliber ations</w>
dee pening</w>
dec ides</w>
cur y</w>
claim ing</w>
ce ly</w>
bloc ked</w>
approach ing</w>
any way</w>
an 's</w>
alleg ed</w>
al together</w>
al ert</w>
ad mission</w>
a :</w>
W el
Toul ouse</w>
T ali
Rac ism</w>
R oc
O ver
N ob
Mu ch</w>
Mean while</w>
Lo o
Lam a</w>
Kar as</w>
I P
H u
Go als</w>
Europe -wide</w>
Council '</w>
Christ mas</w>
B ush</w>
Angol a</w>
4 6</w>
1 1
- month</w>
z -
w all</w>
viol ated</w>
under ing</w>
un desirable</w>
u sted</w>
tari ffs</w>
sur ances</w>
strong est</w>
stres sing</w>
so f
scen e</w>
s w
s mar
rest oring</w>
res ist</w>
rec over</w>
priori tise</w>
persecu ted</w>
par tially</w>
p id
obsole te</w>
liber ties</w>
leg ality</w>
it y:</w>
is s
investig ated</w>
int ent</w>
individu ally</w>
i ka</w>
ho c</w>
hear ings</w>
ha b
g ar</w>
finan cially</w>
es cal
emplo y</w>
embar go</w>
ed ;</w>
econom ics</w>
distingu ished</w>
den omin
d- looking</w>
d' Ivoire</w>
d' An
d'An con
cros s
coun tered</w>
conce al</w>
co al</w>
challeng ing</w>
broad band</w>
beli efs</w>
be e</w>
barri er</w>
b ord
and/ or</w>
and 's</w>
analy sing</w>
an der</w>
alo gues</w>
ad jour
Wall ström</w>
T or
Sec tion</w>
Russi a's</w>
Pal aci
J ean</w>
Is lands</w>
Govern ments</w>
Galic ia</w>
Fra ga</w>
Con ven
B or
9 /
20 15</w>
1 5%</w>
( D
yon ic</w>
water ways</w>
vo ic
vo d
ur a</w>
up held</w>
uni versity</w>
tun nel</w>
transfer ring</w>
them es</w>
tempor arily</w>
t s'</w>
suspic ion</w>
super vis
succ essive</w>
substitu te</w>
su n
sh ed</w>
secu red</w>
se as
s che
rul ed</w>
ron t</w>
reci pi
profes sions</w>
pric ing</w>
p assive</w>
op oulo
new ly</w>
nation alism</w>
mu tilation</w>
motiv ated</w>
moder ate</w>
min ors</w>
min e</w>
man kind</w>
macro- economic</w>
lu ck</w>
let ters</w>
law ful</w>
kid n
independ ently</w>
hor ri
han dic
follow ing:</w>
fi ve
entrepreneur s</w>
embr yonic</w>
eli gibility</w>
du bi
dubi ous</w>
dra ws</w>
dio visual</w>
desper ately</w>
defini tions</w>
copy right</w>
concer ted</w>
cat ches</w>
bloc king</w>
belong s</w>
autonom ous</w>
autom otive</w>
ate -General</w>
ast on
arbitr ary</w>
ang en</w>
allow ances</w>
ai ds</w>
ad ult</w>
Yugosla v</w>
Tim or</w>
Sup port</w>
Sund ay</w>
Person ally</w>
Org an
Leban on</w>
L angen</w>
Jap anese</w>
H as</w>
Gau z
G r
FI N</w>
F on
ER T
ECO FIN</w>
Cypri ots</w>
A th
A S</w>
1 20</w>
wi d
war rant</w>
w ines</w>
ve ge
tri alogue</w>
trade mark</w>
tocol s</w>
tim ately</w>
ti ght</w>
the at
techn ically</w>
te ams</w>
tan kers</w>
t s;</w>
sub ordin
standardis ation</w>
spe edy</w>
sligh test</w>
she ep</w>
secre tariat</w>
se g
ru b
rev olu
reser ved</w>
rec ords</w>
rati o</w>
quo ted</w>
pul l</w>
process ed</w>
por ters</w>
plat forms</w>
perman ently</w>
our e</w>
o ce
n el
n ai
mil k</w>
ment s:</w>
me t
lob by
li hood</w>
la yer</w>
inci dentally</w>
in k</w>
in he
he l</w>
hat red</w>
hand le</w>
ga tives</w>
fisher y</w>
ex pi
es c
ep ide
emer gence</w>
eigh bour
e th</w>
dru g
dri ft</w>
discrimin ate</w>
dis played</w>
dela yed</w>
def ec
con fined</w>
compati bility</w>
choo sing</w>
cau tious</w>
cau tion</w>
ber t</w>
bee keeping</w>
b a</w>
ar te
ann ually</w>
ann ex
ang le</w>
anci ent</w>
ali gn
ad vised</w>
ab sent</w>
Stat es’</w>
Sahar a</w>
S en
Ru ij
Rom pu
O omen
O m
Nob ody</w>
N eighbour
MED A</w>
L ev
Kaz ak
J acqu
H on
Del ors</w>
Cap ital</w>
B ang
Alger ian</w>
7 00</w>
ö r
wor sen
vo cal</w>
us er</w>
unilater ally</w>
t ine</w>
suppli ed</w>
subsid y</w>
su stain</w>
so far</w>
serv ants</w>
sen tences</w>
se ven
scr up
sa ved</w>
s we
reason ing</w>
re vising</w>
re turning</w>
re stored</w>
pu ty</w>
presid ency's</w>
posi t</w>
pl ying</w>
percep tion</w>
pen e
p reg
organis ms</w>
op t-
newsp apers</w>
mo des</w>
mi d</w>
mer gers</w>
max im
lif ting</w>
la m</w>
introduc es</w>
interf ere</w>
har der</w>
factor ies</w>
educ ated</w>
e red</w>
dynam ism</w>
don ation</w>
dis placed</w>
di agno
deal ers</w>
conf used</w>
conce iv
cl asses</w>
chap ters</w>
c s</w>
bru tal</w>
are ly</w>
appreci ated</w>
applic ants</w>
antibio tics</w>
after wards</w>
ad ds</w>
acti vis
a por
Wh at
UE N</w>
S pe
S il
S M
Regul ations</w>
R C</w>
Oomen -
Oomen- Ruij
Neighbour hood</w>
N P</w>
Jacqu es</w>
Im ple
Ha ar
Environ mental</w>
El les</w>
ECH O</w>
E ar
Bull mann</w>
Bl air</w>
B yr
A le
8 %</w>
4 6
web site</w>
war n</w>
underestim ate</w>
un ambiguous</w>
ty res</w>
trans plantation</w>
total itarian</w>
tim ber</w>
ther ing</w>
teen th</w>
sum mar
sti g
ste pped</w>
set tle</w>
sche dule</w>
scand al</w>
ri al</w>
reve al</w>
prosper ous</w>
propag anda</w>
po c
par amount</w>
on 's</w>
oblig atory</w>
ne o
mic ro
insis ting</w>
in ations</w>
imperi alist</w>
im position</w>
gener ating</w>
ge red</w>
form ity</w>
forecast s</w>
floo ding</w>
enorm ously</w>
empha size</w>
e at</w>
dol lar</w>
disap pointing</w>
dis cover</w>
dele ted</w>
dee ds</w>
dar k</w>
d are</w>
cul min
con dol
comple ting</w>
co existence</w>
ce ase</w>
cal m</w>
bu ying</w>
bi d</w>
benef ited</w>
be er</w>
au diovisual</w>
assis ted</w>
ar isation</w>
aggres sive</w>
a qu
Ta king</w>
Som alia</w>
Secre tary</w>
Sci enti
Ri o</w>
Re hn</w>
Qu arte
P os
Or der</w>
O r</w>
L ul
I CA
Gauz ès</w>
Fif teen</w>
EC R</w>
Be sides</w>
Ath ens</w>
Armen ian</w>
7 0%</w>
4 1</w>
3 6
(I NI
wron g
we igh
viol ate</w>
under way</w>
u li
tes ti
tell s</w>
teach ers</w>
t reating</w>
t ing:</w>
suspen d</w>
sup port
spre ading</w>
speak er)</w>
spar sely</w>
socie ty
sh op
sc ore</w>
ro ad
report 's</w>
ren tly</w>
re patri
ra pe</w>
pre tty</w>
pre ferences</w>
parame ters</w>
ow ing</w>
ow ed</w>
op ted</w>
no where</w>
mon th
modern ise</w>
mobil ising</w>
min es</w>
methodo logy</w>
mer cury</w>
li ve
less ly</w>
l acks</w>
ke e
it ted</w>
incorpor ating</w>
in sofar</w>
har sh</w>
glob ally</w>
feed ing
f re
excep tionally</w>
er able</w>
eng ines</w>
en large
en countered</w>
embry o</w>
el ite</w>
ed ge</w>
drin king</w>
dri ft
discre tion</w>
dis semin
diplom acy</w>
dil em
devast ated</w>
depend ency</w>
dam aged</w>
cont empt</w>
compli ment</w>
complain t</w>
commer ce</w>
collab or
begin s</w>
author itarian</w>
aca demic</w>
a ren
a pe
What ever</w>
Wh ich</w>
UN H
Op port
K au
Is lam</w>
H au
Ge b
G or
Ev ans</w>
D ar
Co x</w>
Cam bo
Bi o
B R
Ara bia</w>
Afgh an</w>
6 00</w>
5 6
/9 7</w>
ü s
y es'</w>
vis its</w>
vi gorously</w>
un likely</w>
trans late</w>
th es
sur face</w>
sum ption</w>
stu died</w>
stor ms</w>
scour ge</w>
scar cely</w>
s ports</w>
rol l-
ro gatives</w>
reiter ated</w>
rehabil itation</w>
re alisation</w>
program me
predec essor</w>
pre rogatives</w>
pl ain</w>
pes sim
pa tional</w>
p age</w>
ow ski</w>
over look</w>
op pression</w>
ne o-
mun ia</w>
mis use</w>
min d
mil len
mil est
mi d-
men tions</w>
m ass
li able</w>
la u
know -
inter action</w>
in justice</w>
in effective</w>
i 's</w>
hon oured</w>
hi dden</w>
frag mentation</w>
for getting</w>
fo reign
fair ness</w>
f at</w>
f an
explo sion</w>
exce ed</w>
ex pects</w>
enti ties</w>
disman tling</w>
desper ate</w>
decreas e</w>
decentr alised</w>
cyc lic
counter parts</w>
cor respond</w>
conven tional</w>
contradic tions</w>
co di
cigaret te</w>
ch ron
ce re
blu e</w>
arti ficial</w>
ar rog
appe aring</w>
acceler ate</w>
abe tes</w>
Tu esday</w>
Tali ban</w>
Sud an</w>
Sol bes</w>
Sar ko
Rompu y</w>
Ri ght</w>
Res olution</w>
Pol ice</w>
Par ticul
Palaci o</w>
P r
Om bud
N apo
Mic hel</w>
Maca u</w>
Kazak h
ERT MS</w>
D on
D avi
Bo ard</w>
Al munia</w>
A sy
3 8
/200 9</w>
(Appl ause</w>
' yes'</w>
z i
y s
y )</w>
wor ry</w>
view point</w>
vari ed</w>
u l</w>
twel ve</w>
t to</w>
surve ys</w>
stri king</w>
sti c</w>
st ones</w>
sp he
shoc king</w>
shame ful</w>
settle ments</w>
s lic
reloc ations</w>
reli ability</w>
recei ves</w>
re jects</w>
ra ft</w>
protection ist</w>
pro tocols</w>
pro minent</w>
point ments</w>
phenomen a</w>
pension ers</w>
out lines</w>
oppos ing</w>
off shore</w>
non- discrimination</w>
mom ents</w>
lobby ists</w>
know- how</w>
it y'</w>
it :</w>
inter medi
inhe rent</w>
im pressive</w>
honest y</w>
hom el
fer ti
fe et</w>
exerc ised</w>
exemp t</w>
envis age</w>
em por
em an
e x</w>
e g
dic t</w>
dele te</w>
decis i
de posit</w>
de pos
conver sion</w>
conceiv able</w>
committe e's</w>
com mend
cas e-
cap ability</w>
ber g</w>
benef iting</w>
bar bar
back wards</w>
at orial</w>
an nex</w>
alleg ations</w>
ag o
ag ents</w>
advoc ating</w>
ad mittedly</w>
TAC IS</w>
S ing
R ü
Pe ter
P )</w>
Me dia</w>
Lamass oure</w>
Georgi an</w>
Geb hardt</w>
D im
Com b
C air
Asy lum</w>
Amon g</w>
Agree ments</w>
Ag ain</w>
A ir
9 0%</w>
3 9
y ’</w>
y m
win d
vi ability</w>
u te
ty -
traffic kers</w>
tour ist</w>
ton gue</w>
time tables</w>
tigh ten</w>
th ough
su ited</w>
stimul us</w>
speci fy</w>
sor ts</w>
sing le-
shap ing</w>
sh ut</w>
sacrific e</w>
s light</w>
s ca
re medi
re im
ra rely</w>
r is</w>
push ing</w>
prud ent</w>
prosecu tor</w>
perpetr ators</w>
p al
op t</w>
on i</w>
o te</w>
negoti ators</w>
n ell
modi fication</w>
lic ence</w>
iti sm</w>
ir s</w>
incredi bly</w>
imprison ed</w>
hypo critical</w>
hol es</w>
her self</w>
hear t
grass roots</w>
fo ref
explain ing</w>
evi d
equ itable</w>
endor ses</w>
distr ic
dep loyment</w>
cour ses</w>
compl ain</w>
commit ting</w>
commem or
co des</w>
car ries</w>
capit alism</w>
cam p</w>
bun al</w>
b ree
b low</w>
assum ing</w>
as se</w>
ape u
allevi ate</w>
affor dable</w>
adjour ned</w>
ab used</w>
ab und
W ar
V e
U y
To day's</w>
Techno logical</w>
T reat
St en
Sch mid
Pir ker</w>
Opport unities</w>
Mon ten
Ma th
Husse in</w>
Haar der</w>
H ul
Grou p
Glob al</w>
Fif th</w>
F u
Equ ally</w>
E D
Director ate-General</w>
C limate</w>
C at
Byr ne</w>
6 5</w>
4 50</w>
/200 6</w>
wai ver</w>
vol ati
us tic
underestim ated</w>
un g</w>
trans pose</w>
trage dies</w>
tr e</w>
ti an</w>
thir ty</w>
sy ner
stimul ating</w>
ster ing</w>
simultane ously</w>
scep ticism</w>
scep tical</w>
s porting</w>
ro t
refu ge</w>
public ity</w>
pos session</w>
po or
pati ence</w>
over looked</w>
of -
od ds</w>
occu pational</w>
mis taken</w>
margin s</w>
mainstream ing</w>
main tains</w>
m bin</w>
itor s'</w>
issi on</w>
indic ating</w>
incorpor ation</w>
ill ness</w>
hosp ital</w>
harmon y</w>
form ulation</w>
fo ods</w>
fac to</w>
evalu ating</w>
enti ality</w>
e gr
diversi fication</w>
discrepan cies</w>
democr ats</w>
deal ings</w>
de z</w>
coun tless</w>
corner stone</w>
convic tions</w>
com bus
co operating</w>
capit a</w>
bom b</w>
bo ats</w>
assis ting</w>
asser t</w>
as surances</w>
adv ise</w>
adhe red</w>
a reas
Wal d
Some thing</w>
Sch üs
Rap porte
Presid enc
Napo lit
Musli ms</w>
Minis try</w>
Kazakh stan</w>
In te
ICA O</w>
I ran
Go then
En g
EU- wide</w>
D G</w>
Coun tries</w>
Con sid
Com petition</w>
B en
B eij
A T
2000 )</w>
2 50</w>
(CO S
ur ging</w>
sugge sting</w>
sou th-
shoc ked</w>
shi pow
sh op</w>
roo ted</w>
ro- Wald
ri ous</w>
res sing</w>
reim bur
rei ght</w>
ref uses</w>
pe t</w>
out look</w>
out break</w>
ou trage
os ity</w>
or de</w>
obser ver</w>
objec tion</w>
noti fied</w>
neutr ality</w>
lif ted</w>
le xi
l um
keep ers</w>
incorrec t</w>
in consistent</w>
human s</w>
hal f-
h m</w>
g lo
forwar d-looking</w>
for cement</w>
ffici al</w>
fab ric</w>
f es
exce eded</w>
empor ary</w>
el a</w>
di abetes</w>
datab ase</w>
d one
confid entiality</w>
combus tion</w>
collec tively</w>
coast s</w>
clari fying</w>
bloc ks</w>
bas sad
bal ancing</w>
as signed</w>
apor e</w>
analy sed</w>
ag u
access ing</w>
ab sten
a us
Sing apore</w>
Seven th</w>
Ser bian</w>
Scot tish</w>
Scienti fic</w>
Sarko zy</w>
Rec ently</w>
R ound</w>
R a
Pos sel
P en</w>
O LA
Mol itor</w>
Man agement</w>
M et
Lam y</w>
L anc
J our
Inter im</w>
I S
Ferre ro-Wald
Es sen</w>
EU '</w>
E P</w>
Cer tain</w>
Berluscon i</w>
B il
B asi
An ti
A zo
5 4</w>
200 4
199 0s</w>
198 9</w>
-si gh
(CNS )]</w>
Š pid
worsen ing</w>
wi e
weak est</w>
weak ening</w>
war ran
vigil ance</w>
unequi vocal</w>
undermin es</w>
un usual</w>
tradi tionally</w>
tough er</w>
today ’s</w>
ti ble</w>
them atic</w>
stipul ated</w>
ssi l</w>
sk illed</w>
sk ill</w>
si xth</w>
sha re
report :</w>
replac ement</w>
ren der</w>
reduc es</w>
re view
pro voc
pre mature</w>
pl un
perpetr ated</w>
pass port</w>
p ally</w>
ow ned</w>
on :</w>
off en
nur ses</w>
now adays</w>
ni gh
millen nium</w>
manufac tured</w>
lic en
legis l
l es
it y;</w>
it ari
is ;</w>
inspir ation</w>
influ enced</w>
incin er
immi grant</w>
ign oring</w>
hom ophobia</w>
hesit ate</w>
head ings</w>
h il
gi fts</w>
gen ital</w>
free -
fr ank</w>
foref ront</w>
fo ssil</w>
f reight</w>
expec tation</w>
epide m
environ ment
enti als</w>
egr o</w>
dr illing</w>
deploy ed</w>
deb ts</w>
de vised</w>
d ance</w>
cop y</w>
contin ent
confron tation</w>
condol ences</w>
compl ying</w>
co- decision</w>
children 's</w>
c ite</w>
c ards</w>
boo sting</w>
beau ti
be have</w>
ation s:</w>
ation )</w>
at a</w>
asm us
as k
aeroplan es</w>
ad here</w>
a x
Z ap
Tun is
Schüs sel</w>
R asmus
Pres tige</w>
Nord mann</w>
Monten egro</w>
Math ie
Gothen burg</w>
G ros
G a
Cair o</w>
Belar ussi
Au str
Alban ian</w>
5 8</w>
1 N
vis iting</w>
vi gorous</w>
up -to-
tra ins</w>
time -
ther apeu
ta ine</w>
syner gies</w>
suspec ted</w>
strugg ling</w>
spo kes
sphe res</w>
soci alists</w>
ser ving</w>
resid ing</w>
rec y</w>
re plies</w>
re alize</w>
radic ally</w>
provision al</w>
prote sts</w>
portfoli o</w>
pollu ting</w>
out comes</w>
nutri tion</w>
neo liberal</w>
neglec ted</w>
min ute
lo t
legis late</w>
la undering</w>
ish es</w>
insis tence</w>
ing s:</w>
inc umb
in ser
hosp itals</w>
h ec
good will</w>
g ames</w>
frequ ency</w>
feeding stuffs</w>
fea sibility</w>
far mer
er ’s</w>
endeav ouring</w>
en vo
el t
dis rup
dest ination</w>
denoun ce</w>
deep er</w>
day -to-
day-to- day</w>
dam ages</w>
counterfe it</w>
coun cil</w>
consci ous</w>
cons ist</w>
confron ted</w>
confir mation</w>
concep tion</w>
comb ated</w>
c row
bur den
aren a</w>
arch y</w>
accord ed</w>
a ver
a king</w>
a fore
Wa the
Viol ence</w>
U K
Swe den
Sch nell
Russi ans</w>
Pu tin</w>
P hili
N U
Mathie u</w>
Mar in
Ma j
LIF E</w>
D ü
Co ven
Chech en</w>
Ch an
C row
Bro k</w>
Beij ing</w>
Azo res</w>
Appro val</w>
Am nesty</w>
Ale x
Al an</w>
7 5</w>
5 6</w>
2 4
( 3)</w>
‘ y
‘y es’</w>
z es</w>
win ner</w>
well- balanced</w>
vers y</w>
ver n</w>
val idity</w>
up-to- date</w>
univers ally</w>
unequi voc
under p
system ic</w>
su it</w>
smar t</w>
slaugh ter</w>
separ ately</w>
sec recy</w>
s "</w>
reluc tant</w>
rec ur
re mem
remem bered</w>
qui et</w>
proportion ality</w>
princi pally</w>
prefer able</w>
po sure</w>
plur alism</w>
pers ist</w>
p ure</w>
outrage ous</w>
ol ing</w>
mis understanding</w>
mar ri
lo ve</w>
ko v
kee ps</w>
k op</w>
k 's</w>
it -
in humane</w>
imprison ment</w>
imp unity</w>
illustr ate</w>
id en
hr kop</w>
hear ts</w>
harmon ization</w>
ha vens</w>
gri ps</w>
geo political</w>
gar lic</w>
frustr ation</w>
fin ger</w>
ex pul
ev olution</w>
en i
embar ked</w>
e ous</w>
dist ant</w>
den ying</w>
defin es</w>
de tention</w>
critic ising</w>
counter -
contro versy</w>
continu ously</w>
contin ents</w>
concentr ating</w>
compe ting</w>
chan nel</w>
ch et</w>
certi fic
car d
be et</w>
ation 's</w>
ast -
ar a</w>
an te</w>
an g</w>
activis ts</w>
acc umul
ac ute</w>
U p</w>
Tom or
St ri
St alin
S wie
Quarte t</w>
P H
Oomen-Ruij ten</w>
N on-
Mon it
Lev el</w>
Initi ative</w>
Ha ve</w>
Ferrero-Wald ner</w>
Dü hrkop</w>
D r</w>
D /
Co sta</w>
Ch ur
C hap
B 4-0
A vi
7 0
5 2</w>
/0 1
- 2006</w>
à -
à- vis</w>
week 's</w>
weak ened</w>
vis -
vis- à-vis</w>
util isation</w>
ur ges</w>
un founded</w>
un democratic</w>
thro mbin</w>
th ri
ten der</w>
teach ing</w>
t ol
surve y</w>
su ic
st ure</w>
st ore</w>
st amp</w>
specific ations</w>
some body</w>
shor ter</w>
shi f
s plen
s le
res sive</w>
re plied</w>
re memb
public s</w>
prohi bit</w>
prof itability</w>
prevail ing</w>
prec arious</w>
o gen
neu rial</w>
nar row</w>
munici pal</w>
mir ac
milest one</w>
mach ines</w>
m er</w>
liter ally</w>
less er</w>
justi fies</w>
ir rever
impro ves</w>
honest ly</w>
high- speed</w>
govern ment
go vern</w>
ga u</w>
free zing</w>
fas c
experi ments</w>
expan ded</w>
exam ple:</w>
ex ported</w>
es h</w>
entrepre neurial</w>
eco systems</w>
ec o-
du m</w>
do z
disgr ace
disgrace ful</w>
discrimin ated</w>
discipl inary</w>
dis appeared</w>
dilem ma</w>
cyclic al</w>
custom ers</w>
cul tivation</w>
cr ats</w>
correc ted</w>
compan i
collec ted</w>
chan ces</w>
catastrop he</w>
c ure</w>
bra ve</w>
bom bs</w>
b lat
assum ption</w>
arri ving</w>
ar ts</w>
ap pointments</w>
anxi ous</w>
anti- S
al tar</w>
afore mentioned</w>
ad ults</w>
acknowled ging</w>
Wo gau</w>
Ug anda</w>
TEN s</w>
Stat es;</w>
Sloven ian</w>
S pec
OLA F
Napolit ano</w>
Monit oring</w>
K all
GF C
Eng land</w>
E TA</w>
Dim as</w>
Cor bet
Comb ating</w>
Bö sch</w>
Bus qu
Ber ès</w>
Ad mittedly</w>
Ad di
(D A)</w>
( 4)</w>
yi eld</w>
world ’s</w>
won dering</w>
voic ed</w>
vacc ination</w>
under took</w>
und eni
und ec
un reasonable</w>
un known</w>
tra p</w>
ti es'</w>
ten den
t t
syn ergy</w>
suppor tive</w>
spec tac
spe edi
some how</w>
smo kers</w>
smo ke</w>
scre ening</w>
s ity</w>
roll- call</w>
read ily</w>
re sume</w>
ration ale</w>
qui ries</w>
qu o</w>
pro stitu
prec eded</w>
pre feren
pollu tants</w>
paren tal</w>
pan ic</w>
ow er</w>
over ty</w>
oun dly</w>
or an
offen sive</w>
od d</w>
non- proliferation</w>
non- EU</w>
no is
medium -term</w>
mass ac
m ale</w>
lobb ying</w>
lo ad</w>
land s
labe ls</w>
k ill</w>
itari anism</w>
it ;</w>
industri alised</w>
indu str
incumb ent</w>
ho le</w>
hin der</w>
he dge</w>
ha ble</w>
fulf ils</w>
flo od</w>
fa thers</w>
f ly</w>
explo iting</w>
ex posure</w>
every one's</w>
embar k</w>
ell ing</w>
ele ven</w>
ec ho
dossi ers</w>
distor ted</w>
defici encies</w>
deep -
cru el</w>
coun cil
council s</w>
contamin ated</w>
cont empl
con g
beauti ful</w>
au gh
ater o</w>
as p
al li
accor d</w>
Zap atero</w>
Wathe let</w>
S ES
Roc ard</w>
Rec om
Rasmus sen</w>
Pre vention</w>
PO Ps</w>
P ra
P overty</w>
Ni ger
NU TS</w>
Mc Car
Lul ling</w>
Le hne</w>
Kash gar</w>
Joh n</w>
I T</w>
H 1N
DE M</w>
Crow ley</w>
Co ordin
Bo li
20 th</w>
0 )</w>
/0 1</w>
Špid la</w>
é s</w>
zz o</w>
y ourselves</w>
win dow</w>
we al
volun te
v aries</w>
v als</w>
unequivoc ally</w>
undec lared</w>
un lawful</w>
un equal</w>
twenty- five</w>
trans portation</w>
tim ing</w>
ti sed</w>
therapeu tic</w>
theat re</w>
the ore
that :</w>
temper ature</w>
ta ught</w>
suppor ters</w>
sul ph
ste pping</w>
splen did</w>
specul ative</w>
sit ting:</w>
sign ation</w>
selec t</w>
s a</w>
rot ating</w>
rest oration</w>
religi ons</w>
re new</w>
re m
rac ial</w>
r o</w>
preser ved</w>
preferen tial</w>
pr int</w>
pp i</w>
port :</w>
poor ly</w>
people '</w>
pe trol</w>
pan el</w>
pa ve</w>
pa ed
p o</w>
p ages</w>
ou ts</w>
non- tariff</w>
neglec t</w>
munici p
mort g
mo tives</w>
minim ise</w>
ma fi
m ar</w>
long- standing</w>
len ding</w>
lag ging</w>
labe lled</w>
intel li
in ti
in ter</w>
ign or
i e</w>
h em
gen der
ge sture</w>
ga ther</w>
g ged</w>
fel low-
f ram
exten ds</w>
enti ty</w>
enjo ys</w>
en rich
en large</w>
emphasi zed</w>
em itism</w>
dur ation</w>
doz ens</w>
dictator ships</w>
dev ise</w>
deter rent</w>
descri bes</w>
decentr alisation</w>
de l
d d
corpor ations</w>
conf erred</w>
communic ated</w>
commun ist</w>
cohe sive</w>
co- operation</w>
co in</w>
ci ve</w>
b le
b arely</w>
autom ob
ass ing</w>
ass ent</w>
arri val</w>
amoun ting</w>
alcoho lic</w>
al arm</w>
aggres sion</w>
advis able</w>
Ul timately</w>
Tunis ia</w>
SM E</w>
SES AR</w>
Recom mend
Possel t</w>
P an
O per
N ie
Mexic an</w>
Kau ppi</w>
IN D/
IND/ DEM</w>
H1N 1</w>
Dar fur</w>
Coun try</w>
Con federal</w>
Chap ter</w>
Cat al
C R</w>
C P</w>
Bur m
98 )0
9 2
6 6
199 9
/9 8</w>
(S EC
é ve
weak er</w>
war ned</w>
vill ages</w>
ver dict</w>
ve dly</w>
up dating</w>
understand ings</w>
un conditional</w>
ti ed</w>
tenden cies</w>
ta ire</w>
swit ch</w>
supervis ors</w>
state -
speci alist</w>
shipow ners</w>
senten ced</w>
sem ination</w>
scrup ulous</w>
rein forcement</w>
recyc ling</w>
re alism</w>
re acted</w>
re )</w>
ra c</w>
predic t</w>
pre sum
point s:</w>
ple a</w>
pir acy</w>
per formed</w>
per cent</w>
parad ox
p ine</w>
p ices</w>
p ho
p ac
or i</w>
or able</w>
ob s
n ice</w>
modern ising</w>
minim al</w>
min ded</w>
lim itation</w>
li br
le f
l ler</w>
k no
jud gement</w>
in stig
in forma
im minent</w>
illustr ates</w>
illustr ated</w>
iden tical</w>
id able</w>
hon ey</w>
heart felt</w>
head ed</w>
fulf il
fra me
foreign ers</w>
fif ty</w>
f ed</w>
ez u
expec tancy</w>
ex porting</w>
ex changing</w>
ep ing</w>
el abor
eco system</w>
duplic ation</w>
drift nets</w>
dis semination</w>
design ated</w>
demonstr ators</w>
dec ei
cri tici
country side</w>
contr ac
congratul ated</w>
commun au
catastrop hic</w>
cat aly
brea ks</w>
aus pices</w>
ate -
appe als</w>
ap point</w>
allow ance</w>
ak es</w>
a th
W H
Ven ezu
Ve terinary</w>
Union ;</w>
Ter ror
TE N</w>
S hi
S har
Over all</w>
Ombud sman</w>
Le g
Kur ds</w>
Israel is</w>
He ading</w>
Garri ga</w>
F ar</w>
Ex per
Ex ecu
Europe an-
Est éve
E th
E F
De leg
C s</w>
Busqu in</w>
Burm ese</w>
Bar ón</w>
B C</w>
Anti -
8 00</w>
/01 ):</w>
' European</w>
z á
v ar
tw are</w>
transparen tly</w>
trans form</w>
ta ke
sub mission</w>
su peri
stabil ise</w>
sta ff
st e</w>
spo t</w>
sof tware</w>
safeguar ded</w>
res our
remin ding</w>
re signation</w>
public- private</w>
prostitu tion</w>
prof ession</w>
po is
ple dge</w>
pl u
pl ain
pen alise</w>
par aly
on ian</w>
off )</w>
o di
n ity</w>
n 's</w>
mil e</w>
m ad
loop holes</w>
le z</w>
k i
justi fiable</w>
invest or</w>
incur red</w>
ge ly</w>
g st</w>
fulfil ment</w>
fil m</w>
f ro
f its</w>
explain s</w>
exclu ding</w>
ex ter
evid ently</w>
ev ich</w>
er ;</w>
enti tle
embar r
don 't</w>
do gs</w>
dio x
destruc tive</w>
defe at</w>
def enders</w>
dedic ation</w>
de gra
d read
cross- compliance</w>
coordin ators</w>
coordin ator</w>
cont ex
construc t</w>
communau taire</w>
commissi on</w>
commend able</w>
collec t</w>
clos est</w>
chec king</w>
char ter</w>
ce l</w>
carri ers</w>
c ow
c as</w>
bo x</w>
author ising</w>
ap est</w>
ag as
adop ts</w>
abl es</w>
a h
Wor k</w>
Uy gh
Su preme</w>
S at
Rob ert</w>
Ro th
P E
NA TO
M it
K la
I l
Hon ourable</w>
Gal e
Fon taine</w>
F orm
Corbet t</w>
C 7-0
Belarussi an</w>
Bel grade</w>
An d
Amon gst</w>
8 5</w>
8 2</w>
14 9)</w>
/98 -
/200 6)</w>
/200 0)</w>
(COM( 98)0
è re</w>
á ne
z y
you :</w>
wor ries</w>
wor d
we ather</w>
vir tual</w>
vic tim
un changed</w>
ther ap
texti les</w>
ten ds</w>
temp ted</w>
supple ment</w>
sulph ur</w>
suic ide</w>
suff ers</w>
subscri be</w>
stat u
so ft</w>
she et</w>
sever ity</w>
selec ted</w>
secu rities</w>
sa y
s al</w>
ro se</w>
ro aming</w>
ric her</w>
rev it
repatri ation</w>
reaffir m</w>
re form
r a</w>
protec tive</w>
poss ess</w>
pol áne
peac e-
pass es</w>
pas sion</w>
p air</w>
over view</w>
over due</w>
on wards</w>
objec tively</w>
o se
o 's</w>
nam ed</w>
mis ery</w>
liber alised</w>
li vely</w>
kidn ap
instruc tions</w>
ins ists</w>
in tr
in adequ
imag in
i fied</w>
hosti le</w>
hi er
harmon ious</w>
fu ge
frag mented</w>
forwar ded</w>
forese eable</w>
fore ver</w>
for wards</w>
fin alised</w>
f illed</w>
expres sions</w>
exp iry</w>
eradic ate</w>
er s;</w>
equi p</w>
engine ering</w>
eng ine</w>
earli est</w>
docu mentation</w>
divi ding</w>
di alogues</w>
der ived</w>
der ive</w>
dep lo
d ity</w>
cyn ical</w>
cyc les</w>
contr acting</w>
construc tively</w>
constitu ted</w>
clo ck</w>
classi fied</w>
civil ised</w>
circ les</w>
bus es</w>
broad est</w>
bo ards</w>
attribu ted</w>
atten ding</w>
ation s'</w>
al a</w>
ad dic
acce ding</w>
acce de</w>
Val enci
UNH CR</w>
To poláne
Re fuge
R and
Par t</w>
P aci
Net work</w>
NA CE</w>
N assa
L ist</w>
Irel and's</w>
In dependent</w>
H is
Gu ant
Go od</w>
Gale ote</w>
Execu tive</w>
Egy p
Deleg ation</w>
C red
C 6-0
Ban ot
Austr alia</w>
Adminis tra
AR E</w>
A la
6 7
/9 9
ê te</w>
xen ophobic</w>
wat ching</w>
w rec
ver ification</w>
ush ed</w>
us sy</w>
us :</w>
under going</w>
un willing</w>
tw o
tiz ation</w>
time frame</w>
tho lic</w>
thes is</w>
ten er</w>
t les</w>
supple mented</w>
su dden</w>
stud ying</w>
stop ping</w>
star ts</w>
stand point</w>
slog an</w>
six -month</w>
sid ed</w>
shar p</w>
sha d
separ ated</w>
sc ler
righ t-wing</w>
review ing</w>
renation alisation</w>
rein forces</w>
reaffir med</w>
re tention</w>
re o
re build</w>
prov ince</w>
pre conditions</w>
postpon ement</w>
polic y-
pec uli
p tions</w>
out dated</w>
ou tri
oper ator</w>
oc curren
o date</w>
na tive</w>
n st
mon y</w>
mom ent
mobil ised</w>
meaning less</w>
mea suring</w>
manipul ation</w>
loc ked</w>
lo ts</w>
lit res</w>
le vi
ir re
inter rup
inf lic
il es</w>
hor mon
histor ically</w>
ha ul
grass -
gr y</w>
ga thered</w>
fo o
five -year</w>
fe es</w>
facilit ated</w>
exhaus tion</w>
exemp ted</w>
ex cus
establish ments</w>
ess ness</w>
es -
er o</w>
e ties</w>
dynam ics</w>
direc tive
der i
d'Ancon a</w>
curren cies</w>
cred its</w>
countr y’s</w>
contra ven
conce ived</w>
collec ting</w>
ci dentally</w>
character istic</w>
chair men</w>
certain ties</w>
c ab
c a</w>
bord ering</w>
back drop</w>
b au
at tain</w>
ash ed</w>
as ha
ar ose</w>
approxim ation</w>
anti- fraud</w>
anti- discrimination</w>
al :</w>
ak is</w>
accomm odate</w>
acces sibility</w>
a ward</w>
Tor res</w>
Ta j
Sten mar
Sta es</w>
Sm all</w>
S t</w>
Rand zi
Presid encies</w>
People '</w>
P S</w>
P C
Me a
Ko z
Kar ab
Joh nst
In cidentally</w>
Gros set
G )</w>
Europe :</w>
ES F</w>
Colom bia</w>
Co ld</w>
Chi rac</w>
9 1</w>
8 -
50 th</w>
10 0
-sigh ted</w>
(A 6-0
& D</w>
z ar
wh is
vi an</w>
ver b
ve -
up holding</w>
un used</w>
un controlled</w>
um p
u ous</w>
tori ly</w>
to ken</w>
ter med</w>
sup pose
suppose dly</w>
subordin ate</w>
statu tory</w>
senti ment</w>
scler osis</w>
scand als</w>
safe ly</w>
reser vation</w>
re war
re taining</w>
re sts</w>
pun ish</w>
pro xim
pro du
presen tly</w>
post al</w>
pen al</w>
peac efully</w>
pack ages</w>
p ap
outri ght</w>
op ti
on o
offic er</w>
nic ot
moun tains</w>
mo tto</w>
met res</w>
m el
luc tu
low ering</w>
lea p</w>
law yer</w>
lab or
jeop ar
insul a</w>
inde red</w>
in n</w>
in complete</w>
imp acts</w>
illustr ation</w>
ic h
hum ili
homosexu als</w>
her o
h indered</w>
grass- roots</w>
gra ti
ge dly</w>
fundament alism</w>
friend ship</w>
fraud ul
fl our
fin itely</w>
fav ours</w>
fat al</w>
fal ussy</w>
fai th
f luctu
ex hi
empha tically</w>
dr on</w>
doub tless</w>
dolph ins</w>
distor t</w>
direc tor
dign ified</w>
deteri oration</w>
decisi vely</w>
dead lock</w>
day :</w>
cor responds</w>
contamin ation</w>
conf using</w>
comple ment
colle ge</w>
coinci dence</w>
car b
calcul ations</w>
c y
c ats</w>
bran ch</w>
block ade</w>
be fore
b und
automob ile</w>
au di
arti sts</w>
approach ed</w>
ans '</w>
am ple</w>
ag gra
acqu is
ac ity</w>
W il
V oting</w>
Topoláne k</w>
To o</w>
Ta ke</w>
Sou thern</w>
Schnell hardt</w>
S cand
Rev ision</w>
Randzi o-
R od
R A
Paci fic</w>
O s
Nassa u
N one</w>
Loo king</w>
Lithu an
Leg is
Koz lo
K u
J ar
Israel 's</w>
Inter institutional</w>
Hul ten</w>
Her man</w>
Grosset ête</w>
G on
F und
F l
F ive</w>
Exper ts</w>
Ex peri
Di vision</w>
Cau dron</w>
Ca tholic</w>
C D
B earing</w>
Avi ation</w>
Al pine</w>
4 5
- B4-0
(CNS ))</w>
( in</w>
win ners</w>
wil d</w>
volati lity</w>
vi c</w>
val uation</w>
ur s</w>
un reser
unreser vedly</w>
un ion
tur ally</w>
te l</w>
te ach</w>
symb ol
ste reo
speci ally</w>
smoo thly</w>
sh ops</w>
scep tics</w>
satisfac torily</w>
s pa
rou gh
remin ds</w>
refer r
re vol
re tro
re funds</w>
qu alities</w>
premi ums</w>
pollu ter</w>
polic ing</w>
pat ents</w>
or n</w>
opoulo u</w>
oper ated</w>
oce ans</w>
nom ination</w>
multilat er
mid st</w>
men 's</w>
me at
lor ries</w>
libr aries</w>
less ness</w>
legislat ure</w>
irrever sible</w>
inter cultural</w>
inter connection</w>
in j
in human</w>
in en</w>
im porting</w>
il -
igno res</w>
ide o
i th
hol dings</w>
hes itation</w>
gr and</w>
fore station</w>
fla v
extrem ism</w>
exagger ated</w>
evol ving</w>
estim ate</w>
este emed</w>
es o</w>
entrepreneur ship</w>
end less</w>
ear s</w>
e ag
drin ks</w>
doc tr
distribu te</w>
dis appearance</w>
dent al</w>
corner stones</w>
con vers
comb ining</w>
circ le</w>
can cell
broad en</w>
bir ds</w>
b lan
at ro
ash es</w>
are :</w>
ag ain
affor ded</w>
ach es</w>
a sive</w>
Wor ks</w>
Whe re
Uzbe k</w>
Union :</w>
U r
Tibe t
Sol vency</w>
Sev eso</w>
Scand in
Rü big</w>
Ro ad</w>
Rec ent</w>
Plat h</w>
PH ARE</w>
P ack</w>
Organ ization</w>
Mea sures</w>
M y
M un
Lam falussy</w>
Karab ak
Institu tional</w>
Imple mentation</w>
I P</w>
H er</w>
Gu ar
Gar g
Fr ass
Estéve z</w>
Direc tives</w>
Cur rently</w>
Cres po</w>
Com peti
C ate
Be h
Al tener</w>
Agric ultural</w>
6 3</w>
5 1</w>
3 4
2000 /0
14 2)</w>
1 10</w>
- made</w>
(H-0 5
(COD )]</w>
(B G)</w>
y ours</w>
wrong ly</w>
we i
un t</w>
un sustainable</w>
un stable</w>
un necessarily</w>
tro ika</w>
three -
thin k
th ing:</w>
st ad
speci alised</w>
sem i-
sanc tion</w>
sacrific es</w>
sacrific ed</w>
s is
ro ll</w>
ro c
rich est</w>
rela unch</w>
read s</w>
read iness</w>
re b
ra is
ra in</w>
proxim ity</w>
protec ts</w>
prevail ed</w>
point less</w>
part- time</w>
part )</w>
oura bly</w>
one ’s</w>
o be
nu ts</w>
non sense</w>
nic kel</w>
mu m</w>
me :</w>
manufacture r</w>
le verage</w>
k ill
iz ing</w>
ir on</w>
inti mid
inci dence</w>
in efficient</w>
in admissible</w>
in 's</w>
im poses</w>
hol der</w>
he ating</w>
gre es</w>
gr and
ge ther
g ang
foot ball</w>
farmer s'</w>
fail ings</w>
expl ore</w>
exhaus tive</w>
exerc ises</w>
exc iting</w>
ex tradition</w>
enthusias tic</w>
enfor cing</w>
endor sement</w>
eman n</w>
e )</w>
dread ful</w>
diagno sis</w>
denomin ator</w>
deep en</w>
de lu
counter productive</w>
cong estion</w>
condem ns</w>
con formity</w>
clu b</w>
child care</w>
ce ments</w>
capit als</w>
bru t
break down</w>
bra in</w>
bas in</w>
att acked</w>
asha med</w>
as tically</w>
ar able</w>
appro ves</w>
am ble</w>
al tered</w>
al ;</w>
air line</w>
adju sted</w>
accur ately</w>
a est
Wor kers</w>
W ol
W est
Vil vo
Tomor row</w>
T ob
Sw iss</w>
Stenmar ck</w>
Ste el</w>
Spe aking</w>
Som al
Sat ur
Sahar an</w>
S ir</w>
Recommend ation</w>
Re port:</w>
Randzio- Plath</w>
Pro f
Pra gue</w>
P loo
P ast
No bel</w>
Nic hol
N ag
Mil ose
Memb er's</w>
May be</w>
M ir
Lu cas</w>
Karabak h</w>
Joh ann
Gon zá
G NP</w>
Form er</w>
Flo ren
Ex plan
Direc tor</w>
De puty</w>
D ue</w>
D aul</w>
Cambo dia</w>
C ou
Bang emann</w>
B ush
Alex ander</w>
Al most</w>
A h
9 3</w>
6 -
3 /
-and- mouth</w>
(200 9
í a</w>
ä r
wid ening</w>
vod ka</w>
viol ating</w>
v ise</w>
v ain</w>
under pin
un aware</w>
ul tra-
trans -
to gether
tigh tening</w>
te d;</w>
spe eding</w>
sex es</w>
s ounds</w>
ri gorously</w>
reven ues</w>
ren ner</w>
rel s</w>
recommen ding</w>
re turns</w>
re al
re actors</w>
qual ification</w>
pronoun ced</w>
prof oundly</w>
pre sup
persu aded</w>
pers ists</w>
patter ns</w>
pas sion
parti te</w>
out put</w>
oran dum</w>
num er
no- one</w>
nar row
municip alities</w>
moun t</w>
modi fications</w>
moder ation</w>
mis understandings</w>
measu res
mat urity</w>
mat ter
mal aria</w>
lot ted</w>
lo ading</w>
le vy</w>
le ast-
l oud</w>
introduc tory</w>
interf ering</w>
im pressed</w>
ij -
ij- van</w>
identi fies</w>
house hold</w>
ha m</w>
gri p</w>
gr ate</w>
gener osity</w>
g ree
force fully</w>
foot -and-mouth</w>
f ile</w>
f ant
expul sion</w>
exacerb ate</w>
el son</w>
e- fire</w>
du s</w>
dra in</w>
doub led</w>
doc tor</w>
disgr ace</w>
dem ics</w>
de vi
de tained</w>
cul tiv
cru el
corrid ors</w>
conc ur</w>
comb at
chi efly</w>
ch equ
ceas e-fire</w>
carb ons</w>
bi li
b low
auc tions</w>
ation s;</w>
assist ants</w>
ap hne</w>
an no
ach ed</w>
acceler ated</w>
abstain ing</w>
a ust</w>
Un like</w>
Tit le</w>
T A
Stri p</w>
S el
S ain
S adly</w>
R os
Prof essor</w>
Pro cess</w>
Ploo ij-van</w>
Or te
Ne ed
Med ina</w>
MED IA</w>
L I
K on
Iran ian</w>
In done
In c
IM O</w>
Gal ile
F är
F at
Experi ence</w>
Do yle</w>
D aphne</w>
Council :</w>
Con tr
CO M</w>
C E
Bon temp
Banot ti</w>
B renner</w>
B ow
6 0
200 2)</w>
2 2
199 9)</w>
197 9</w>
Ő ry</w>
í n</w>
z emb
x ation</w>
volunte ers</w>
var ying</w>
valu ed</w>
vacc ines</w>
us eless</w>
us '</w>
ur y</w>
up per</w>
underp in</w>
under go</w>
u de</w>
tw ith
twith standing</w>
ton ou</w>
tiv es:</w>
tin ent</w>
ti fication</w>
ten ding</w>
temp tation</w>
sy mp
support er</w>
stabil ising</w>
si di
self- evident</w>
sel f
ro tation</w>
ris ky</w>
rever sed</w>
resolu tely</w>
regret tably</w>
reg ain</w>
referr al</w>
red ress</w>
reat er</w>
reac tionary</w>
ra ge</w>
proce eding</w>
pro claimed</w>
privile ges</w>
presum ably</w>
predic table</w>
pre tend</w>
pre domin
po sting</w>
pen alised</w>
pe l</w>
ou tra
origin ating</w>
opt- out</w>
one :</w>
occasion ally</w>
muni tions</w>
ment s;</w>
margin alisation</w>
mani fest</w>
mach ine</w>
loc aust</w>
lo an</w>
liber alism</w>
k is</w>
is c
inv iting</w>
inten sively</w>
institu te</w>
influ x</w>
indic ative</w>
in tra-
im ply</w>
im partial</w>
illu sion</w>
ide als</w>
hope ful</w>
head way</w>
head quarters</w>
har d-
h ow
h l</w>
glob alization</w>
gi ft</w>
g lu
fru its</w>
fro zen</w>
frame works</w>
fortun e</w>
fle eing</w>
fle dged</w>
feder ation</w>
ever- increasing</w>
en ess</w>
employ er</w>
em in
e go
du y</w>
dr astically</w>
dis satisfaction</w>
dis regarded</w>
dis agreements</w>
dest ined</w>
des pair</w>
depri ve</w>
democr ac
dela ying</w>
dec lining</w>
de vices</w>
de grees</w>
d well</w>
d issi
cri tically</w>
cr y
constitu ent</w>
consis ting</w>
conflic ting</w>
con du
comprom ised</w>
complement arity</w>
comfor table</w>
coinci de</w>
co ach</w>
civil isations</w>
chur ches</w>
chi ef</w>
calcul ated</w>
broad cast</w>
bor row
bo y
bi zar
ber y</w>
be tra
barbar ic</w>
att acking</w>
at z
as certain</w>
ar do</w>
aqu ac
aquac ulture</w>
apo logies</w>
anxi ety</w>
alle gedly</w>
accommod ation</w>
ac es</w>
abduc tion</w>
a to</w>
[COM( 2001)</w>
V o
Th ings</w>
Ter rit
R ed</w>
Produc t</w>
P as
Min ut
Milose vic</w>
Met ten</w>
L ar
Kozlo duy</w>
Kall as</w>
Je an-
Jar zemb
G reater</w>
Fär m</w>
Frass oni</w>
Fac ed</w>
E i
Cub an</w>
Co tonou</w>
CF Cs</w>
C )</w>
Bus iness</w>
Ber tens</w>
B ak
5 9</w>
10 3
/98- 98
(A5-0 4
( 5)</w>
zo ono
wor ded</w>
win ter</w>
w alls</w>
vo id</w>
veri fy</w>
us eful
up grading</w>
un happy</w>
um p</w>
um es</w>
tri als</w>
tion 's</w>
ti rel
ti es:</w>
t ’s</w>
t )</w>
super flu
sup plying</w>
staff ing</w>
st al
speci alists</w>
sole mn</w>
sib le
sh ot</w>
rul ings</w>
resolu te</w>
representa tions</w>
rel ying</w>
regre ts</w>
reflec ting</w>
recti fy</w>
re mun
ran ks</w>
r í
provo ked</w>
prospec tus</w>
pro -European</w>
preg nan
poc kets</w>
po sted</w>
pe red</w>
ous es</w>
ot ter
origin s</w>
opti mum</w>
one- sided</w>
one '</w>
on line</w>
off set</w>
o k</w>
no table</w>
nee ding</w>
n án
n is
mu sic</w>
mod ulation</w>
missi le</w>
mat h</w>
mag n
licen sing</w>
le m
lat eral</w>
la tionary</w>
la h</w>
it i</w>
ir rit
ir responsibility</w>
interpre tations</w>
ing- out</w>
inf lexi
il ings</w>
hor se</w>
homosex ual</w>
ho ods</w>
ho lid
ha ul</w>
gu ez</w>
gra vity</w>
gra ded</w>
govern ment's</w>
gl adly</w>
fu ture
fraudul ent</w>
for ge</w>
for d</w>
fl u</w>
fic i
fe ared</w>
fan a
ess ed</w>
er ce</w>
entr usted</w>
enjo ying</w>
en ters</w>
emb rac
dro pped</w>
distinc t</w>
dis coura
diff ers</w>
depl orable</w>
declar ing</w>
cur b</w>
cor rupt</w>
cor ner</w>
conve yed</w>
constitu tions</w>
condi tionality</w>
conc ession</w>
compar ative</w>
collap sed</w>
co ver
ce ilings</w>
cau ca
cas h</w>
care ers</w>
campaign ing</w>
calcul ation</w>
c lim
bul k</w>
bu ried</w>
bran ches</w>
bit ter</w>
bi -
be sides</w>
bassad or</w>
ash ing</w>
as ing</w>
anti-S emitism</w>
al lotted</w>
al 's</w>
ag on
ad diction</w>
accompl ished</w>
aband oning</w>
Wel come</w>
War saw</w>
W all</w>
Vilvo orde</w>
Throu ghout</w>
Techno logy</w>
Swie bel</w>
Rod rí
R otter
Prog ressive</w>
Proce du
Pakist ani</w>
Pa ul
P eij
P aul</w>
O fficial</w>
Nassau er</w>
N ever</w>
Mun ich</w>
Mor oc
Maca o</w>
M ik
L ad
K ey
Isl am
Inc reas
Gu ide
Gor sel</w>
Gonzá lez</w>
Go e
Galile o</w>
G as
Europe ;</w>
Euro just</w>
EU- US</w>
EU- Russia</w>
Consum ers</w>
Communit y-
Cate gory</w>
Be ing</w>
B end
B BC</w>
Ann ual</w>
An k
A ir</w>
A 4-0
7 8</w>
5 3</w>
198 0s</w>
10 89</w>
1 1%</w>
/ 1
) 1089</w>
(SEC (2009
(SEC(2009 )1089</w>
(INI )]</w>
(CNS )
year ’s</w>
weal thy</w>
w earing</w>
w an</w>
vege tables</w>
ve d:</w>
undeni able</w>
un healthy</w>
un certainties</w>
un avo
twenty- first</w>
tur no
turno ver</w>
tri partite</w>
tri g
trig gered</w>
trans plant</w>
ten tly</w>
t ness</w>
t arily</w>
superflu ous</w>
sup pression</w>
speedi ly</w>
speci fies</w>
slic k</w>
simil arly</w>
si es</w>
short ages</w>
self- regulation</w>
se ized</w>
sco re
s pr
resid e</w>
repe ti
ren d
re think</w>
re publics</w>
re open</w>
rati fying</w>
r as</w>
ques tioning</w>
ques tioned</w>
promo tional</w>
pli ght</w>
pl es:</w>
ph one</w>
p y</w>
p ion
pion e
over ri
over ly</w>
ordin arily</w>
opport un
on ym
occup y</w>
obli ge</w>
o is
no ting</w>
nit ude</w>
nation alist</w>
n ine
n ant</w>
mon ies</w>
mech an
margin alised</w>
mag nitude</w>
like lihood</w>
liber alising</w>
li on
land 's</w>
la ud
j er
inv alu
invalu able</w>
interven ing</w>
intere st
infec tion</w>
in coming</w>
imp asse</w>
ill iter
ili bri
ignor ance</w>
hom e
ha bit</w>
h o</w>
h ate</w>
gu ise</w>
gre y</w>
gr ass</w>
form erly</w>
force ful</w>
fo stering</w>
fav ourably</w>
exacerb ated</w>
ess ors</w>
er s:</w>
equ ilibri
epidem ic</w>
ener ge
endor sing</w>
en ligh
emer ges</w>
dre ams</w>
dol lars</w>
dis pen
direc tors</w>
direc tor</w>
di et</w>
depart ment</w>
den ial</w>
coun ted</w>
cou ples</w>
conver t</w>
contribu tors</w>
continent al</w>
consum ers'</w>
con form</w>
compr ising</w>
ch i</w>
celebr ation</w>
cat alogue</w>
bo d
bizar re</w>
bee keepers</w>
ban kers</w>
bab y</w>
b ought</w>
atten dance</w>
at ri
arran ge</w>
areas :</w>
appl ause)</w>
ann um</w>
an cy</w>
agend as</w>
after math</w>
ad mir
achiev able</w>
abduc ted</w>
ab ili
a u</w>
Wh ite
Tri bunal</w>
Tibet ans</w>
Satur day</w>
S ti
Rotter dam</w>
RE AC
Orte ga</w>
Niger ia</w>
Nat ura</w>
Nag or
Moldo van</w>
Mit ch
Lin ko
Lanc ker</w>
J on
J en
In stru
Im migration</w>
I z
Fra ud</w>
Four th</w>
F ab
Europe ’</w>
E f
Davi d</w>
Dan i
Con fi
CO N
C ey
Bro ek</w>
Be tween</w>
Administra tive</w>
Ac cess</w>
9 9
9 0
4 -
/9 9)</w>
' a</w>
% )</w>
– –</w>
z 's</w>
year -
with drawing</w>
we b</w>
vir us</w>
v ent</w>
tur n
trans formed</w>
tra ders</w>
today '</w>
ten able</w>
te :</w>
targe ting</w>
t abo
super vise</w>
success or</w>
su ffe
small est</w>
signat ories</w>
seven th</w>
seg reg
see ds</w>
scienti fic
sc ha
s add
res is
reli ev
re jo
r ush</w>
pu pil
promp ted</w>
prohib iting</w>
progres sively</w>
prem ise</w>
predic ted</w>
practi sed</w>
popul ist</w>
po wered</w>
pic tures</w>
physi cally</w>
pha s
per missible</w>
pe z</w>
part ment</w>
pan demics</w>
p it
on ment</w>
ol l
ol d
observ atory</w>
neo- liberal</w>
n on</w>
multilater alism</w>
mortg age</w>
mon u
mil es</w>
margin al</w>
m as
lu x
liber alization</w>
le do</w>
laud able</w>
l o</w>
intensi fied</w>
in sight</w>
in different</w>
horri fic</w>
ga thering</w>
g ay</w>
ful ly-
ful l-
for tress</w>
fe eds</w>
faith ful</w>
fa ther</w>
f illing</w>
extra ordinarily</w>
en -
employe e</w>
em en</w>
drin k</w>
dispar ity</w>
direc tions</w>
differenti ation</w>
dict ate</w>
de l</w>
d ges</w>
countri es;</w>
contr actual</w>
contex ts</w>
conten tious</w>
consci enti
condu cive</w>
compr ises</w>
complain ing</w>
commer ci
colon ial</w>
col um
coast line</w>
cle aring</w>
chann elled</w>
categor ically</w>
card ini</w>
c um
bu t
bro ke</w>
bir th
before hand</w>
ax is</w>
av al</w>
author ise</w>
argu ing</w>
ar do
ant :</w>
admir ation</w>
accus ation</w>
aband onment</w>
a ven
a tively</w>
Wal es</w>
WH O</w>
Terror ism</w>
T ai
State ment</w>
S cho
S O
S E
Roth ley</w>
Rodrí guez</w>
Rapporte ur
REAC H</w>
Pol ledo</w>
Past y</w>
P elt
O thers</w>
Mus cardini</w>
Mul ti
Ma king</w>
M ob
Le on
K or
Je wish</w>
Im m
I A
House 's</w>
Ha iti</w>
Guar an
G ab
F ar
Dec is
D í
Commun ism</w>
Co h
C ross</w>
Boli via</w>
Be ren
Bas ed</w>
B ru
Aud itors'</w>
Ank ara</w>
Ab k
A z
A long</w>
7 5%</w>
4 7
14 08
(E EC)</w>
' We</w>
win ning</w>
well being</w>
w ag
vulner ability</w>
v ating</w>
useful ness</w>
univers ality</w>
under gone</w>
un think
un tenable</w>
un limited</w>
un expected</w>
ul l</w>
ub res
ty re</w>
troub led</w>
tra m
tion -
tigh ter</w>
thres holds</w>
th odo
te d)</w>
tac tics</w>
t ment</w>
t els</w>
surroun ded</w>
ste dt</w>
stad t</w>
sta ur
speci fying</w>
sit tings</w>
signat ures</w>
si ck</w>
shop ping</w>
semin ar</w>
scientific ally</w>
scar city</w>
sat so
s men</w>
revolu tionary</w>
rea tivity</w>
re- A
re-A ubres
re z</w>
re staur
quick er</w>
qui er
progres sing</w>
produ cer
prefer ably</w>
pre- emp
polic i
person ality</w>
per taining</w>
peace keeping</w>
part- sessions</w>
pack aging</w>
ou tw
or inated</w>
op ting</w>
on ik
obser ving</w>
non- compliance</w>
no ble</w>
nel is
n- Bend
multi- annual</w>
mitig ate</w>
mind ful</w>
ment ality</w>
marke t-
mafi a</w>
lux ury</w>
lu gg
lu ck
lic it</w>
li day</w>
lands cap
la p</w>
justi fi
jeopardis ed</w>
j a</w>
is hable</w>
is ance</w>
investig ating</w>
interpre ters</w>
inter n
insul t</w>
instru mental</w>
initi ating</w>
influ ential</w>
inc lined</w>
in significant</w>
in '</w>
ific ally</w>
hydro carbons</w>
ho liday</w>
hi ding</w>
hec ta
gu ards</w>
geograph ically</w>
frequ encies</w>
formul ating</w>
for ts</w>
fe eding</w>
fast -
farm er</w>
expi res</w>
experi ment</w>
ex t
ess ly</w>
equilibri um</w>
envo y</w>
enlarge ments</w>
end anger</w>
embr ace</w>
dor f</w>
dis posed</w>
di v
develop s</w>
decision- makers</w>
de duc
cul turally</w>
cruel ty</w>
cor respon
contin ual</w>
construc ted</w>
compu ters</w>
cha os</w>
cha ff
certific ates</w>
cat ching</w>
car cin
bund ling</w>
black mail</w>
bench marks</w>
back ward</w>
back bone</w>
b ler</w>
aw ful</w>
au g
at o
asy lum
asser tion</w>
asp ire</w>
answ ering</w>
ang ing</w>
an om
an gry</w>
ali gn</w>
al s'</w>
ag ri
abo t
[COM( 2000)</w>
W ynn</w>
V id
V I</w>
Ukra ine
Ta x</w>
Ta ois
T satso
T ak
Syri an</w>
Sta tis
St and
St an
Spec ifically</w>
Se attle</w>
Sch mid</w>
S chaff
Ro th-
Rapporteur :</w>
Peij s</w>
Naz ism</w>
Mu ga
Mil ink
Me dic
Ma urit
Li ese</w>
Lam bert</w>
L ó
L y
Iz quier
Imm unities</w>
Hi gh
H ugh
Guide lines</w>
German s</w>
Garg ani</w>
GFC M</w>
Fran ce
Fr att
Fl ynn</w>
Fab re-Aubres
Euro pol
Ef forts</w>
EU RO
ECH R</w>
D ata</w>
Cor nelis
Confi dence</w>
Coh n-Bend
Chur ch</w>
C reativity</w>
C ity</w>
Bö ge</w>
Br un
Bos ni
Be tter</w>
B ou
8 8
20 10
14 9
' I</w>
Ε U</w>
ör t
ört scha
örtscha ch</w>
youn ger</w>
vis itors</w>
vic e-
vest ed</w>
ver sions</w>
vac u
up set</w>
up coming</w>
unthink able</w>
un scrupulous</w>
un foreseen</w>
un duly</w>
un ambigu
trans ported</w>
tion ’</w>
tion s;</w>
tion )</w>
ti es;</w>
theore tical</w>
th ol
th ings:</w>
tec h</w>
t ti</w>
sympa thetic</w>
succ ession</w>
su al</w>
strateg ically</w>
stead y</w>
st em
st al</w>
spo t
sign ature</w>
short -
ship ments</w>
sec ular</w>
scrutin ise</w>
scrap ping</w>
sci ences</w>
s our
s op
s in</w>
restra int</w>
ren dt</w>
remin der</w>
rela tives</w>
regis ters</w>
reconcil ing</w>
rec ep
re ments</w>
re building</w>
re ;</w>
quali fy</w>
pupil s</w>
propor tions</w>
promo tions</w>
proce eds</w>
prin ting</w>
prin ted</w>
preci ous</w>
pre amble</w>
postpon ing</w>
polic y:</w>
plun ged</w>
pl ing</w>
pho to
perpe tu
per tinent</w>
par ity</w>
over sight</w>
oper ative</w>
occurren ce</w>
ob es
n ical</w>
my ster
mis gi
misgi vings</w>
milit arisation</w>
lo ved</w>
lo ses</w>
lis ting</w>
liber alise</w>
li a</w>
le an
l am
ke wise</w>
ke t
jo y</w>
inter net</w>
inten ding</w>
i o</w>
ho stage</w>
hen ce
hence forth</w>
hecta res</w>
haul age</w>
happ ily</w>
hab its</w>
h us
gy p
grow ers</w>
fron ts</w>
form at</w>
for a</w>
flag rant</w>
fi xing</w>
exce eding</w>
even tual</w>
est s</w>
enthusias tically</w>
en '</w>
el o
disman tle</w>
discrepan cy</w>
descri bing</w>
dele tion</w>
deep est</w>
custom ary</w>
cu t
cru de</w>
cru cially</w>
conveni ent</w>
consul tative</w>
consequ ent</w>
confir ming</w>
con sume</w>
compani es'</w>
comm od
comm and</w>
colum n</w>
col our</w>
cl ash</w>
chron ic</w>
change over</w>
ch en
cen ts</w>
car go</w>
bur gh</w>
bree ding</w>
bo at</w>
bi tion</w>
be g</w>
bat ter
bar ome
b less
aw arding</w>
aud iting</w>
at ar</w>
as pir
arre sts</w>
app rais
ant a</w>
announ cing</w>
alis es</w>
al d</w>
aff lic
accur acy</w>
acci dental</w>
able ;</w>
White head</w>
U R
Trans cauca
T en</w>
Stan ding</w>
Soci ety</w>
S IS</w>
Roth- Beh
Qu aest
Q atar</w>
Po si
P örtschach</w>
P rec
P op
O pening</w>
O ce
Nie bler</w>
Need less</w>
Minut es)</w>
Minis ter
Me iss
Mc N
Mc K
Mal m
Mad agas
Ma aten</w>
M ü
M anu
Ló pez</w>
Li kewise</w>
Kla us</w>
J ames</w>
Izquier do</w>
H än
Gu in
Gar c
G á
Fratt ini</w>
For tress</w>
Floren z</w>
Fif thly</w>
F )</w>
EU /
EP P</w>
E l</w>
D ini</w>
Cornelis sen</w>
Coordin ation</w>
Ch ange</w>
C5-0 0
Bon de</w>
Ann an</w>
Ala van
Al ti
Al ber
Ad visory</w>
9 9</w>
9 4
8 )</w>
6 2</w>
5 ­
5 7</w>
3 50</w>
200 5
20 50</w>
198 6</w>
196 7</w>
1408 /7
/200 3</w>
(H-0 7
(A4-0 0
( Rapporteur:</w>
( O
é n
yn th
whol es
whe el</w>
wast ing</w>
wa ves</w>
volun tarily</w>
vol umes</w>
ve he
v est</w>
up heav
um a</w>
two- thirds</w>
tri gg
travel lers</w>
trans mitted</w>
tou ches</w>
tor tured</w>
tin y</w>
ti e</w>
therap y</w>
techni que</w>
te dness</w>
symp tom
super -
suffe rers</w>
stu ck</w>
stic king</w>
sti f
star t
standardis ed</w>
st ories</w>
st ems</w>
spectac ular</w>
sor ted</w>
sop his
son 's</w>
so ya</w>
small -</w>
sla ve</w>
si e
second- class</w>
secon ds</w>
rou tine</w>
ro oms</w>
respec tively</w>
respec tful</w>
remun eration</w>
recipi ents</w>
rec alled</w>
realis ing</w>
ra y</w>
prud ence</w>
poli tic
pol ls</w>
pi vo
pessim ism</w>
persis tence</w>
our a</w>
other 's</w>
onik i</w>
observ ance</w>
objec tives:</w>
o vern
motor way</w>
mis ts</w>
mem orandum</w>
mater nity</w>
life style</w>
less -
l i</w>
l es'</w>
k os</w>
j ac
it y's</w>
issu es:</w>
invo ked</w>
inv asion</w>
interrup ted</w>
interpre ting</w>
inter dependence</w>
indic ator</w>
in o
imple ments</w>
il licit</w>
ic a</w>
ho f
hil ardo
he at</w>
ham per</w>
gui ties</w>
grati fying</w>
gener alised</w>
fre ed</w>
fin ishing</w>
feder alist</w>
extrem ist</w>
exten sively</w>
execu tions</w>
ex or
ex -
ess al
essal oniki</w>
esc u</w>
eradic ating</w>
enem y</w>
en counter</w>
doub tful</w>
doub le-
don ations</w>
do or
dis trust</w>
detec t</w>
dest in
deser tification</w>
decreas ed</w>
d ation</w>
d ad</w>
custo dy</w>
cu rious</w>
counter ing</w>
corrid or</w>
contradic ts</w>
contradic t</w>
cont emporary</w>
consum ing</w>
consum ed</w>
confid ential</w>
comprehen sively</w>
comp ound</w>
commod ity</w>
comm on
colleag u
cli matic</w>
chur ch</w>
champ ion</w>
celebr ated</w>
cataly st</w>
case- law</w>
c reat
c lin
c lan
c ited</w>
bus y</w>
broadcast ers</w>
br on</w>
ber ger</w>
augh ter</w>
at ories</w>
as pec
arti stic</w>
an ity</w>
ambigu ity</w>
ambi guities</w>
ama zed</w>
al lu
adv ent</w>
admi rable</w>
adju sting</w>
accompl ish</w>
ab ilit
a ks</w>
X ynth
We ber</w>
Ver ification</w>
Ver hof
Uni versity</w>
Un employment</w>
The ato</w>
Th essaloniki</w>
Su per
S A</w>
S &D</w>
Refuge es</w>
Qu ad
Pe ter</w>
O re
Ni elson</w>
Ne goti
Moroc can</w>
Mir anda</w>
Madagas car</w>
Ma h
M oura</w>
L oc
L ange</w>
Johnst on</w>
Jarzemb owski</w>
Ir on</w>
I R
I I
He bron</w>
He ad</w>
H ap
Gre ec
G hilardo
Fra hm</w>
Fer nán
Fabre-Aubres py</w>
F ound
Europol 's</w>
Cour t's</w>
Competi tiveness</w>
C ultural</w>
C BR
CBR N</w>
Au thor
Alti ero</w>
Adminis tration</w>
Addi tionally</w>
Abk haz
2000 -2006</w>
1 30</w>
(COS )]</w>
zo g</w>
y ard</w>
y al</w>
wi den</w>
warran ted</w>
warm est</w>
vis a-
vers a</w>
ut on
uni fying</w>
unambigu ously</w>
un safe</w>
un rest</w>
un le
un just</w>
un iting</w>
travel led</w>
total itarianism</w>
tori ous</w>
tes y</w>
ter m
ta ste</w>
t z</w>
swe eping</w>
super ficial</w>
sub- Saharan</w>
su preme</w>
stu ff</w>
stra in</w>
stipul ate</w>
stand still</w>
st ro
squ are</w>
situ ated</w>
share holders</w>
set tling</w>
set t
sen sibly</w>
seas on</w>
se ed</w>
se af
scho ol
sca pe
sal ute</w>
s pl
s er</w>
ros s-
revi ve</w>
renew ables</w>
rememb ering</w>
reco vered</w>
recipi ent</w>
re sign</w>
re pro
re distribution</w>
rapporteur '</w>
r ounds</w>
r ors</w>
r an</w>
prob able</w>
prerequis ites</w>
premi um</w>
pregnan cy</w>
po ll</w>
pl uton
pic ked</w>
pi gs</w>
pha sed</w>
ph ones</w>
pati ent
pass age</w>
par tis
p ical</w>
p ar</w>
p -
overn ight</w>
ou l</w>
organis ational</w>
or dered</w>
opport une</w>
occup ying</w>
obli ges</w>
obes ity</w>
o v
nu isance</w>
noti fy</w>
nor m</w>
nicot ine</w>
neg ligence</w>
ne es</w>
nation alities</w>
multi media</w>
multi lingu
much- needed</w>
monit ors</w>
modi fy</w>
mo de</w>
mo bili
mis understood</w>
mirac le</w>
me -
magn ific
m ire</w>
liter ature</w>
least- developed</w>
junc ture</w>
jeopardis ing</w>
iv atives</w>
ir rational</w>
ir o</w>
inde finitely</w>
in dign
in conceivable</w>
imag ination</w>
im pover
im porters</w>
il and</w>
identi ties</w>
hu gely</w>
how ever
homosexu ality</w>
holid ays</w>
hier archy</w>
he re:</w>
he ed</w>
he ated</w>
handic aps</w>
gl ass</w>
geograph y</w>
fundament alist</w>
fully- fledged</w>
forec ast</w>
for give</w>
for bi
flu orinated</w>
extre mists</w>
extr action</w>
expe di
execu ted</w>
evalu ations</w>
es burg</w>
eradic ation</w>
envis ages</w>
en su
emo tional</w>
differenti ated</w>
design ation</w>
defe ated</w>
da c</w>
d 's</w>
cross roads</w>
cred ited</w>
cour tesy</w>
correc tive</w>
correc tions</w>
convic ted</w>
compu ter
comprom ising</w>
commissi oned</w>
comm uni
comm odi
combat ting</w>
com posed</w>
com plac
co- financing</w>
clo thing</w>
clean er</w>
cen sus</w>
carcin ogen
bur ning</w>
brid ges</w>
br illi
bi- regional</w>
bench mark</w>
b att
awa ited</w>
asylum -
ast am
associ ate</w>
aspir ation</w>
ar sen
appl ause</w>
anticip ation</w>
ant opoulou</w>
anom al
am ed</w>
am antopoulou</w>
al- Quad
al-Quad ras</w>
addi tions</w>
acqu ain
ach ing</w>
absor ption</w>
abil isation</w>
ab str
a e</w>
Where as</w>
Vid al-Quadras</w>
Venezu ela</w>
Trans -European</w>
Taois each</w>
T ro
T ren
T e
Ste ven
St abilisation</w>
Schmid t</w>
Scandin avian</w>
Roth-Beh rendt</w>
Particul ar</w>
Pap astam
Pa asi
Ob ama</w>
OLAF 's</w>
Nic ol
Mul der</w>
Mo ving</w>
Mo der
Man n</w>
Ma es</w>
Li fe</w>
Lan gen
L a</w>
K al
Johann esburg</w>
Institu tions</w>
I O
Hän sch</w>
Hung arians</w>
H ans
Guant á
Group 's</w>
G em
G all
Found ation</w>
Fat u
Euro dac</w>
Ei ther</w>
E din
Do cu
Dis ease</w>
Director -General</w>
Di amantopoulou</w>
Cz ech
Contr ary</w>
Co lo
Co al</w>
Can ary</w>
C ris
Bontemp i</w>
B ay</w>
An dri
A 5-0
8 /
6 1</w>
4 9
200 3
1 25</w>
/9 6</w>
/200 4)</w>
( 8
' Europe</w>
ü r
én dez</w>
worl d-
who ever</w>
wei gh</w>
w isely</w>
w are</w>
vic ious</w>
ver tical</w>
v in
v ated</w>
ut op
un bundling</w>
u ti
u ps</w>
tur bul
tour ists</w>
toler ant</w>
tion ers</w>
tigh tened</w>
tic ated</w>
ti red</w>
ti ously</w>
ti er</w>
ten th</w>
telec oms</w>
techn ic
teach er</w>
tan ker</w>
t el
sympa th
super numer
su ffice</w>
stat eless</w>
st y
st ay
sp ire</w>
sor ship</w>
sophis ticated</w>
shif ting</w>
shap ed</w>
senti ments</w>
secre tari
sec urit
scrap ped</w>
score board</w>
scape go
sa fest</w>
rough ly</w>
ro ed
rend ous</w>
reluc tance</w>
reiter ating</w>
recipro cal</w>
rec k
reason s:</w>
qui e
pun ishable</w>
public 's</w>
problem :</w>
prescri ption</w>
prem ises</w>
prec eding</w>
pol lin
pluton ium</w>
pivo tal</w>
philosoph ical</w>
pene tr
paed oph
over lap</w>
organiz ing</w>
op a
o gene
nor ms</w>
no twithstanding</w>
n ar</w>
mur ders</w>
multi- level</w>
motor cycles</w>
mor ally</w>
modern ised</w>
mis management</w>
measu rable</w>
maxim ise</w>
marke t
mar ried</w>
man ship</w>
man -made</w>
magnific ent</w>
mag ic</w>
mad ness</w>
lor ry</w>
loc ally</w>
life -
li er</w>
level led</w>
legitim ately</w>
l ou
l ing
ki en
jud ging</w>
j k</w>
iz es</w>
issu ance</w>
inju ries</w>
infring e</w>
infec ted</w>
inf lationary</w>
in spire</w>
in quiries</w>
in ity</w>
import ation</w>
illu sions</w>
ic ism</w>
hun ting</w>
hul l</w>
hormon es</w>
homel essness</w>
hel pl
glo be</w>
gi ant</w>
free ze</w>
flexi bly</w>
fici ally</w>
ff ers</w>
fas hi
explo sive</w>
expe lled</w>
expe d
excus es</w>
ex o
encomp ass</w>
electr on
ef e</w>
ed er
ear ning</w>
e- mail</w>
e fire</w>
du ty
dri ver</w>
doctr ine</w>
distric t</w>
dis ruption</w>
dis closure</w>
dimin ish</w>
dimen sion
di r
desi res</w>
deser ved</w>
der ivatives</w>
depri ving</w>
deplo y</w>
dem ago
deep- sea</w>
dee m</w>
day ’s</w>
datab ases</w>
d in</w>
cross ings</w>
cr y</w>
counter act</w>
correc tion</w>
cor relation</w>
cooper ated</w>
construc ting</w>
conscienti ous</w>
compli ments</w>
compar ing</w>
comp lies</w>
co sting</w>
clean ing</w>
car ing</w>
c ks</w>
budge ting</w>
br and</w>
boy cot
blat ant</w>
bi om
bench marking</w>
bar gaining</w>
bank rup
ba o</w>
aud its</w>
atro cities</w>
asser tions</w>
ass ed</w>
ass ass
are rs</w>
apprais al</w>
annex ed</w>
all er
ag ues</w>
advis ers</w>
adver sely</w>
acquis ition</w>
acknowled gement</w>
achiev es</w>
accoun ted</w>
a- Herzegovina</w>
UK IP</w>
Tsatso s</w>
Tit ley</w>
Th ors</w>
Taj ani</w>
Stalin ism</w>
Sta ff</w>
Secre tariat</w>
Sch roed
Reg ret
Rec ital</w>
Pro posal</w>
Pro liferation</w>
Pro di
President 's</w>
Prec isely</w>
Par ties</w>
P ur
Naz i</w>
Mitch ell</w>
Milink evich</w>
McN ally</w>
Mat the
Mar kets</w>
M organ</w>
LIF E-
K lin
K ir
Ital ians</w>
Indone sia</w>
I gn
Hau g</w>
H off</w>
H CFCs</w>
Guaran tee</w>
Ga hr
Fu ture</w>
Fran co-
F our</w>
Edin burgh</w>
EC -
Cur tain</w>
Cur rent</w>
Con gratul
Chil ean</w>
C ram
C al
Bosni a-Herzegovina</w>
Bil bao</w>
B e</w>
Andri kien
Alber tin
8 9/
6 7</w>
17 %</w>
14 0</w>
12 9</w>
/98-98 /0
- the</w>
(H -
( M
' we</w>
‘ European</w>
z stan</w>
y- based</w>
wat ch
wa ste
visa- free</w>
vig our</w>
uni form
ung le</w>
under ground</w>
un restricted</w>
un ites</w>
um b</w>
u red</w>
u no
ty ran
tw enti
twenti eth</w>
today :</w>
tive :</w>
ti de</w>
tabo o</w>
syn thesis</w>
sur y</w>
supernumer ary</w>
super vising</w>
summar ise</w>
success ors</w>
su ses</w>
su es</w>
streng ths</w>
stream lining</w>
stereo types</w>
stead ily</w>
ste er</w>
stag nation</w>
st ops</w>
spir it
sol vency</w>
serv atory</w>
se ;</w>
s wee
s k</w>
road map</w>
ri vers</w>
revi val</w>
requis ite</w>
ren dering</w>
reloc ating</w>
reimbur sement</w>
red ouble</w>
re '</w>
radi ological</w>
prote ins</w>
prosecu ted</w>
proce eded</w>
pro- active</w>
predec essors</w>
prec ision</w>
portfoli os</w>
po ol</w>
phas ing-out</w>
person 's</w>
patter n</w>
partis an</w>
par at
p ian</w>
over haul</w>
our ings</w>
ori en
opin ion
om ing</w>
of i</w>
o ve
o ted</w>
non- ex
non-ex istent</w>
nee d
necess it
nam o</w>
multilingu alism</w>
moun tain
mor n
mod al</w>
mis used</w>
mis guided</w>
mi grant</w>
meat -and-
meat-and- bone</w>
mean while</w>
marke t;</w>
man 's</w>
m ol
lobb ies</w>
li kes</w>
levi es</w>
lef t-wing</w>
l unch</w>
justifi ably</w>
justi fying</w>
it orial</w>
isol ate</w>
institu tes</w>
infring ed</w>
inf er
in ali
hul led</w>
house holds</w>
hor rendous</w>
home work</w>
hol istic</w>
h r</w>
fron t
for ums</w>
fi x</w>
fi erce</w>
expl oration</w>
expi red</w>
exha usted</w>
ex port
ex ile</w>
evol ve</w>
ev es</w>
enlar ging</w>
employ ing</w>
e- commerce</w>
e ’s</w>
e up
e ating</w>
down turn</w>
domin ate</w>
diver gent</w>
diver gence</w>
dist ress</w>
dict ator</w>
di mat
detec tion</w>
detec ted</w>
design s</w>
defen ds</w>
defen der</w>
de forestation</w>
de -
cr ates</w>
countr y-
cou pled</w>
cost- benefit</w>
cor ps</w>
conf use</w>
compe lled</w>
commen ted</w>
col ours</w>
clu bs</w>
clo sures</w>
cle ared</w>
clan dest
cl am
challen ged</w>
ch ick
cere als</w>
cent red</w>
ceas efire</w>
ce ;</w>
c ows</w>
c admi
cadmi um</w>
br e</w>
bot tom
bloo dy</w>
beau ty</w>
av ail</w>
aud itors</w>
at om
aston ishing</w>
ass emb
arrog ance</w>
ant s'</w>
annex es</w>
an tu
alloc ations</w>
ali zing</w>
ail ing</w>
ai red</w>
adv ancing</w>
ac company</w>
abund antly</w>
Y N
Verhof stadt</w>
V alle
Tur ks</w>
T en
Strate gic</w>
Shar on</w>
Sel la
Secretary- Gener
S pain
Represen ta
Po dimat
Particul arly</w>
Parliament :</w>
P é
Os se
Ob servatory</w>
Negoti ations</w>
NG O</w>
Mü ller</w>
Mus ot
Malm ström</w>
Leon ardo</w>
Lat vian</w>
K ofi</w>
Jour nal</w>
J á
I V
His tory</w>
Har mon
H en
H al
Guantá namo</w>
G il-
G PS</w>
G B
F am
Euro group</w>
Equ atorial</w>
Egyp tian</w>
Dru gs</w>
De pre
Cred entials</w>
Congratul ations</w>
Committe e's</w>
Cohn-Bend it</w>
Chil d</w>
Cas pian</w>
C O</w>
Bush ill-
Bu ze
Basi cally</w>
Barro so
B 6-0
Az nar</w>
Al ps</w>
7 7</w>
6 9</w>
5 -
197 0s</w>
18 %</w>
1408/7 1</w>
- on</w>
- of-
(S YN
(L V)</w>
z u</w>
year ly</w>
y k</w>
work ings</w>
word s:</w>
wholes ale</w>
w ate
voc ation</w>
viol ates</w>
val id
ustom ed</w>
under lining</w>
unavo idable</w>
un accep
u tter</w>
trans posing</w>
to y</w>
tim esc
timesc ale</w>
ter -
te d:</w>
tax -free</w>
t len
t ing
stoc k
ste ering</w>
spir al</w>
so red</w>
slow down</w>
sk il
shoul ders</w>
selec ting</w>
s cra
right s;</w>
reve aling</w>
restric ts</w>
res cu
ren oun
ren dered</w>
regul ates</w>
rec ast</w>
re training</w>
re production</w>
re am</w>
radi ation</w>
question nai
questionnai re</w>
provi der</w>
prohib its</w>
pro long
priori tising</w>
preven tative</w>
presup poses</w>
practi se</w>
pos sible
por tion</w>
polic y;</w>
ple dges</w>
plan es</w>
plan e</w>
pe fully</w>
pass ports</w>
p a</w>
ow ner</w>
over seas</w>
over lap
ou tle
open -
on erous</w>
nois y</w>
nigh t
ne ga
mo tivation</w>
min ing</w>
mat ched</w>
marri age</w>
marke dly</w>
mar ch</w>
ma ster</w>
m ir</w>
m al</w>
log is
lo gi
live lihood</w>
live li
liber als</w>
landscap e</w>
lan ding</w>
lab our
k ul
j ö
j o</w>
is o
is -
ir relevant</w>
inte gra
ing es</w>
inali enable</w>
in her
in er
in deb
impro per</w>
hy ster
horiz on</w>
hor ror</w>
ho t</w>
hesit ant</w>
health ier</w>
ham pered</w>
gen cies</w>
gang s</w>
g ically</w>
g /
fu elled</w>
forese e</w>
ferti li
exer ted</w>
ex pose</w>
ev asion</w>
ep iso
ent ren
encomp asses</w>
en zy
emer gencies</w>
embar king</w>
elec t</w>
el ap
educ ating</w>
e ast
div or
distric ts</w>
dist ances</w>
dis pel</w>
dis mis
dict ated</w>
di ff</w>
destin y</w>
denoun ced</w>
democr at</w>
degra dation</w>
d ram
countri es’</w>
contrac eption</w>
col lateral</w>
coast guard</w>
co er
clar ifications</w>
clandest ine</w>
champ ion
cen suses</w>
ce :</w>
cancell ed</w>
broad ening</w>
bra tions</w>
boo m</w>
bol ster</w>
bloo d
bar b
bankrup t
b ounds</w>
ate d;</w>
at tain
at able</w>
asser ted</w>
appropri ation</w>
appli ances</w>
addic ts</w>
acc ustomed</w>
absten tions</w>
abot age</w>
a h</w>
Wat er</w>
W ink
V arious</w>
Un der
Turke y'</w>
Tr ue</w>
TAC s</w>
Span i
Some one</w>
Somal i</w>
Sella field</w>
Sec u
SA P</w>
S jö
Ri ver</w>
Regret tably</w>
Rec o
Re view</w>
Procedu re)</w>
Pre par
Portu gal
Pi ec
Peter s
Papastam kos</w>
P A</w>
Nagor no-
N )</w>
Min sk</w>
Meiss ner</w>
M en
Linko hr</w>
Legis lation</w>
La os</w>
Klin z</w>
J ud
J an
Inter ior</w>
IC T</w>
Hol land</w>
Ho pefully</w>
H it
H IV</w>
Ghilardo tti</w>
Gall ag
G is
Fron t</w>
F re
F ei
Dí ez</w>
Decis ions</w>
De b
Czech s</w>
Coven ey</w>
Con duc
Communit y’s</w>
Colle agues</w>
Christi anity</w>
Car l
Car diff</w>
C u
C ab
Bushill- Matthe
Ber g</w>
An g
Alavan os</w>
Abkhaz ia</w>
9 00</w>
7 a</w>
6 8</w>
6 4</w>
4 2
3 5%</w>
200 6
198 8</w>
/200 4</w>
- out</w>
- friendly</w>
( manufacture</w>
( and</w>
' to</w>
yi el
y ard
women ’s</w>
weak ens</w>
virtu es</w>
ver ages</w>
val ence</w>
vacu um</w>
v é</w>
v á
util ised</w>
un wanted</w>
un pleasant</w>
un authorised</w>
ump h</w>
ty '</w>
tri angle</w>
tr ac
tomorrow ’s</w>
tom ic</w>
toler ated</w>
tlen ec
thodo x</w>
there of</w>
tax ed</w>
syn thetic</w>
stat es
spir its</w>
spen ds</w>
south- eastern</w>
sou l</w>
slog ans</w>
slaugh ter
sk in</w>
sin king</w>
sib ilit
sh ell
sel v
scenari os</w>
sc ure</w>
sa v
s ag
rum in
ru th
ro lling</w>
ris k
ris es</w>
ric e</w>
rewar ded</w>
repeti tion</w>
remedi es</w>
remedi ed</w>
reloc ate</w>
re sur
re structure</w>
r ö
r y
r gy
quo te:</w>
provo ke</w>
proposal )</w>
profession alism</w>
prejudic es</w>
policy- making</w>
plic ity</w>
plain ly</w>
perce ive</w>
per verse</w>
per mitting</w>
passion ate</w>
paradox ical</w>
ou sed</w>
or s'</w>
op tional</w>
ogene ous</w>
off -
ob scure</w>
nel ly</w>
mon thly</w>
mis trust</w>
minute 's</w>
min eral</w>
mi x
mer ger</w>
mer cy</w>
man power</w>
los ers</w>
liveli hoods</w>
lin ess</w>
le ts</w>
la x</w>
kin dly</w>
j ungle</w>
it ous</w>
ish -
is '</w>
ir regular</w>
intr in
intimid ation</w>
inter view</w>
inter vals</w>
inten sity</w>
int act</w>
institution alised</w>
iner tia</w>
incorpor ates</w>
in dispu
in discriminate</w>
im ages</w>
i est</w>
hom ophobic</w>
hili a</w>
high- risk</w>
hi j
harmon ized</w>
gol den</w>
four teen</w>
fin e-
fes to</w>
fam ine</w>
f laws</w>
f law
exer ting</w>
exclu si
escal ation</w>
es sion
environment ally-
enem ies</w>
end ure</w>
enc lat
en ough
em e
elo qu
eg g</w>
e ira</w>
e es</w>
duc ing</w>
docu mented</w>
discus ses</w>
disap point</w>
dis regarding</w>
dis missed</w>
dis miss</w>
dict ators</w>
di ans</w>
deterior ating</w>
depos its</w>
defec ts</w>
def enc
de d:</w>
dd ling</w>
d' E
d dle</w>
d aughter</w>
custom er</w>
custo m</w>
cum ber
contain er</w>
confron ting</w>
conf ess</w>
conc ise</w>
compens atory</w>
comp ounds</w>
commodi ties</w>
commissi on
commen ce</w>
comfor t</w>
cl ashes</w>
cha mber</w>
ch t</w>
ch ement</w>
centr ally</w>
case- by-
case-by- case</w>
carcinogen ic</w>
burden ed</w>
boycot t</w>
bot tlenec
blo c</w>
biom ass</w>
believ ing</w>
be verages</w>
be aten</w>
be at</w>
barome ter</w>
b or</w>
b ag
b )</w>
author isations</w>
auc tion</w>
ast e</w>
assa ult</w>
argu es</w>
are dness</w>
appe aling</w>
ap pointing</w>
ap parat
an cho
al cul
al as</w>
ai rs</w>
agri -
ag eous</w>
affir mation</w>
ad mits</w>
Xynth ia</w>
Wor k
W ur
Vi et
Th om
Territ orial</w>
Tak kul
T ha
T R
Steven son</w>
St al
Sou th-
So crates</w>
Sjö stedt</w>
Secu rities</w>
Sch rö
Sch mit
S it
S LI
SLI M</w>
Ra mo
R w
R h
Quaest ors</w>
Qu inn</w>
Qu een</w>
Pol es</w>
Pen insula</w>
Parlia ments</w>
O ffic
Nor th-
Non- Proliferation</w>
Nichol son</w>
Nagorno- Karabakh</w>
Mus har
Moldo v
Minis terial</w>
Mi gu
Mi er
M oun
Ky rgy
Jour n
J ord
In quiry</w>
Hu man
Gra efe</w>
Gis card</w>
Gahr ton</w>
Fran k
Fer nan
Fatu zzo</w>
F T
Euro bonds</w>
EU- India</w>
EM AS</w>
EF D</w>
EC J</w>
E m
E ffec
Don nelly</w>
Conduc t</w>
Communit y'</w>
Commission :</w>
Com position</w>
Co el
Chil dren</w>
Ch er
C lo
Buze k</w>
Bud apest</w>
Bo we</w>
Be y
Bar ing
B jer
Au tonom
Argen tine</w>
And alu
An dre
Alban ians</w>
Agen cies</w>
A tomic</w>
8 8</w>
5­ 0
2 3
198 7</w>
149 (8
149(8 ))</w>
/99 ):</w>
(H- 10
( continu
( G
' T
än der</w>
ä ß
world '</w>
wi fe</w>
wholehear ted</w>
wa ited</w>
vi gor
ve in</w>
v as
us er-
uniform ly</w>
un question
two fold</w>
tri vi
tri umph</w>
tri p</w>
transl ations</w>
tr ick
tion ist</w>
throw ing</w>
though t-
thir teen</w>
th is;</w>
th es</w>
testi fy</w>
tan ta
tanta mount</w>
sur pl
supple ments</w>
superi or</w>
super vised</w>
subsid ising</w>
subsid ised</w>
stream line</w>
str an
spe l
sle ep</w>
sl o</w>
simultane ous</w>
sign atory</w>
short -sighted</w>
sho res</w>
ship '</w>
sever ance</w>
scra p</w>
scr at
sc ant</w>
s pu
s me
s cor
rub b
reli es</w>
rejo ice</w>
regul ator</w>
reconcil ed</w>
recei ved:</w>
rec rea
recrea tional</w>
read ings</w>
re versal</w>
re sumption</w>
re organisation</w>
re es</w>
re bel</w>
re be
rapporteur ’s</w>
ran king</w>
radic alisation</w>
ra w
ra f</w>
r ally</w>
provoc ation</w>
prote sting</w>
propor tional</w>
progres sed</w>
prescri bed</w>
preg nant</w>
predomin antly</w>
poss esses</w>
popul ism</w>
pic king</w>
phr ases</w>
ph ant</w>
peri o
pap er
p us</w>
p tive</w>
p son</w>
overri ding</w>
out going</w>
origin ate</w>
one- minute</w>
off enders</w>
objec tivity</w>
nom inated</w>
no by
n ly</w>
mor ality</w>
min i-
milit ar
ment s'</w>
ment )</w>
me ag
meag re</w>
man dates</w>
ma tism</w>
loy al
lo s</w>
legis la
le tting</w>
le is
lan der</w>
l v
l un
l est</w>
ke -up</w>
journe ys</w>
it ement</w>
it a</w>
inven ted</w>
intensi fying</w>
institution s'</w>
inher ited</w>
ing ’</w>
inde x</w>
inc alcul
il isation</w>
ie v</w>
hero in</w>
hal ting</w>
h an</w>
gr ated</w>
gener ates</w>
ge :</w>
g as
frustr ated</w>
free- trade</w>
four thly</w>
fo ol
fle e</w>
flav ourings</w>
fl ou
ffic king</w>
ffic acy</w>
fem in
fasc ism</w>
fant astic</w>
f ty</w>
f righ
exter nally</w>
explo red</w>
ex porters</w>
es -General</w>
err a</w>
ero ded</w>
er ron
endeav oured</w>
end ang
en acted</w>
elec tro
elabor ate</w>
el u
el low</w>
ear ned</w>
e gg
duty -free</w>
dram a</w>
dra gging</w>
down wards</w>
down ward</w>
dog ma</w>
distur bed</w>
dist ressing</w>
dispu ted</w>
dis bur
dimin ished</w>
differenti ate</w>
dict atorial</w>
defen sive</w>
decreas ing</w>
dec lined</w>
de population</w>
de an</w>
d é
cyn icism</w>
cur ricul
cumber some</w>
cre ws</w>
convers ations</w>
contempl ate</w>
cont est</w>
conser vative</w>
connec t</w>
compens ated</w>
communic ating</w>
commerci alisation</w>
commemor ate</w>
commem oration</w>
comb ines</w>
cli ents</w>
clear ance</w>
cess ation</w>
cel lation</w>
ce ased</w>
ce -
car pet</w>
can cellation</w>
brilli ant</w>
bri ef
bri d</w>
brea the</w>
bl ank</w>
bi ome
b ones</w>
b ills</w>
b ac
attr acting</w>
at tered</w>
at tained</w>
asylum- seekers</w>
as :</w>
arti ficially</w>
arran ged</w>
appro ve
apparat us</w>
anti- European</w>
ance '</w>
an na
an cement</w>
alu n</w>
alter ing</w>
allevi ating</w>
align ed</w>
alco hol
again :</w>
adminis tered</w>
addi tive</w>
acti vate</w>
ac u
abstr act</w>
ab out
Z e
Wink ler</w>
We ap
W ise</w>
Vi go</w>
V O
Tra fficking</w>
Tech nical</w>
Tai wan</w>
T imes</w>
Strate g
St ar
Sim pson</w>
Sim pli
Si erra</w>
Ser bs</w>
S án
S ven
Rev olution</w>
Res pon
Re quest</w>
Qu al
Podimat a</w>
Plat form</w>
Pat ri
Paasi lin
Oce an</w>
O slo</w>
Muga be</w>
Mor ris</w>
Mil an</w>
McK enna</w>
McCar thy</w>
Mar t
ME P
M O
L om
L O
Kyrgy zstan</w>
Ko k</w>
Key ser</w>
Kash mir</w>
Jord an</w>
Hugh es</w>
House ’s</w>
Her zog</w>
He al
Hap part</w>
H AC
HAC CP</w>
Gá l</w>
Greec e's</w>
Gr äß
Goe bbe
Gener ally</w>
Gem elli</w>
G ong</w>
Fei o</w>
Fac ility</w>
F alun</w>
ES M
E R</w>
Du ff</w>
Cres son</w>
Con clu
Chi ef</w>
Cher noby
Catal an</w>
CA R
Bur g</w>
Bon ino</w>
Barro t</w>
Baring dorf</w>
B re
Ara fat</w>
Al ter
9 2</w>
8 0
4 3
13 7
12 8</w>
0 5</w>
-0 0
- day</w>
- A4-0
( For</w>
ò li
z he
z er</w>
youn g
won dered</w>
with stand</w>
wai ve</w>
vil le</w>
ven tures</w>
vehe ment
vehement ly</w>
vari able</w>
v a
up grade</w>
unquestion ably</w>
un regulated</w>
un due</w>
ul tr
ul ously</w>
uc co</w>
typ ically</w>
tre al</w>
tra des</w>
tive ;</w>
surpl uses</w>
sup pose</w>
stud ent</w>
stret ched</w>
stream lined</w>
ste red</w>
star vation</w>
spot light</w>
spon tane
spl itting</w>
spectr e</w>
spe ll</w>
spe eded</w>
spa tial</w>
solid ar
simpl istic</w>
sear ching</w>
sch i
schi ö
s at</w>
s and</w>
rum ours</w>
ri min
reven ge</w>
res emb
rele ases</w>
region 's</w>
reg a
recti fied</w>
rec alling</w>
re prehen
reprehen sible</w>
re define</w>
re acting</w>
rap pro
rappro chement</w>
provoc ative</w>
producer s'</w>
precau tions</w>
pre-emp tive</w>
pre valent</w>
power less</w>
pharm ac
percent ages</w>
peculi ar</w>
particul ar
paren cy</w>
par cel</w>
one- off</w>
on i
occup ies</w>
non- European</w>
no torious</w>
ner 's</w>
ne uro
mul ticul
month s'</w>
mo tive</w>
mo od</w>
mis led</w>
mid night</w>
mem ories</w>
marri ages</w>
marke t'</w>
main stream</w>
ma ps</w>
m are</w>
luck y</w>
low- carbon</w>
logis tical</w>
log istics</w>
loc ations</w>
lid es</w>
li p</w>
lan ded</w>
kidnap ped</w>
k er's</w>
k at
kat ell
inter parliamentary</w>
inter connections</w>
intelli gently</w>
institu ted</w>
install ation</w>
inflic ted</w>
indi visible</w>
inciner ators</w>
incalcul able</w>
inc es</w>
in difference</w>
hy brid</w>
hu n</w>
homel and</w>
hard ship</w>
hard est</w>
habit ats</w>
grow th
group ings</w>
gre en
gradu ates</w>
gn a</w>
gi ous</w>
ful ness</w>
fo cal</w>
fin ger
fil ms</w>
feed back</w>
fav ouring</w>
fav our
f itting</w>
experi mental</w>
exor bit
exhi bition</w>
exagger ation</w>
equ ation</w>
environmentally- friendly</w>
environ ments</w>
enclat ure</w>
enc ing</w>
employ ability</w>
egg s</w>
eder schiö
e ’</w>
e fficacy</w>
doub ling</w>
diver ted</w>
dis integration</w>
din ner</w>
dimin ishing</w>
dil u
differen tial</w>
determin es</w>
deterior ated</w>
der ous</w>
dep ths</w>
deleg ated</w>
de m</w>
de :</w>
day s'</w>
culmin ation</w>
cri tics</w>
cor d</w>
conf isc
complic ations</w>
commun it
cle ver</w>
clari fies</w>
ck he
civi c</w>
che ap
cele brations</w>
c it
bureau crats</w>
br altar</w>
bound ary</w>
bo y</w>
bir d</w>
bi ased</w>
benefici ary</w>
be gging</w>
barb arity</w>
b o</w>
b and
aw ak
avi er</w>
apo logi
anxi eties</w>
an tic</w>
an onym
an ch
an '</w>
am ples</w>
al er
ag e:</w>
ad mire</w>
absor b</w>
ab ucco</w>
X en
Wur tz</w>
We il
W as</w>
W EU</w>
V ol
Tw enty-
Tren tin</w>
Trans parency</w>
Tra katell
Sti ll</w>
Stal in</w>
Schrö der</w>
Schmit t</w>
Sch uman</w>
Rw anda</w>
Res pect</w>
Re ad</w>
R em
Prosecu tor
Program mes</w>
Pro te
President- designate</w>
Pol lu
Piec yk</w>
Phili p</w>
Paul sen</w>
P y
Ore ja</w>
N ap
Mon treal</w>
May or</w>
Maj or</w>
M el
M ain
Liber ia</w>
L änder</w>
L as
Koso vo
Ko vá
K now
K ing</w>
K iev</w>
Jon ckhe
J ustic
J un
Inter cultural</w>
Inter -
Instru ment</w>
ID A</w>
Gil- Rob
Gi braltar</w>
German y's</w>
Geor ge</w>
Gas òli
Galic ian</w>
G 8</w>
Frank fur
Fi gu
F av
Elec tion</w>
Ear lier</w>
EI B
E ast
E E
Docu ments</w>
De partment</w>
D over</w>
D id</w>
D ay
Cou to</w>
Conser vation</w>
Committe es</w>
Com ing</w>
Chin a's</w>
Chernoby l</w>
Car ner
Car los</w>
C ederschiö
C C
Bjer rega
Basi c</w>
B ad
An dean</w>
Am bassador</w>
Albertin i</w>
Al ongside</w>
A ri
5 3
2001 /02
2001 /0
200 8-
198 5</w>
15 2</w>
13 3</w>
1 000</w>
/9 9</w>
/ 1999</w>
) (
(SYN ))</w>
(C 4-0
( EC
( B5-0
' in</w>
ç a</w>
ã o</w>
á n</w>
Á lv
Álv are
z bol
wit nesses</w>
win ds</w>
whe el
well- founded</w>
weap on
wal k</w>
vo c</w>
vi de
user- friendly</w>
ur ation</w>
understand ably</w>
un brid
um ber</w>
turn out</w>
tur mo
turmo il</w>
tru ce</w>
tra gically</w>
tot alling</w>
tor n</w>
ti s</w>
there after</w>
them ;</w>
ten ded</w>
ten 's</w>
tar i</w>
tan dem</w>
tail ored</w>
t s-
t anks</w>
super state</w>
stret ch</w>
stat utes</w>
stabil is
st :</w>
smugg lers</w>
sis ter</w>
si ghts</w>
shi eld</w>
sett ing-up</w>
seaf arers</w>
scre en</w>
s port
s pared</w>
rubb ish</w>
ru gu
rugu ay</w>
ri ger
res ist
report s:</w>
repe at
rel la</w>
reiter ates</w>
region s'</w>
ref riger
reci pe</w>
rec itals</w>
rec alls</w>
rebe ls</w>
reat h</w>
realis tically</w>
re- establish</w>
re ward</w>
re tail
re state</w>
ration alisation</w>
qu a</w>
priv ati
prevail s</w>
prep aredness</w>
pr ising</w>
por tations</w>
polic y
plu g</w>
pay s'</w>
pan ace
panace a</w>
pa ths</w>
outra ge</w>
organ ize</w>
or a</w>
op ing</w>
op hilia</w>
om ed</w>
o le</w>
o ke</w>
non- member</w>
no vel</w>
neighbour ly</w>
mountain ous</w>
mono pol
mis lead</w>
mi xing</w>
medi ation</w>
me tal</w>
mat ches</w>
low ered</w>
ligh tly</w>
life sty
len i
leis ure</w>
leg es</w>
lap ses</w>
la g</w>
join s</w>
jeopar dy</w>
j on</w>
issu e:</w>
is tic
is se
is ons</w>
invo ke</w>
inv ites</w>
indign ation</w>
inadequ acy</w>
in tru
in jec
in hab
in et</w>
in aug
in ate</w>
import ant:</w>
imm une</w>
ideo logies</w>
hun t</w>
hosti lity</w>
hor rors</w>
hom eless</w>
ho stages</w>
happ iness</w>
hal ted</w>
ha voc</w>
h re
h ler</w>
guide line</w>
gre n</w>
g ulf</w>
g lar
fram ed</w>
forbi dden</w>
for ging</w>
fish ed</w>
fin alise</w>
fi re
fer ry</w>
fas cin
fam il
exclusi vity</w>
exclu des</w>
exacerb ating</w>
ev o</w>
ev al</w>
euro -
eth ically</w>
es p
es el
end -
en ting</w>
electr ical</w>
ele mentary</w>
ed itorial</w>
e do</w>
diversi fy</w>
dismis sal</w>
dis su
directive 's</w>
di re</w>
deri ving</w>
de vising</w>
de vice</w>
de tain
de pu
de portations</w>
day '</w>
d'E sta
cow ar
conver ted</w>
condi tioning</w>
concer ne
con serve</w>
commissi oner</w>
comm only</w>
codi fied</w>
co st
co c
car tels</w>
calcul ating</w>
c king</w>
c es;</w>
bra ke</w>
borrow ing</w>
bo w</w>
be having</w>
be 's</w>
b reath</w>
b read
avo idance</w>
attr acted</w>
at to
at es-General</w>
at em
assum es</w>
ar -
approve d)</w>
anti- democratic</w>
anti- competitive</w>
announ cements</w>
alli ances</w>
al es</w>
al armed</w>
agg reg
adap tations</w>
accep ted)</w>
acc use</w>
ab normal</w>
Wi m</w>
Wi j
Weap ons</w>
W aste</w>
Val ver
V inc
Ug and
U ruguay</w>
Tra ining</w>
T emporary</w>
T E</w>
Sán che
Su u</w>
State 's</w>
St ub
St u
Speci fic</w>
Schaff ner</w>
S ign
S am
Rom an</w>
Rad ical</w>
R EP
Pé rez</w>
Presid ential</w>
Po z
Peters burg</w>
Pelt tari</w>
Pakist an's</w>
P ower</w>
Nap les</w>
N abucco</w>
N O
Mo vement</w>
Mi gration</w>
Maj est
M ission</w>
M em
Loc al</w>
Lithuan ian</w>
Li k
L ou
L en
Ková cs</w>
Kor ak
J avier</w>
J RC</w>
In dependence</w>
Il legal</w>
He zbol
He in
Gu atem
Grou ps</w>
Goebbe ls</w>
Gasòli ba</w>
For ce</w>
Fi ori</w>
Far age</w>
F lem
F ishing</w>
Es s
E limin
E d
Dru g</w>
Develop ing</w>
Depre z</w>
D raft</w>
D U</w>
Croati an</w>
Con sul
Com p
Col lin
Coel ho</w>
Cey hun</w>
Canad ian</w>
Bushill-Matthe ws</w>
Bru ton</w>
Bjerrega ard</w>
Bio ethics</w>
B av
Autonom ous</w>
Any thing</w>
Anti- Fraud</w>
Air bus</w>
9 1
8 1</w>
20 14</w>
197 5</w>
196 0s</w>
12 %</w>
10 8</w>
/200 5)</w>
/ High</w>
- making</w>
- in-
(continu ation)</w>
(CNS) );</w>
( which</w>
( Article</w>
' ;</w>
zhe im
z en
yc le</w>
wrec k</w>
work ;</w>
work '</w>
week s'</w>
way :</w>
w ary</w>
w aged</w>
vo et</w>
vic inity</w>
veri fied</w>
ver te
verte br
vertebr al</w>
vege table</w>
ve ;</w>
ve '</w>
v ine</w>
unbrid led</w>
un favourable</w>
un fairly</w>
un believ
un a</w>
umul ative</w>
tru sted</w>
treat ments</w>
trans plants</w>
trans mit</w>
trans forming</w>
tr ace</w>
toler able</w>
to ward</w>
tirel ess</w>
tion -related</w>
ti vities</w>
three -year</w>
the tical</w>
terri bly</w>
ten acity</w>
teleph ones</w>
t man
tman n-
tmann- Ko
t /
sur pris
sum med</w>
ster ling</w>
sp ouses</w>
sol ar</w>
sk i
si ze
si veness</w>
sh u
seas onal</w>
scrat ch</w>
s ors</w>
s lugg
s ket
ru in</w>
right ful</w>
ri de</w>
rever t</w>
respon sibilit
resolution s:</w>
resid ential</w>
res ;</w>
rela xed</w>
recur ring</w>
recogn izes</w>
recep tive</w>
rec over
rec ast
re united</w>
re l</w>
r é
r ank</w>
pro min
presid ents</w>
pre dict
practic able</w>
post- 2013</w>
pollu ted</w>
po t
ple mentary</w>
pha ses</w>
periph ery</w>
peace- keeping</w>
pe tty</w>
passeng ers'</w>
paedoph ile</w>
pa res</w>
p raised</w>
overwhel m
orien tations</w>
ori ous</w>
or ph
op pressive</w>
op pressed</w>
one ;</w>
old est</w>
obe y</w>
o x</w>
o res
o ils</w>
notic eable</w>
nor th-
non- legislative</w>
nom inal</w>
nai ve</w>
n 't</w>
muni tion</w>
motor ways</w>
mi li
medium -</w>
measu rement</w>
manife station</w>
manag es</w>
loy al</w>
log ists</w>
li abilities</w>
level ;</w>
less- favoured</w>
le ver</w>
la y
la ment
l y;</w>
kil ome
iti vely</w>
it en
ir onic</w>
inv ari
inv al
intermedi aries</w>
instruc ted</w>
infr inging</w>
inflexi ble</w>
infec tious</w>
inf el
inf am
in th</w>
in separ
in convenience</w>
in consistency</w>
imagin ative</w>
imagin able</w>
hre b</w>
hin dering</w>
he t</w>
haz ard</w>
han ding</w>
h us</w>
guil t</w>
gra in</w>
gir l</w>
gi g
gi ants</w>
gender -based</w>
g 's</w>
fru ition</w>
for ty</w>
foo d-
flour ish</w>
figh ters</w>
f led</w>
f it
f an</w>
extr ic
ext inc
exped ite</w>
est er</w>
energy- efficient</w>
en do
en a</w>
employ ers'</w>
emb assi
embassi es</w>
elec tors</w>
elap sed</w>
el k
educ ate</w>
ear ners</w>
dum ped</w>
dom ination</w>
distribu ting</w>
distingu ishing</w>
dissemin ate</w>
dis courage</w>
dir ty</w>
diplom ats</w>
diox ins</w>
detain ees</w>
destabil ising</w>
dele ting</w>
de puty</w>
de portation</w>
d'Ancon a's</w>
d rought</w>
d ressing</w>
cul ar</w>
critici zed</w>
control lers</w>
consci ously</w>
compens ating</w>
compar isons</w>
compar ability</w>
commun ism</w>
commission ers</w>
col leges</w>
co sme
co ffers</w>
cheap ly</w>
chair manship</w>
cen tre
c end</w>
bru zzo</w>
bri bery</w>
bo xes</w>
be ating</w>
bas ing</w>
b is
b ann
au to
attribu table</w>
ask :</w>
as simil
arrog ant</w>
are l</w>
apo logy</w>
anticip ating</w>
ancho red</w>
an ’s</w>
an them</w>
an ol</w>
amp ]
am o</w>
am munition</w>
al an</w>
ag e-
affir med</w>
adhe rence</w>
accus ing</w>
accumul ate</w>
accel eration</w>
able '</w>
ab atto
a rest</w>
[ amp]
Wor tmann-Ko
Valver de</w>
V is
Uygh urs</w>
UN I
UN ES
U M
Tur chi</w>
Trakatell is</w>
Tob acco</w>
Tha iland</w>
Takkul a</w>
St ream</w>
Slovak ia's</w>
Sil k</w>
Sa x
S k
S and
Roman o</w>
Ro jo</w>
Rh ine</w>
Re sumption</w>
Rap k
R ail
Pro mo
Presidenc y-
Peter le</w>
P ope</w>
Nor d</w>
Net any
Nat ure</w>
NATO 's</w>
N EC
NEC T</w>
My an
Memb ership</w>
Maurit ania</w>
Mag hreb</w>
M om
M ess
Lukashen ko
Loo k</w>
Lis bon
Lik ud</w>
L ud
L ord</w>
Kon rad</w>
Jonckhe er</w>
J ob
IV /
Hezbol lah</w>
Hau tal
H abs
Gra ça</w>
Gra din</w>
Gil-Rob les</w>
Ge o
Gallag her</w>
Franco- German</w>
F ru
F arm
Ex clu
Est abl
Ess entially</w>
Elec tr
ESM A</w>
EA G
E specially</w>
Director ates-General</w>
Director ate</w>
Di g
De au
Dan es</w>
D am
Cram er</w>
Carner o</w>
Carl gren</w>
CON NECT</w>
C leg
C e
C anc
Bö hm</w>
B order</w>
B ill</w>
B )</w>
At lan
Ap parently</w>
Andalu sia</w>
An dor
Al zheim
Al bor</w>
AID CP</w>
A ppl
A i
A bruzzo</w>
9 4</w>
8 5%</w>
7 9</w>
15 4</w>
13 8
12 1</w>
10 )</w>
- year-
- raising</w>
- down</w>
(O -00
(H-0 0
(COM( 96
Álvare z</w>
zoono tic</w>
yi elds</w>
y b
win e-
will ingly</w>
wate red</w>
vis t</w>
veri fiable</w>
ver itable</w>
vel l
ve al</w>
vas cular</w>
uti li
upheav al</w>
underpin ned</w>
un willingness</w>
un punished</w>
um in
ultra- peripheral</w>
u prising</w>
tu de</w>
tri bunal</w>
trea sury</w>
tra il
tor ates</w>
tion s'</w>
time ;</w>
than ked</w>
termin ation</w>
t su
tsu nam
symptom s</w>
su spending</w>
stu res</w>
stic ks</w>
start -up</w>
stag n
st ub
st abili
st '</w>
spirit ual</w>
sp inal</w>
sole m
sol ic
soci o
slow ed</w>
slaughter houses</w>
size able</w>
six -
sign alling</w>
si gh
short coming</w>
shar ply</w>
sha vings</w>
sh ir
sh ell</w>
separ ating</w>
separ ati
se aled</w>
se al</w>
scar ce</w>
sac red</w>
s ounding</w>
s ine</w>
row n</w>
ro s</w>
ro of</w>
ro lled</w>
ro l</w>
ro gen</w>
ris k-
rigi dity</w>
resist ant</w>
repeat :</w>
remain der</w>
rela xation</w>
re- examine</w>
re wards</w>
re vel
re si
re in</w>
rap ed</w>
ra m</w>
ra b
r s'</w>
qu e
pu is</w>
prov inces</w>
prohibi tions</w>
prim acy</w>
pre sume</w>
pre h
preh end</w>
pois oning</w>
plur alistic</w>
pipe lines</w>
pessim istic</w>
per severance</w>
people ;</w>
pat ch
paraly sis</w>
parad ox</w>
paper work</w>
pa ving</w>
ow ards</w>
overwhelm ingly</w>
out lining</w>
out breaks</w>
opa que</w>
om ission</w>
om issi
ob vi
o st
nutri tional</w>
nit rogen</w>
night mare</w>
negoti ator</w>
nation alisation</w>
nar co
na m</w>
multi functional</w>
moder ni
minis tries</w>
mer ge</w>
men tion
me ;</w>
massac re</w>
manife sted</w>
mani festo</w>
m asses</w>
loyal ty</w>
lo oming</w>
lo cu
lifesty les</w>
lea k</w>
labour -
labor atory</w>
labor atories</w>
la ugh
kill ings</w>
ke ys</w>
k t
k ick
jo ke</w>
it z</w>
investig ative</w>
intra- Community</w>
inter- institutional</w>
inter dependent</w>
install ed</w>
inspec t</w>
ing e</w>
industr y's</w>
indul ge</w>
in tim
in sur
in as
inas much</w>
import er</w>
implic itly</w>
impe ded</w>
hypo thetical</w>
however :</w>
hem is
health -
he ter
he re;</w>
haz ards</w>
har vest</w>
h itting</w>
h anging</w>
guaran tor</w>
gu y</w>
gu ests</w>
gr an
go ld</w>
g un
g on</w>
g au
g ang</w>
full- time</w>
forma tions</w>
forecast ing</w>
for -
flaw ed</w>
fl esh</w>
ff er</w>
ferti lis
fe t
facilit ates</w>
f ats</w>
extr act</w>
exter n
exorbit ant</w>
exo dus</w>
exc esses</w>
este em</w>
es h
erron eous</w>
equ als</w>
energe tic</w>
enc la
en gen
emo tions</w>
emo tion</w>
ele phant</w>
el voet</w>
earthqu akes</w>
dog matic</w>
distor ting</w>
distinc tive</w>
dis orders</w>
dis h
dis gu
dis counts</w>
di ligence</w>
destabil isation</w>
den sity</w>
del ch
delch eva</w>
defin itively</w>
defenc eless</w>
def erred</w>
decei ve</w>
dea f</w>
de ter</w>
d- up</w>
d ry</w>
cut backs</w>
cultiv ated</w>
cu t-
cry stal</w>
critic ises</w>
crimin alise</w>
countr y;</w>
cop ing</w>
conver ting</w>
con gress</w>
compl ained</w>
comp iled</w>
collabor ate</w>
co- incineration</w>
co o
classi c</w>
cin em
chair s</w>
cha ins</w>
ch er
certi fied</w>
cere mony</w>
cen sorship</w>
ce able</w>
catastro ph
car ro
cal m
business men</w>
bro ch
brid ging</w>
boo k
bo ast</w>
blat antly</w>
bi as</w>
be ac
bau er</w>
bankrupt cy</w>
ay anna
awaren ess
aver t</w>
authori ties'</w>
atten tively</w>
ath le
aspec ts:</w>
asi a</w>
as y</w>
arma ments</w>
appreci ates</w>
applau ded</w>
ap pen
anti- personnel</w>
anti- grassroots</w>
anti- grass</w>
anis ation</w>
analy tical</w>
ali en
ah u</w>
ag en
ad z
ad o</w>
acti vit
accumul ated</w>
abo ve-
Z ana</w>
Y RO
Xen ophobia</w>
Viet nam</w>
Vice- Presidents</w>
Uygh ur</w>
UNES CO</w>
U p
Tun nel</w>
TR IP
TRIP S</w>
T al
Sven sson</w>
Su c
Stu dies</w>
Statis tics</w>
Stand ards</w>
Spani ards</w>
Sm ith</w>
Sit uation</w>
Schroed ter</w>
S ur
S ha
S ac
Rom any</w>
Re form
Rap id</w>
R ic
R econ
R ack</w>
Promo ting</w>
Prodi 's</w>
Presidency- in-Office</w>
Presidenc y’s</w>
Per ry</w>
Pap out
Pap ayanna
PO L</w>
PC A</w>
P ino
P ati
P ass
P ac
Or al</w>
O ld</w>
No gu
Netany ahu</w>
Ne delcheva</w>
N istic
Musot to</w>
Mo tion</w>
Minis ter's</w>
Mill er</w>
Mier lo</w>
Mari e</w>
M éndez</w>
M ira</w>
Lib ick
Le w
Lad y</w>
Ky i</w>
K in
K e
Jo se
Je ws</w>
Ho locaust</w>
H ad</w>
H IV/
Gräß le</w>
Georgi a's</w>
GB P</w>
G y
Frankfur t</w>
Fran c
F O
Euro land</w>
EP L
E igh
Du puis</w>
Dis abilities</w>
Dani el
D a
Coven ant</w>
Council ;</w>
Conclu sions</w>
Con ver
Collin s</w>
Clo sure</w>
Cha ir
Cederschiö ld</w>
Ca thol
C S
Bu iten
B our
B 7-0
An im
Ah ern</w>
A ung</w>
A men
A elvoet</w>
7 2</w>
4 4
200 9
20 30</w>
17 4</w>
1 17</w>
- T
(L oud</w>
(E T)</w>
(COS ))</w>
' one</w>
‘ the</w>
í a-
y l</w>
y "</w>
work -related</w>
won ders</w>
whis ky</w>
wat ched</w>
war fare</w>
w ounded</w>
verb al</w>
ver ge</w>
ve to
vari ations</w>
vacc ine</w>
uni tive</w>
under takes</w>
un ted</w>
un qualified</w>
un itary</w>
un balanced</w>
um ulation</w>
ul ter
tru ths</w>
trans porting</w>
to ol
tion ism</w>
ti mid</w>
ti eth</w>
ther mal</w>
the- board</w>
the irs</w>
th in</w>
tex t
terror ism
te worthy</w>
t ab
sy non
swit ched</w>
survi ved</w>
suffici ency</w>
suff rage</w>
succe eding</w>
subjec tive</w>
su itability</w>
stro ke</w>
stan bu
stanbu l</w>
st ol
stol en</w>
spe eds</w>
sp aces</w>
sli p</w>
sla ves</w>
sion :</w>
sim ple:</w>
side lined</w>
side -
sho ot</w>
shif ted</w>
she ep
sha ke</w>
set -
sensi tivities</w>
self- interest</w>
segreg ation</w>
sector 's</w>
se ated</w>
se a
scre ens</w>
say s:</w>
san itary</w>
sa vers</w>
s nu
ruth less</w>
righ t:</w>
revit alise</w>
reti red</w>
restaur ants</w>
res ounding</w>
repu di
reliev ed</w>
regret ted</w>
reflec tions</w>
redundan cy</w>
rec or
recor ding</w>
reason ed</w>
rea p</w>
re tains</w>
re fund</w>
ran dom</w>
rac onian</w>
r ushed</w>
r i</w>
quanti fied</w>
quanti fiable</w>
purcha sed</w>
pur se</w>
provision ally</w>
prosecu te</w>
prob ability</w>
pro pri
prison er</w>
pres tige</w>
pre fers</w>
prag matism</w>
port ra
popul arity</w>
pollu tant</w>
po tent</w>
ple ad</w>
pha sing</w>
pestici de</w>
persu asion</w>
pene tration</w>
pe tro
parad ig
par ap
pac ket</w>
p unitive</w>
p ause</w>
ow adays</w>
over shad
out sour
ous :</w>
ores e</w>
om itted</w>
ol es
ol d-
ob session</w>
o si
num ber
non- commercial</w>
nom enclature</w>
no teworthy</w>
new ly-
na ń</w>
n est</w>
my th</w>
multi tude</w>
moun ting</w>
motiv ate</w>
missi on
mil dly</w>
mil d</w>
medi ator</w>
mechan ical</w>
mas ch
masch inen</w>
marke ted</w>
manife stly</w>
manag er
man n's</w>
main land</w>
ma m
m ess</w>
lu cra
loo m</w>
life time</w>
li go
legisl ations</w>
legisl ating</w>
le e
lap se</w>
kidnap ping</w>
kidn app
ke d:</w>
k ic
job -
jeopar di
jac ket</w>
j an</w>
iti es'</w>
invari ably</w>
inv itations</w>
interven ed</w>
intermedi ary</w>
inter locu
inter fe
inten tionally</w>
instig ation</w>
insepar able</w>
ink hor
inhab ited</w>
ing en
infer ior</w>
inf ant</w>
inde f
inc ur</w>
in discrimin
implic ation</w>
impe de</w>
immi gra
immen sely</w>
im plied</w>
ili es</w>
i op
high- tech</w>
he igh
harmon ize</w>
h ist
gyp sies</w>
ground work</w>
gol ese</w>
glar ing</w>
gen ces</w>
g/ km</w>
g ro
g rid</w>
g -
front loading</w>
four -year</w>
formul ae</w>
focus sed</w>
fo stered</w>
fluctu ations</w>
fle x
fin alising</w>
fascin ating</w>
fac tual</w>
fa ults</w>
f ills</w>
extr acted</w>
expl oring</w>
ev ing</w>
ev ade</w>
escap ing</w>
er up
entitle ment</w>
ent ;</w>
ent '</w>
ensu ing</w>
enfor ceable</w>
enc ro
en quiry</w>
en quiries</w>
emi gration</w>
eme al</w>
embrac ing</w>
ele vision</w>
el li
econom ists</w>
eas ing</w>
ear nings</w>
eag er</w>
e v</w>
e rec
dre am
do omed</w>
dissemin ating</w>
dis rupt</w>
dis information</w>
diox in</w>
devast ation</w>
deter rence</w>
deser ving</w>
deple ting</w>
den ies</w>
dee pen
dead ly</w>
de voting</w>
de tr
de t
de part</w>
dar k
dam s</w>
d'Esta ing</w>
d raconian</w>
d aw
cur bing</w>
cru x</w>
cre w</w>
cra zy</w>
cou p</w>
cost- effective</w>
correspon dence</w>
correc ting</w>
conten d</w>
constitu ting</w>
conclu sive</w>
conce de</w>
compr ise</w>
complic ity</w>
competi tions</w>
common place</w>
commen ting</w>
codi fication</w>
co- legislator</w>
clu ster</w>
clear -
ck maschinen</w>
chequ e</w>
che apest</w>
ce '</w>
catastroph es</w>
car tel</w>
car te</w>
car dio
cap ture</w>
cab inet</w>
c ree
c lic
brut ality</w>
bro thers</w>
br ink</w>
bottlenec ks</w>
bon us</w>
blan ket</w>
birth day</w>
bio ethics</w>
bene ath</w>
be t</w>
be arable</w>
be ans</w>
batter ies</w>
bank rupt</w>
b ind</w>
b es
b ach</w>
ato es</w>
ati m</w>
aston ished</w>
asm us</w>
are a;</w>
ar y;</w>
ar oused</w>
ar hus</w>
antu zz
anomal y</w>
ance ;</w>
an go
an gered</w>
all :</w>
align ment</w>
acc umulation</w>
able :</w>
Zimbab we
Zim mer
Wortmann-Ko ol</w>
Weil er</w>
Ugand an</w>
U sing</w>
Turke y’s</w>
Tom lin
Tim orese</w>
TE S</w>
T elec
T B</w>
Sup plementary</w>
Stub b</w>
State ments</w>
Spain 's</w>
Shi p
Sen e
San ter's</w>
Sal v
S p
S ic
S av
S ang
S U
Roman ians</w>
Ro che</w>
Ri ver
Representa tives</w>
Regul atory</w>
Rail way</w>
REP ER</w>
R [amp]
Qual ifications</w>
Qu ec
Poz nań</w>
Pen 's</w>
P radi
P ack
Osse tia</w>
O f
Nogu eira</w>
Net works</w>
N owadays</w>
Myan mar</w>
Mushar raf</w>
Mar ín</w>
Mar ía</w>
M is
M en</w>
M I
M )</w>
Ly ons</w>
Lom é</w>
Kosov ars</w>
Kal fin</w>
K en
Job s</w>
Jen sen</w>
J ou
Is sues</w>
Irel and
Inter group</w>
Indi a's</w>
In clu
Imple menting</w>
IS O</w>
I ber
Hol te</w>
Hel m
Heal th
H und
H arms</w>
Gree ks</w>
Garc ía-
Gab on</w>
G oll
G F</w>
Fran kly</w>
Fo rest</w>
Fam ilies</w>
F antuzz
F al
Explan ations</w>
Explan ation</w>
Every body</w>
Eth iop
Eth ics</w>
Eri k
Er asmus</w>
Elimin ation</w>
Ear th</w>
EPL P</w>
Dru ckmaschinen</w>
Deau ville</w>
Daniel sson</w>
D uma</w>
D om
D S</w>
Conven tion's</w>
Con golese</w>
Commission er:</w>
Commission er-
Colo m</w>
Chan nel</w>
Ch em
Cam er
CO REPER</w>
CA P)</w>
C5-0 5
C up</w>
C l
Bur ton</w>
Bulg ari
Bud d
Br inkhor
Bour lan
Bey sen</w>
Ban k's</w>
B orders</w>
B et
B A
Au tom
Ar ms</w>
Ap plic
Ang ela</w>
Andor ra</w>
A arhus</w>
92 /
9 8</w>
8 7</w>
7 50</w>
7 1</w>
5 2
30 8</w>
2 20</w>
198 4</w>
17 0</w>
14 3</w>
13 0
100 th</w>
10 8
10 4
/9 6-
- specific</w>
- EU</w>
(INI ))</w>
(A5-0 3
( CAP)</w>
( 2
( 199
' polluter</w>
" the</w>
ă u</w>
é tr
étr as
étras anta</w>
ym ous</w>
year s’</w>
year '</w>
writ er</w>
world- wide</w>
work load</w>
wor dings</w>
wh i
warran ts</w>
w ret
ver sus</w>
ush ing</w>
us c
us ;</w>
uni formity</w>
underpin ning</w>
un wise</w>
un successful</w>
un spent</w>
un ra
umb rella</w>
ultr ali
ty ;</w>
tri alogues</w>
tra u
tra tions</w>
ton ne</w>
ton 's</w>
tol l</w>
together :</w>
to v
to 's</w>
tim escal
ti p</w>
there in</w>
ther ine</w>
than k
th read</w>
termin ology</w>
ten ess</w>
ten dering</w>
tal ent</w>
t/ Nordic</w>
t antly</w>
t ally</w>
synon ymous</w>
syn dro
suspic ions</w>
sur render</w>
sur ate</w>
sun k</w>
summar ised</w>
succe eds</w>
su scep
su its</w>
str and</w>
stem ming</w>
stal em
sta unch</w>
spr ings</w>
spokes man</w>
sp er</w>
sm a</w>
slugg ish</w>
sk ies</w>
situ ation:</w>
sin k</w>
sim plicity</w>
si zed</w>
shu tting</w>
short fall</w>
shel ter</w>
sha ken</w>
sen 's</w>
sel ler</w>
sel fish
secretari al</w>
se em
s- ten</w>
s s</w>
ross- the-board</w>
ro es</w>
right )</w>
resi li
reser ving</w>
renew ing</w>
reli eve</w>
rele asing</w>
rel l</w>
reas suring</w>
reas s
read :</w>
re tic
re public</w>
re aring</w>
re 's</w>
question s:</w>
pun ishing</w>
pu zz
pu p
prote sted</w>
prosecu tors</w>
programme 's</w>
pro t
pro sper</w>
priori ties:</w>
post- war</w>
pollin ation</w>
ple dged</w>
persis ting</w>
pen ny</w>
pe l
pe d
pat ch</w>
particular :</w>
part y-
par able</w>
pain s</w>
paed ophilia</w>
p es</w>
over fishing</w>
oun g</w>
ost lander</w>
or che
orche str
optim ise</w>
op poses</w>
on esel
omissi ons</w>
om er
ol a</w>
od y's</w>
oce an</w>
occasion al</w>
obstruc ting</w>
obstruc t</w>
objec tive:</w>
o ligo
o ak</w>
o '</w>
non- compulsory</w>
nom inations</w>
nis ch</w>
neg ligent</w>
neg li
ne z</w>
ne tic</w>
ne -
na st
mur de
mono xide</w>
mo ther
mo ck
mitig ation</w>
mer ging</w>
medic ation</w>
massac res</w>
manager ial</w>
m use
lucra tive</w>
loop hole</w>
long- awaited</w>
long est</w>
long er
longer -term</w>
lin qu
lif ts</w>
lee way</w>
le an</w>
land fill</w>
lan ders</w>
la v</w>
la sted</w>
l ur
kick -
k j
k ills</w>
ish ers</w>
is te</w>
inter connected</w>
inter active</w>
inst all</w>
inspec ted</w>
inno v
influ encing</w>
infam ous</w>
inf ancy</w>
indiscrimin ately</w>
in secure</w>
in ning</w>
in king</w>
in consisten
in competence</w>
illiter acy</w>
illi g</w>
ide l
hyster ia</w>
ho ly</w>
hin ders</w>
head lines</w>
he eded</w>
he at
har sh
har ness
har bour</w>
handic ap</w>
hand ful</w>
ham mer</w>
h n's</w>
guar dians</w>
gu ides</w>
gu err
guerr ill
grow s</w>
go -
gentle men's</w>
ge stures</w>
ge l</w>
g ros
future ;</w>
fundament alists</w>
ful lest</w>
fr action</w>
foun der</w>
form alities</w>
fore :</w>
for t
flour ishing</w>
flou ted</w>
flo ating</w>
flag ship</w>
fi x
fer til
fer ries</w>
fe ar
favour ite</w>
fat alities</w>
fasc ist</w>
fac e
fa ul
fa ke</w>
extinc tion</w>
exce eds</w>
exam ples:</w>
ex changed</w>
evol ved</w>
eth anol</w>
ess ing</w>
es hi
enzy mes</w>
enh ances</w>
en du
en act</w>
emp ire</w>
embarr assing</w>
emb er
em powered</w>
em it</w>
electron ics</w>
e e
du ous</w>
drug -free</w>
dra gged</w>
dra g</w>
down graded</w>
divi des</w>
diver sit
distribu tors</w>
distor ts</w>
dispen se</w>
disman tled</w>
discipl ines</w>
dis satisfied</w>
dis honest</w>
dis credit</w>
dis continued</w>
dis co
direc ting</w>
dict ates</w>
dic al</w>
di ame
der s-ten</w>
deple tion</w>
denomin ations</w>
dem ol
defec t</w>
dec ou
dec eption</w>
deb atable</w>
de z-
de grading</w>
dang er
cul osis</w>
cred it-
cr ash</w>
conven ed</w>
conve ying</w>
contraven e</w>
consis ted</w>
consen sual</w>
consci ences</w>
connec ting</w>
conf er</w>
comple mented</w>
complac ency</w>
compe lling</w>
commen surate</w>
com prehend</w>
co- existence</w>
clin ical</w>
circul ated</w>
cha iring</w>
centr alisation</w>
cardio vascular</w>
candi dat
candi d
can cel</w>
calm ly</w>
ca ke</w>
c umulative</w>
buil ders</w>
bon d</w>
bom bers</w>
bo gged</w>
bo ast
ber culosis</w>
batt les</w>
ation ’</w>
at ric</w>
as sign
arri ves</w>
ar ticul
ar ray</w>
appear ances</w>
ama zing</w>
al ina</w>
air ing</w>
ag enci
ag e
aeroplan e</w>
advant ageous</w>
adminis ter</w>
ad mitting</w>
accor ds</w>
acce ded</w>
ac ross-the-board</w>
Ze al
Y oung</w>
Wedn es
W ine</w>
Vo tes</w>
US S
UK 's</w>
Tro ika</w>
Transcauca sian</w>
T ony</w>
Sub sidi
Ste ering</w>
Stat es:</w>
South- East</w>
Simil ar</w>
Sen ate</w>
Se oul</w>
Se e
Sci ence</w>
San ders-ten</w>
S ter
S met</w>
S F)</w>
Russi a’s</w>
Roman i</w>
Res ources</w>
Res er
Re infel
Re ference</w>
Re d
Rapk ay</w>
Ramo s</w>
RA PE
R ef
R ain
Quec edo</w>
Py re
Pr ince</w>
Po sting</w>
Pi étrasanta</w>
Per s
Papout sis</w>
Paasilin na</w>
P lan
P L
Op en</w>
Of ten</w>
Objec tives</w>
O ut
O t
O ostlander</w>
O il</w>
No ise</w>
N eves</w>
Moldov a's</w>
Mo ody's</w>
McCar tin</w>
Mc Mah
McMah on</w>
Mc In
McIn to
Mari o</w>
M ight</w>
M as
Lew and
Lef t/Nordic</w>
Le y
Le one</w>
Le inen</w>
Las chet</w>
Langen hagen</w>
Lan gu
L aval</w>
Korak as</w>
King dom
K roes</w>
K it
K ab
Journ alists</w>
Jou yet</w>
J i
J an</w>
Ital y's</w>
Ign alina</w>
Iber ian</w>
IC T
I stanbul</w>
Human itarian</w>
He idel
Goll nisch</w>
Gen o
Garri do</w>
G illig</w>
France 's</w>
Fran z</w>
Fernan des</w>
Fav a</w>
Farm ers</w>
F YRO
F IF
F 's</w>
Euro barometer</w>
Establ ishing</w>
Effec tive</w>
ED F</w>
EAG GF</w>
E TS</w>
Dis crimin
Dig ital</w>
Day ton</w>
Davi es</w>
D C</w>
Cor por
Con tin
Comp any</w>
Cle ar</w>
Char les</w>
Ca therine</w>
C5-0 4
C had</w>
C IA</w>
C -
Bu reau
Brinkhor st</w>
Bil dt</w>
Bel der</w>
B5-0 6
B ack</w>
Ass istance</w>
Ar ound</w>
Ar my</w>
Appl ause</w>
Al ready</w>
Ac tually</w>
A nast
A chi
9 5%</w>
8 6</w>
8 1
7 6
7 4</w>
5 40</w>
4 5%</w>
37 (2)</w>
3 3%</w>
195 7</w>
195 6</w>
195 1</w>
19 3
137 (1)</w>
10 1</w>
/99 -
/200 5</w>
' :</w>
' )</w>
ú n</w>
yiel ded</w>
work places</w>
wis er</w>
wil d
weigh ty</w>
web sites</w>
way ;</w>
w a</w>
vit ality</w>
vis m</w>
view points</w>
verb atim</w>
v orde</w>
util ise</w>
us efully</w>
ur b
uni dad</w>
un lead
unlead ed</w>
un important</w>
un control
un checked</w>
um i
u sive</w>
two- speed</w>
tw in</w>
turbul ence</w>
tu ous</w>
tu als</w>
troub les</w>
trigg er</w>
tri ple</w>
tre es</w>
trans cend</w>
trade marks</w>
tor s'</w>
top ic
tol ls</w>
timescal es</w>
thri ve</w>
thought- out</w>
th ening</w>
techno log
ta iled</w>
surpris ingly</w>
superi ority</w>
super power</w>
suff oc
str o</w>
sti r
stalem ate</w>
st un
st ar</w>
spon sored</w>
sp ill</w>
south- east</w>
solem nly</w>
society '</w>
sion '</w>
sil ence
si zes</w>
shi fts</w>
shell fish</w>
shar ks</w>
second- hand</w>
sco res</w>
scho oling</w>
satis fying</w>
sad ness</w>
sac ros
sacros anc
sacrosanc t</w>
sa iling</w>
s or</w>
rub ber</w>
roc ket</w>
right s:</w>
right s'</w>
ri pe</w>
revol ves</w>
revi ved</w>
restra ined</w>
respec table</w>
resor ting</w>
resolution :</w>
resis ted</w>
resid ual</w>
repro ach</w>
repe al</w>
renoun ce</w>
ren ts</w>
rela x</w>
regul arity</w>
recru it</w>
recei pt</w>
real m</w>
re processing</w>
re payment</w>
re opening</w>
re leg
re introduce</w>
re allocation</w>
r ous</w>
pur pose
public ations</w>
proportion ately</w>
prof it-
[...]
